<pad>	0
<unk>	0
<s>	0
</s>	0
▁t	-0
▁th	-1
▁a	-2
in	-3
▁w	-4
▁the	-5
re	-6
▁o	-7
▁s	-8
at	-9
er	-10
nd	-11
ou	-12
▁c	-13
is	-14
it	-15
▁b	-16
ing	-17
▁m	-18
en	-19
▁h	-20
on	-21
▁to	-22
▁p	-23
▁f	-24
an	-25
es	-26
▁d	-27
▁of	-28
or	-29
ll	-30
▁in	-31
▁I	-32
▁and	-33
ed	-34
▁l	-35
ar	-36
▁y	-37
▁that	-38
om	-39
▁g	-40
as	-41
ic	-42
le	-43
▁you	-44
ve	-45
al	-46
▁we	-47
▁n	-48
▁wh	-49
ow	-50
▁is	-51
▁e	-52
us	-53
▁A	-54
▁be	-55
ut	-56
▁it	-57
ion	-58
ot	-59
et	-60
▁T	-61
▁re	-62
▁ha	-63
ent	-64
ct	-65
▁on	-66
ld	-67
ver	-68
ay	-69
id	-70
▁And	-71
▁Th	-72
se	-73
all	-74
▁this	-75
im	-76
st	-77
ro	-78
ig	-79
▁S	-80
ur	-81
ere	-82
ly	-83
▁st	-84
ch	-85
ke	-86
ce	-87
▁for	-88
if	-89
▁was	-90
ra	-91
▁W	-92
▁an	-93
ir	-94
▁do	-95
▁are	-96
oo	-97
ith	-98
ally	-99
op	-100
th	-101
am	-102
▁have	-103
▁with	-104
▁ab	-105
▁they	-106
▁u	-107
▁se	-108
▁k	-109
▁can	-110
▁-	-111
▁--	-112
▁B	-113
▁as	-114
▁mo	-115
ation	-116
out	-117
ht	-118
▁li	-119
▁so	-120
▁go	-121
▁what	-122
▁So	-123
▁com	-124
ad	-125
▁wor	-126
▁he	-127
very	-128
ould	-129
ill	-130
▁at	-131
▁me	-132
▁about	-133
▁sh	-134
▁ne	-135
ant	-136
▁not	-137
ter	-138
ge	-139
il	-140
ul	-141
ol	-142
▁all	-143
ust	-144
▁The	-145
▁j	-146
▁fr	-147
▁ex	-148
ers	-149
use	-150
ight	-151
▁pro	-152
▁som	-153
▁ch	-154
▁r	-155
▁or	-156
▁de	-157
▁there	-158
▁"	-159
▁my	-160
▁pe	-161
ear	-162
um	-163
art	-164
ople	-165
pp	-166
ck	-167
▁It	-168
▁con	-169
ess	-170
▁like	-171
▁We	-172
ate	-173
ure	-174
▁one	-175
ies	-176
▁people	-177
ca	-178
ive	-179
ity	-180
▁ma	-181
▁N	-182
est	-183
▁from	-184
nt	-185
▁kn	-186
ect	-187
ist	-188
ble	-189
ind	-190
qu	-191
▁but	-192
▁our	-193
ink	-194
▁out	-195
▁al	-196
▁us	-197
▁int	-198
▁know	-199
▁just	-200
▁te	-201
ook	-202
rou	-203
un	-204
▁H	-205
▁v	-206
▁thing	-207
▁C	-208
▁M	-209
cause	-210
▁sp	-211
ide	-212
and	-213
▁them	-214
▁see	-215
▁But	-216
ie	-217
▁these	-218
▁very	-219
os	-220
ort	-221
▁if	-222
▁tr	-223
▁think	-224
▁up	-225
her	-226
▁who	-227
▁get	-228
▁pl	-229
ich	-230
▁going	-231
▁by	-232
ci	-233
el	-234
▁Y	-235
▁1	-236
ain	-237
▁act	-238
▁some	-239
one	-240
▁when	-241
iv	-242
▁because	-243
▁your	-244
▁had	-245
▁more	-246
▁year	-247
em	-248
og	-249
▁sa	-250
our	-251
▁im	-252
▁tim	-253
▁would	-254
▁were	-255
ine	-256
00	-257
▁which	-258
▁look	-259
od	-260
▁their	-261
ame	-262
▁want	-263
ast	-264
▁really	-265
ment	-266
▁how	-267
▁comp	-268
ually	-269
ap	-270
."	-271
▁su	-272
▁work	-273
ard	-274
▁Wh	-275
ood	-276
iz	-277
▁O	-278
ous	-279
act	-280
ack	-281
gh	-282
▁en	-283
reat	-284
▁way	-285
hing	-286
▁ta	-287
ose	-288
▁E	-289
▁le	-290
▁here	-291
ore	-292
▁world	-293
▁time	-294
are	-295
▁has	-296
ans	-297
ther	-298
▁then	-299
ab	-300
▁You	-301
▁This	-302
ag	-303
▁per	-304
ong	-305
▁qu	-306
▁every	-307
▁don	-308
▁into	-309
▁exp	-310
▁P	-311
▁actually	-312
ace	-313
▁say	-314
▁will	-315
▁could	-316
▁man	-317
▁fe	-318
▁ev	-319
res	-320
ions	-321
▁D	-322
ild	-323
ud	-324
▁co	-325
ence	-326
itt	-327
▁things	-328
▁where	-329
age	-330
▁now	-331
▁years	-332
▁L	-333
▁G	-334
▁ag	-335
▁other	-336
▁did	-337
alk	-338
▁Now	-339
▁somet	-340
ff	-341
iff	-342
ach	-343
nder	-344
▁They	-345
ical	-346
▁F	-347
▁any	-348
▁been	-349
▁In	-350
▁no	-351
▁make	-352
▁happ	-353
▁diff	-354
▁cl	-355
ice	-356
▁tw	-357
ip	-358
▁than	-359
▁un	-360
so	-361
▁need	-362
red	-363
▁said	-364
▁start	-365
▁pr	-366
▁part	-367
▁right	-368
irst	-369
▁2	-370
▁over	-371
own	-372
ree	-373
▁bu	-374
▁imp	-375
ry	-376
▁something	-377
ign	-378
ia	-379
▁po	-380
▁R	-381
▁dis	-382
ome	-383
ory	-384
ite	-385
▁back	-386
uch	-387
pt	-388
▁two	-389
orm	-390
round	-391
ount	-392
▁much	-393
olog	-394
▁got	-395
▁ar	-396
▁kind	-397
ib	-398
▁call	-399
ens	-400
▁those	-401
ell	-402
ass	-403
ife	-404
▁first	-405
▁differe	-406
ang	-407
ittle	-408
ater	-409
ound	-410
▁little	-411
sel	-412
▁also	-413
cent	-414
ue	-415
▁ro	-416
▁new	-417
▁lot	-418
ep	-419
▁lo	-420
ces	-421
ght	-422
ple	-423
▁cont	-424
ult	-425
▁spe	-426
way	-427
▁That	-428
▁ac	-429
ves	-430
▁talk	-431
ber	-432
▁most	-433
▁bet	-434
king	-435
▁ph	-436
▁des	-437
vel	-438
ving	-439
rain	-440
ody	-441
▁only	-442
▁res	-443
▁under	-444
ru	-445
▁she	-446
ated	-447
able	-448
▁life	-449
ations	-450
co	-451
▁his	-452
▁J	-453
▁ad	-454
▁sy	-455
▁♫	-456
▁day	-457
▁even	-458
▁hum	-459
▁am	-460
▁different	-461
ish	-462
▁take	-463
ms	-464
▁many	-465
ick	-466
ict	-467
ial	-468
▁good	-469
rough	-470
other	-471
du	-472
▁does	-473
▁bl	-474
int	-475
▁real	-476
▁down	-477
▁There	-478
▁around	-479
ance	-480
▁ide	-481
▁her	-482
ank	-483
▁through	-484
ire	-485
ph	-486
ob	-487
ase	-488
▁put	-489
ents	-490
pl	-491
▁What	-492
▁comm	-493
pe	-494
▁U	-495
urn	-496
ark	-497
▁pre	-498
▁show	-499
▁use	-500
ange	-501
cess	-502
▁being	-503
▁He	-504
▁tell	-505
form	-506
▁off	-507
ible	-508
ress	-509
ade	-510
ors	-511
ak	-512
▁same	-513
▁happen	-514
▁thou	-515
▁proble	-516
▁too	-517
▁try	-518
ether	-519
▁fl	-520
chn	-521
ary	-522
ath	-523
per	-524
▁fact	-525
▁inc	-526
ys	-527
▁em	-528
ject	-529
wn	-530
▁come	-531
xt	-532
▁sm	-533
iver	-534
▁br	-535
stem	-536
▁count	-537
day	-538
ful	-539
tern	-540
▁doing	-541
ars	-542
ord	-543
ual	-544
ning	-545
▁ra	-546
he	-547
▁may	-548
▁great	-549
▁find	-550
ool	-551
ric	-552
▁techn	-553
▁three	-554
▁big	-555
ons	-556
ically	-557
ne	-558
row	-559
ting	-560
▁gen	-561
▁wr	-562
▁human	-563
ile	-564
ac	-565
ved	-566
▁If	-567
▁pers	-568
▁bec	-569
▁sur	-570
▁Ch	-571
▁percent	-572
ology	-573
▁well	-574
ied	-575
ower	-576
▁system	-577
▁tra	-578
fore	-579
▁dec	-580
▁build	-581
thing	-582
nds	-583
fter	-584
▁stud	-585
▁called	-586
illion	-587
ub	-588
self	-589
te	-590
▁gu	-591
▁let	-592
▁app	-593
igh	-594
▁again	-595
▁sim	-596
body	-597
▁child	-598
ics	-599
▁quest	-600
▁Well	-601
ition	-602
cial	-603
▁made	-604
ious	-605
▁inv	-606
we	-607
ating	-608
▁ind	-609
▁long	-610
▁exper	-611
▁own	-612
▁import	-613
oss	-614
▁bel	-615
mer	-616
ities	-617
▁rem	-618
oc	-619
▁should	-620
▁lear	-621
ize	-622
ian	-623
ren	-624
▁why	-625
▁wom	-626
les	-627
▁sc	-628
▁K	-629
erest	-630
ty	-631
▁underst	-632
▁turn	-633
ates	-634
av	-635
ew	-636
ft	-637
▁ob	-638
▁design	-639
▁change	-640
▁hel	-641
000	-642
▁mean	-643
▁cour	-644
▁today	-645
▁end	-646
ction	-647
▁brain	-648
▁after	-649
▁important	-650
▁didn	-651
▁thought	-652
▁feel	-653
▁idea	-654
▁ask	-655
con	-656
▁bas	-657
▁person	-658
be	-659
▁last	-660
▁play	-661
▁rel	-662
▁Thank	-663
▁creat	-664
als	-665
▁car	-666
?"	-667
▁interest	-668
▁Be	-669
▁started	-670
▁inst	-671
▁its	-672
ail	-673
▁gl	-674
▁exam	-675
ull	-676
▁him	-677
,000	-678
▁sch	-679
old	-680
▁sci	-681
ough	-682
▁trans	-683
ise	-684
▁went	-685
▁before	-686
▁understand	-687
▁course	-688
▁ins	-689
gan	-690
▁might	-691
ution	-692
▁help	-693
▁give	-694
▁3	-695
▁bit	-696
▁better	-697
ese	-698
ility	-699
▁cons	-700
ists	-701
▁gra	-702
▁point	-703
▁another	-704
ost	-705
▁problem	-706
ular	-707
▁never	-708
▁produ	-709
ily	-710
lic	-711
ave	-712
▁St	-713
▁ke	-714
▁story	-715
▁belie	-716
▁ele	-717
▁coll	-718
▁able	-719
ven	-720
ros	-721
▁inter	-722
▁few	-723
ert	-724
und	-725
kes	-726
▁bo	-727
▁found	-728
▁still	-729
▁sl	-730
ix	-731
▁ago	-732
▁sort	-733
▁kid	-734
▁ent	-735
▁power	-736
▁pol	-737
▁tog	-738
▁together	-739
▁next	-740
▁plan	-741
▁num	-742
oth	-743
erg	-744
▁dr	-745
▁fam	-746
▁place	-747
▁19	-748
▁came	-749
▁water	-750
▁sol	-751
velop	-752
▁school	-753
▁mon	-754
▁mod	-755
uc	-756
alth	-757
ense	-758
▁commun	-759
ited	-760
atch	-761
▁high	-762
▁comple	-763
ween	-764
▁imag	-765
▁cr	-766
▁ter	-767
ward	-768
▁str	-769
ience	-770
ather	-771
ng	-772
read	-773
▁learn	-774
▁used	-775
▁each	-776
▁between	-777
▁art	-778
▁10	-779
▁pat	-780
▁technology	-781
▁la	-782
▁dat	-783
▁20	-784
ized	-785
ness	-786
▁question	-787
▁rec	-788
meric	-789
▁When	-790
▁develop	-791
▁Af	-792
,"	-793
iss	-794
▁ext	-795
ures	-796
▁small	-797
▁att	-798
▁love	-799
▁four	-800
▁looking	-801
▁cre	-802
ork	-803
▁example	-804
▁met	-805
ific	-806
▁med	-807
▁ser	-808
arch	-809
ways	-810
ram	-811
▁op	-812
▁done	-813
cond	-814
▁Americ	-815
az	-816
iness	-817
▁Because	-818
▁old	-819
ets	-820
▁partic	-821
▁data	-822
ute	-823
ably	-824
▁doesn	-825
▁light	-826
▁min	-827
▁women	-828
▁fin	-829
ered	-830
▁grow	-831
ced	-832
▁cell	-833
▁eff	-834
▁mom	-835
▁care	-836
▁word	-837
▁How	-838
▁V	-839
cept	-840
▁cent	-841
ative	-842
ings	-843
▁wanted	-844
▁comput	-845
cy	-846
▁beh	-847
▁stu	-848
conom	-849
▁hard	-850
▁read	-851
▁move	-852
ah	-853
▁far	-854
▁whole	-855
▁poss	-856
▁lar	-857
▁reas	-858
▁live	-859
ands	-860
formation	-861
ger	-862
▁trying	-863
here	-864
▁nat	-865
▁ever	-866
▁ear	-867
▁million	-868
ross	-869
▁ed	-870
▁working	-871
▁bi	-872
▁chang	-873
ote	-874
selves	-875
▁away	-876
▁giv	-877
▁always	-878
ope	-879
▁el	-880
ational	-881
ird	-882
oney	-883
▁econom	-884
▁children	-885
▁expl	-886
▁less	-887
▁believe	-888
▁5	-889
cer	-890
▁bus	-891
..	-892
ural	-893
▁Afric	-894
▁gener	-895
gin	-896
ism	-897
▁cap	-898
▁rep	-899
ments	-900
▁Un	-901
▁sk	-902
▁book	-903
▁health	-904
▁country	-905
▁anim	-906
▁resp	-907
▁supp	-908
▁pict	-909
▁fo	-910
▁cor	-911
▁mus	-912
ont	-913
▁frie	-914
ries	-915
▁sub	-916
▁run	-917
ruct	-918
nect	-919
▁using	-920
ract	-921
▁space	-922
hip	-923
▁open	-924
▁project	-925
▁means	-926
▁hand	-927
ock	-928
▁five	-929
▁prob	-930
atter	-931
▁thinking	-932
led	-933
▁took	-934
ps	-935
▁4	-936
▁kids	-937
▁As	-938
vers	-939
▁create	-940
▁information	-941
nce	-942
▁maybe	-943
▁vis	-944
aces	-945
▁inf	-946
alf	-947
▁money	-948
▁everything	-949
▁cou	-950
▁doll	-951
▁number	-952
▁pub	-953
air	-954
▁lead	-955
▁Ind	-956
vern	-957
▁home	-958
▁spec	-959
gg	-960
▁become	-961
▁mind	-962
▁second	-963
oy	-964
iron	-965
▁reg	-966
▁compan	-967
▁process	-968
▁organ	-969
its	-970
ks	-971
▁One	-972
▁sing	-973
rib	-974
▁left	-975
ident	-976
ond	-977
▁teach	-978
iew	-979
ten	-980
ues	-981
ergy	-982
▁food	-983
ention	-984
▁enough	-985
▁walk	-986
▁quite	-987
▁acc	-988
▁best	-989
▁getting	-990
aut	-991
ivers	-992
▁fut	-993
sw	-994
ever	-995
▁form	-996
▁head	-997
▁interesting	-998
▁eng	-999
▁prog	-1000
▁comes	-1001
▁fun	-1002
▁war	-1003
ories	-1004
pr	-1005
▁sense	-1006
ouse	-1007
▁pres	-1008
▁These	-1009
ital	-1010
iting	-1011
▁probably	-1012
▁social	-1013
▁dem	-1014
▁mark	-1015
▁future	-1016
▁energy	-1017
▁govern	-1018
▁ca	-1019
▁happened	-1020
▁answ	-1021
▁conf	-1022
▁times	-1023
▁My	-1024
▁set	-1025
ines	-1026
▁cle	-1027
▁elect	-1028
ertain	-1029
ts	-1030
▁grou	-1031
▁month	-1032
ety	-1033
ier	-1034
▁add	-1035
▁talking	-1036
▁making	-1037
▁begin	-1038
▁stuff	-1039
tty	-1040
▁contro	-1041
▁room	-1042
▁building	-1043
▁connect	-1044
▁cur	-1045
▁moment	-1046
▁pass	-1047
ient	-1048
▁Here	-1049
▁body	-1050
▁She	-1051
▁pop	-1052
▁glob	-1053
▁env	-1054
▁phys	-1055
▁sign	-1056
▁without	-1057
▁told	-1058
▁dist	-1059
ately	-1060
▁gr	-1061
reen	-1062
▁half	-1063
▁side	-1064
▁pretty	-1065
▁else	-1066
▁countries	-1067
ake	-1068
ner	-1069
▁Is	-1070
▁wee	-1071
▁beaut	-1072
▁dollars	-1073
▁pie	-1074
▁lives	-1075
▁coming	-1076
▁reason	-1077
▁business	-1078
ogra	-1079
▁keep	-1080
imes	-1081
▁anything	-1082
▁model	-1083
▁hist	-1084
▁soci	-1085
▁such	-1086
▁For	-1087
▁job	-1088
ior	-1089
▁bad	-1090
▁wo	-1091
lf	-1092
ices	-1093
▁top	-1094
▁An	-1095
▁opp	-1096
gs	-1097
▁allow	-1098
▁def	-1099
▁across	-1100
ember	-1101
ortun	-1102
me	-1103
▁environ	-1104
der	-1105
▁stop	-1106
▁Let	-1107
▁men	-1108
▁sound	-1109
uring	-1110
▁Chin	-1111
▁says	-1112
▁eas	-1113
▁Africa	-1114
▁makes	-1115
▁young	-1116
▁bring	-1117
▁stand	-1118
▁200	-1119
▁hope	-1120
▁air	-1121
▁science	-1122
▁seen	-1123
olution	-1124
▁saw	-1125
▁living	-1126
▁matter	-1127
idd	-1128
ince	-1129
▁ty	-1130
▁later	-1131
▁prot	-1132
ead	-1133
most	-1134
▁fig	-1135
▁asked	-1136
▁val	-1137
▁educ	-1138
▁goes	-1139
▁experience	-1140
▁simple	-1141
▁All	-1142
▁particular	-1143
ided	-1144
▁hour	-1145
io	-1146
▁rese	-1147
kay	-1148
ying	-1149
▁ey	-1150
▁happens	-1151
▁cult	-1152
ality	-1153
where	-1154
▁sit	-1155
▁New	-1156
▁having	-1157
man	-1158
▁scient	-1159
▁wonder	-1160
▁cam	-1161
▁phot	-1162
▁picture	-1163
ash	-1164
ime	-1165
aps	-1166
ilt	-1167
angu	-1168
▁ways	-1169
ken	-1170
ught	-1171
▁aut	-1172
ization	-1173
ott	-1174
▁complete	-1175
llow	-1176
▁col	-1177
▁mem	-1178
▁family	-1179
▁det	-1180
▁thous	-1181
ots	-1182
▁effect	-1183
▁list	-1184
arth	-1185
▁six	-1186
▁char	-1187
▁problems	-1188
▁ref	-1189
▁prof	-1190
▁bre	-1191
▁level	-1192
▁share	-1193
▁days	-1194
▁computer	-1195
ream	-1196
▁research	-1197
▁single	-1198
iter	-1199
▁rest	-1200
▁equ	-1201
▁global	-1202
▁environment	-1203
▁planet	-1204
▁case	-1205
arr	-1206
irl	-1207
▁city	-1208
ograph	-1209
▁langu	-1210
arent	-1211
▁No	-1212
▁fore	-1213
▁Se	-1214
▁mach	-1215
▁basically	-1216
▁loc	-1217
▁test	-1218
ins	-1219
orn	-1220
▁music	-1221
▁inside	-1222
ike	-1223
ready	-1224
▁polit	-1225
▁mor	-1226
ulation	-1227
▁certain	-1228
▁almost	-1229
▁possible	-1230
▁public	-1231
▁sure	-1232
less	-1233
▁yet	-1234
▁saying	-1235
▁amaz	-1236
▁both	-1237
▁watch	-1238
▁answer	-1239
▁vide	-1240
▁guy	-1241
▁once	-1242
med	-1243
▁hear	-1244
▁Earth	-1245
▁while	-1246
allen	-1247
itive	-1248
▁whether	-1249
ED	-1250
▁hu	-1251
unch	-1252
▁rob	-1253
▁pain	-1254
ov	-1255
ants	-1256
osed	-1257
▁disco	-1258
▁age	-1259
▁already	-1260
▁nothing	-1261
▁contin	-1262
▁suc	-1263
ury	-1264
▁billion	-1265
▁wrong	-1266
▁incred	-1267
ivid	-1268
lish	-1269
▁looked	-1270
▁self	-1271
▁ideas	-1272
▁dise	-1273
iverse	-1274
▁someone	-1275
▁exact	-1276
▁within	-1277
oice	-1278
▁exc	-1279
▁remember	-1280
▁treat	-1281
▁community	-1282
▁Why	-1283
▁looks	-1284
▁unt	-1285
▁product	-1286
▁ass	-1287
▁control	-1288
▁history	-1289
ield	-1290
▁sw	-1291
▁heart	-1292
▁myself	-1293
iful	-1294
ases	-1295
▁par	-1296
▁Al	-1297
ware	-1298
▁large	-1299
▁cells	-1300
side	-1301
▁often	-1302
▁cost	-1303
▁true	-1304
▁amazing	-1305
undred	-1306
▁dev	-1307
▁heard	-1308
▁che	-1309
▁lab	-1310
▁mil	-1311
▁iss	-1312
Wh	-1313
utes	-1314
▁dire	-1315
▁Intern	-1316
▁[	-1317
imate	-1318
pect	-1319
▁cond	-1320
▁kill	-1321
▁challen	-1322
▁words	-1323
uro	-1324
ages	-1325
▁figure	-1326
▁imagine	-1327
work	-1328
de	-1329
▁wa	-1330
ians	-1331
aterial	-1332
▁mag	-1333
aster	-1334
▁15	-1335
ene	-1336
vious	-1337
▁works	-1338
ivity	-1339
▁United	-1340
cle	-1341
▁Or	-1342
▁adv	-1343
▁built	-1344
▁night	-1345
▁hundred	-1346
▁months	-1347
▁news	-1348
land	-1349
ling	-1350
▁couple	-1351
▁100	-1352
▁TED	-1353
ering	-1354
▁class	-1355
▁order	-1356
▁entire	-1357
▁beautiful	-1358
▁aff	-1359
▁friends	-1360
▁individ	-1361
uck	-1362
▁30	-1363
iddle	-1364
▁cancer	-1365
bers	-1366
▁full	-1367
▁6	-1368
▁face	-1369
▁government	-1370
bs	-1371
▁result	-1372
▁pay	-1373
ex	-1374
aper	-1375
▁language	-1376
▁must	-1377
▁group	-1378
▁incre	-1379
▁market	-1380
▁50	-1381
▁girl	-1382
ives	-1383
▁tre	-1384
▁fil	-1385
▁piece	-1386
line	-1387
▁net	-1388
get	-1389
▁follow	-1390
▁state	-1391
▁species	-1392
▁places	-1393
▁isn	-1394
▁deep	-1395
▁sec	-1396
▁material	-1397
up	-1398
▁front	-1399
▁individual	-1400
▁until	-1401
▁everybody	-1402
▁vir	-1403
▁view	-1404
▁wasn	-1405
▁'	-1406
▁video	-1407
ustr	-1408
atic	-1409
▁appro	-1410
▁const	-1411
ush	-1412
ator	-1413
ired	-1414
▁decided	-1415
▁past	-1416
▁dra	-1417
▁Internet	-1418
▁education	-1419
▁completely	-1420
▁line	-1421
eah	-1422
▁Fr	-1423
▁behav	-1424
▁quick	-1425
ron	-1426
▁universe	-1427
▁inn	-1428
▁di	-1429
to	-1430
▁9	-1431
▁train	-1432
▁cra	-1433
▁ret	-1434
omes	-1435
outh	-1436
ane	-1437
▁study	-1438
▁States	-1439
▁object	-1440
▁exactly	-1441
▁terr	-1442
▁nature	-1443
▁stories	-1444
cing	-1445
▁became	-1446
ined	-1447
ental	-1448
▁deal	-1449
▁though	-1450
▁abs	-1451
▁free	-1452
▁name	-1453
br	-1454
▁sca	-1455
▁taking	-1456
▁animals	-1457
▁students	-1458
▁happening	-1459
▁tool	-1460
▁fund	-1461
▁huge	-1462
▁mess	-1463
▁pos	-1464
▁knew	-1465
▁land	-1466
▁kinds	-1467
▁itself	-1468
▁experim	-1469
acter	-1470
▁Do	-1471
▁oce	-1472
▁Every	-1473
▁collect	-1474
▁law	-1475
ters	-1476
▁somebody	-1477
▁India	-1478
▁struct	-1479
ien	-1480
▁ourselves	-1481
▁woman	-1482
▁engine	-1483
▁learned	-1484
ats	-1485
▁OK	-1486
ional	-1487
gest	-1488
▁since	-1489
ogn	-1490
ients	-1491
▁society	-1492
▁ris	-1493
▁house	-1494
▁success	-1495
ision	-1496
dd	-1497
▁close	-1498
▁minutes	-1499
▁At	-1500
etic	-1501
▁gets	-1502
▁dru	-1503
ret	-1504
▁America	-1505
haps	-1506
rop	-1507
omet	-1508
▁spend	-1509
▁company	-1510
▁complex	-1511
▁questions	-1512
cc	-1513
▁z	-1514
▁themselves	-1515
sy	-1516
icult	-1517
end	-1518
▁along	-1519
▁turns	-1520
▁mass	-1521
itting	-1522
▁av	-1523
ocus	-1524
ability	-1525
▁against	-1526
cl	-1527
▁meet	-1528
▁relations	-1529
thers	-1530
▁7	-1531
▁mic	-1532
▁hours	-1533
▁rather	-1534
▁game	-1535
▁opportun	-1536
ctor	-1537
▁ones	-1538
▁prov	-1539
▁created	-1540
▁God	-1541
ee	-1542
...	-1543
▁8	-1544
ibly	-1545
▁fly	-1546
▁bott	-1547
urs	-1548
▁Br	-1549
▁Then	-1550
ium	-1551
▁clear	-1552
face	-1553
ature	-1554
▁parent	-1555
aw	-1556
▁least	-1557
▁couldn	-1558
▁focus	-1559
▁third	-1560
▁expect	-1561
▁meas	-1562
▁invest	-1563
ames	-1564
▁won	-1565
▁guys	-1566
▁wind	-1567
▁worked	-1568
ones	-1569
att	-1570
▁Some	-1571
▁sometimes	-1572
▁pred	-1573
▁difficult	-1574
iversity	-1575
ming	-1576
eg	-1577
▁Can	-1578
▁mother	-1579
▁others	-1580
▁arch	-1581
▁thousands	-1582
▁var	-1583
▁disease	-1584
▁liter	-1585
▁gave	-1586
▁early	-1587
▁program	-1588
▁ill	-1589
▁hold	-1590
▁China	-1591
▁happy	-1592
▁speak	-1593
cul	-1594
ples	-1595
istic	-1596
▁amount	-1597
▁systems	-1598
olved	-1599
wards	-1600
▁norm	-1601
▁lots	-1602
▁Ar	-1603
▁aud	-1604
illions	-1605
▁instead	-1606
▁everyone	-1607
▁ve	-1608
▁innov	-1609
▁Sh	-1610
app	-1611
▁math	-1612
▁team	-1613
▁field	-1614
▁bab	-1615
▁Euro	-1616
erv	-1617
▁sens	-1618
ale	-1619
ented	-1620
▁behavior	-1621
not	-1622
ither	-1623
▁exist	-1624
ider	-1625
▁American	-1626
▁rad	-1627
▁listen	-1628
▁natural	-1629
▁protect	-1630
iqu	-1631
▁Pe	-1632
ination	-1633
▁mot	-1634
▁taken	-1635
ological	-1636
▁oil	-1637
▁outside	-1638
fect	-1639
aking	-1640
ially	-1641
▁interact	-1642
▁relationship	-1643
▁cir	-1644
▁miss	-1645
ared	-1646
▁difference	-1647
▁cut	-1648
▁shap	-1649
▁ant	-1650
ted	-1651
▁black	-1652
▁record	-1653
▁learning	-1654
▁hy	-1655
▁rev	-1656
▁recent	-1657
▁leg	-1658
vered	-1659
▁changed	-1660
▁machine	-1661
▁Eng	-1662
▁fail	-1663
▁oper	-1664
▁York	-1665
▁extra	-1666
gen	-1667
▁seven	-1668
The	-1669
▁death	-1670
uss	-1671
▁area	-1672
ential	-1673
▁...	-1674
▁bro	-1675
▁Europe	-1676
▁century	-1677
▁sex	-1678
▁step	-1679
▁♪	-1680
▁middle	-1681
▁green	-1682
▁beginning	-1683
ully	-1684
▁pot	-1685
▁pattern	-1686
sych	-1687
▁red	-1688
ides	-1689
iol	-1690
▁network	-1691
▁common	-1692
▁Okay	-1693
ased	-1694
▁stre	-1695
▁perhaps	-1696
▁easy	-1697
▁eyes	-1698
▁given	-1699
▁moving	-1700
▁hands	-1701
▁yourself	-1702
utions	-1703
▁short	-1704
▁da	-1705
▁leave	-1706
orth	-1707
▁del	-1708
verage	-1709
▁turned	-1710
ove	-1711
▁non	-1712
NA	-1713
▁dep	-1714
▁terms	-1715
▁sym	-1716
▁low	-1717
▁fish	-1718
▁incl	-1719
▁explain	-1720
▁population	-1721
▁takes	-1722
era	-1723
ery	-1724
▁es	-1725
▁cities	-1726
▁culture	-1727
▁12	-1728
olute	-1729
itions	-1730
▁needs	-1731
▁sent	-1732
ump	-1733
▁typ	-1734
▁obvious	-1735
▁occ	-1736
▁support	-1737
els	-1738
elt	-1739
▁lim	-1740
ption	-1741
▁jour	-1742
▁colle	-1743
▁seeing	-1744
▁wonderful	-1745
ude	-1746
▁Chr	-1747
▁chem	-1748
▁finally	-1749
▁dig	-1750
▁behind	-1751
inary	-1752
▁paper	-1753
astic	-1754
▁intell	-1755
ern	-1756
jor	-1757
ply	-1758
iving	-1759
▁ident	-1760
ipp	-1761
▁Not	-1762
aring	-1763
▁began	-1764
ey	-1765
▁break	-1766
▁impro	-1767
▁psych	-1768
▁communic	-1769
▁jo	-1770
▁cannot	-1771
▁parts	-1772
▁pract	-1773
▁friend	-1774
▁perform	-1775
▁On	-1776
▁Man	-1777
idence	-1778
▁local	-1779
rew	-1780
▁18	-1781
▁saf	-1782
▁trad	-1783
▁ocean	-1784
itch	-1785
▁eight	-1786
▁squ	-1787
▁reach	-1788
▁during	-1789
▁—	-1790
year	-1791
▁tot	-1792
▁image	-1793
ges	-1794
▁blue	-1795
▁longer	-1796
▁pick	-1797
▁super	-1798
▁simply	-1799
▁perfect	-1800
▁sun	-1801
▁tem	-1802
▁companies	-1803
▁extre	-1804
▁realized	-1805
▁arg	-1806
▁powerful	-1807
▁fall	-1808
▁fre	-1809
itect	-1810
▁event	-1811
▁major	-1812
▁access	-1813
▁needed	-1814
cious	-1815
fully	-1816
ource	-1817
▁stay	-1818
▁wall	-1819
▁dream	-1820
▁dark	-1821
▁whatever	-1822
port	-1823
▁To	-1824
▁ess	-1825
▁week	-1826
▁size	-1827
▁consum	-1828
▁40	-1829
Well	-1830
▁economic	-1831
▁serv	-1832
▁famil	-1833
▁repres	-1834
▁special	-1835
ax	-1836
▁tried	-1837
▁absolute	-1838
▁parents	-1839
ero	-1840
▁emot	-1841
ources	-1842
ton	-1843
▁poor	-1844
rodu	-1845
▁surv	-1846
▁surpr	-1847
▁People	-1848
▁interested	-1849
▁personal	-1850
ony	-1851
▁grand	-1852
▁media	-1853
▁present	-1854
▁felt	-1855
▁reality	-1856
▁feed	-1857
gle	-1858
▁eat	-1859
ising	-1860
▁buy	-1861
▁priv	-1862
oh	-1863
▁ple	-1864
ledge	-1865
▁situ	-1866
▁emb	-1867
▁Just	-1868
▁viol	-1869
ison	-1870
rought	-1871
▁ground	-1872
▁quickly	-1873
▁press	-1874
ilar	-1875
ised	-1876
▁gone	-1877
▁scale	-1878
▁recogn	-1879
ibility	-1880
ards	-1881
crib	-1882
▁strong	-1883
▁architect	-1884
bo	-1885
hood	-1886
inal	-1887
rent	-1888
▁yes	-1889
▁robot	-1890
▁father	-1891
▁growth	-1892
▁ge	-1893
avor	-1894
▁DNA	-1895
▁key	-1896
▁conv	-1897
▁spent	-1898
▁ability	-1899
▁requ	-1900
▁value	-1901
▁approach	-1902
oph	-1903
▁cal	-1904
▁humans	-1905
▁weeks	-1906
ged	-1907
ney	-1908
ived	-1909
▁feet	-1910
▁shows	-1911
osp	-1912
▁cool	-1913
▁democ	-1914
ills	-1915
▁enc	-1916
▁animal	-1917
▁sitting	-1918
▁opportunity	-1919
room	-1920
ators	-1921
▁known	-1922
▁political	-1923
orld	-1924
▁disc	-1925
▁near	-1926
▁vers	-1927
▁either	-1928
▁travel	-1929
ument	-1930
▁mult	-1931
▁direct	-1932
▁phone	-1933
▁civ	-1934
izing	-1935
▁sum	-1936
▁fight	-1937
▁economy	-1938
▁predict	-1939
ler	-1940
urb	-1941
▁lost	-1942
▁surface	-1943
You	-1944
▁dest	-1945
▁measure	-1946
▁orig	-1947
ann	-1948
▁May	-1949
ift	-1950
▁obs	-1951
▁fear	-1952
▁areas	-1953
amp	-1954
▁draw	-1955
▁write	-1956
ologies	-1957
sh	-1958
ains	-1959
▁morning	-1960
ule	-1961
What	-1962
▁slow	-1963
▁respons	-1964
▁structure	-1965
▁incredible	-1966
▁post	-1967
▁micro	-1968
▁bottom	-1969
▁leaders	-1970
uth	-1971
▁Tw	-1972
ouch	-1973
lect	-1974
▁extreme	-1975
▁patients	-1976
▁attention	-1977
ral	-1978
▁25	-1979
uses	-1980
▁har	-1981
▁Right	-1982
▁blood	-1983
▁photograph	-1984
▁pull	-1985
▁based	-1986
▁ap	-1987
▁soft	-1988
ression	-1989
▁wouldn	-1990
iny	-1991
▁nice	-1992
▁changes	-1993
▁foot	-1994
eed	-1995
cially	-1996
▁intern	-1997
ively	-1998
zy	-1999
bor	-2000
▁fast	-2001
▁average	-2002
▁numbers	-2003
▁challenge	-2004
▁evolution	-2005
▁realize	-2006
ales	-2007
▁mole	-2008
hor	-2009
ode	-2010
▁cy	-2011
▁impact	-2012
▁profess	-2013
dden	-2014
▁pur	-2015
▁send	-2016
ustain	-2017
▁box	-2018
▁mar	-2019
entially	-2020
▁win	-2021
▁sudden	-2022
▁ste	-2023
▁indust	-2024
▁brought	-2025
ateg	-2026
vent	-2027
lt	-2028
anger	-2029
▁physical	-2030
▁crit	-2031
oll	-2032
▁feeling	-2033
erm	-2034
▁sea	-2035
▁meaning	-2036
▁born	-2037
▁developed	-2038
▁redu	-2039
▁risk	-2040
▁relig	-2041
▁comb	-2042
▁anal	-2043
▁bene	-2044
com	-2045
ows	-2046
ances	-2047
▁rock	-2048
▁die	-2049
▁insp	-2050
▁growing	-2051
acy	-2052
ole	-2053
▁experiment	-2054
eng	-2055
▁knowledge	-2056
bon	-2057
▁seems	-2058
ev	-2059
▁Z	-2060
▁Our	-2061
▁mov	-2062
▁books	-2063
▁wrote	-2064
▁forward	-2065
lu	-2066
▁running	-2067
▁giving	-2068
▁literally	-2069
▁opt	-2070
▁force	-2071
▁instit	-2072
▁theory	-2073
▁technologies	-2074
of	-2075
ging	-2076
▁deg	-2077
▁circ	-2078
ext	-2079
▁fac	-2080
▁main	-2081
▁rele	-2082
▁CA	-2083
ified	-2084
▁fundam	-2085
▁English	-2086
▁film	-2087
▁stra	-2088
▁vol	-2089
▁white	-2090
▁spread	-2091
ored	-2092
▁climate	-2093
leep	-2094
chie	-2095
▁ast	-2096
▁hor	-2097
▁map	-2098
▁repl	-2099
▁scientists	-2100
▁World	-2101
▁medic	-2102
▁hundreds	-2103
▁understanding	-2104
cr	-2105
▁similar	-2106
▁electric	-2107
▁favor	-2108
▁miles	-2109
▁neigh	-2110
▁starting	-2111
▁depe	-2112
▁anyone	-2113
par	-2114
aged	-2115
▁prin	-2116
▁worth	-2117
▁vill	-2118
ggest	-2119
▁civil	-2120
▁color	-2121
▁gives	-2122
▁serious	-2123
▁images	-2124
▁audience	-2125
▁ball	-2126
▁current	-2127
▁millions	-2128
oon	-2129
omen	-2130
▁tele	-2131
▁alone	-2132
▁tools	-2133
▁suggest	-2134
▁telling	-2135
▁hot	-2136
▁soon	-2137
▁thank	-2138
chan	-2139
▁guess	-2140
▁compet	-2141
por	-2142
▁describ	-2143
ades	-2144
assion	-2145
▁tradition	-2146
icy	-2147
▁ice	-2148
ploy	-2149
▁sil	-2150
▁prom	-2151
▁normal	-2152
▁flo	-2153
▁text	-2154
▁proper	-2155
▁cars	-2156
▁hosp	-2157
▁path	-2158
racy	-2159
▁dead	-2160
▁avail	-2161
▁issue	-2162
ilities	-2163
▁sho	-2164
ensive	-2165
iet	-2166
▁rul	-2167
▁center	-2168
▁includ	-2169
ites	-2170
iant	-2171
▁type	-2172
▁playing	-2173
▁creating	-2174
▁discovered	-2175
▁development	-2176
bit	-2177
▁lif	-2178
▁seem	-2179
▁among	-2180
▁affect	-2181
▁sustain	-2182
▁showed	-2183
head	-2184
▁stat	-2185
▁suff	-2186
▁stage	-2187
▁movement	-2188
▁concept	-2189
ai	-2190
▁aren	-2191
▁road	-2192
▁modern	-2193
ped	-2194
amed	-2195
▁visual	-2196
▁absolutely	-2197
▁est	-2198
▁touch	-2199
ug	-2200
▁sell	-2201
pecially	-2202
▁recently	-2203
▁er	-2204
▁sn	-2205
▁cop	-2206
asing	-2207
imens	-2208
oud	-2209
▁poll	-2210
▁South	-2211
iod	-2212
▁camp	-2213
▁industry	-2214
▁developing	-2215
Th	-2216
▁intellig	-2217
▁fu	-2218
▁track	-2219
▁online	-2220
▁arm	-2221
▁hon	-2222
▁talked	-2223
ique	-2224
oose	-2225
urity	-2226
▁With	-2227
▁achie	-2228
▁chance	-2229
▁Yeah	-2230
▁prop	-2231
▁truth	-2232
▁resources	-2233
▁incredibly	-2234
▁song	-2235
▁issues	-2236
▁convers	-2237
▁arr	-2238
▁react	-2239
▁asking	-2240
▁transform	-2241
▁patient	-2242
▁reasons	-2243
▁subject	-2244
ished	-2245
▁voice	-2246
▁shape	-2247
▁mathem	-2248
▁experien	-2249
like	-2250
▁fur	-2251
▁benef	-2252
▁produce	-2253
lear	-2254
▁lay	-2255
▁innovation	-2256
ival	-2257
▁knows	-2258
▁available	-2259
phere	-2260
by	-2261
asc	-2262
▁bra	-2263
▁rate	-2264
▁period	-2265
▁solution	-2266
apt	-2267
▁sold	-2268
▁mechan	-2269
▁involved	-2270
ung	-2271
unt	-2272
▁fire	-2273
▁haven	-2274
▁attack	-2275
▁evidence	-2276
▁save	-2277
▁situation	-2278
▁Chinese	-2279
abor	-2280
ency	-2281
▁tiny	-2282
▁choice	-2283
▁199	-2284
▁eye	-2285
iction	-2286
▁designed	-2287
▁By	-2288
▁flu	-2289
▁flow	-2290
▁solve	-2291
▁pictures	-2292
▁neur	-2293
▁din	-2294
ister	-2295
▁Ph	-2296
▁becomes	-2297
▁especially	-2298
▁dou	-2299
ences	-2300
erence	-2301
▁changing	-2302
▁compassion	-2303
ify	-2304
yond	-2305
▁search	-2306
▁message	-2307
▁baby	-2308
▁bigger	-2309
ned	-2310
▁computers	-2311
▁Goo	-2312
ik	-2313
arily	-2314
▁clos	-2315
▁carbon	-2316
▁except	-2317
▁street	-2318
▁putting	-2319
pan	-2320
str	-2321
▁ult	-2322
▁unf	-2323
light	-2324
▁smart	-2325
▁Am	-2326
▁imm	-2327
▁sleep	-2328
▁function	-2329
50	-2330
▁emp	-2331
▁fair	-2332
▁emerg	-2333
▁lived	-2334
▁writing	-2335
wh	-2336
▁60	-2337
▁nuc	-2338
istan	-2339
▁groups	-2340
lict	-2341
oices	-2342
▁bird	-2343
▁sever	-2344
▁trust	-2345
▁medical	-2346
▁girls	-2347
▁likely	-2348
▁bed	-2349
▁drive	-2350
pid	-2351
▁De	-2352
▁table	-2353
▁forest	-2354
▁ce	-2355
▁sat	-2356
▁died	-2357
▁beyond	-2358
ishing	-2359
▁general	-2360
▁software	-2361
▁Com	-2362
▁dom	-2363
▁lea	-2364
▁nine	-2365
▁bacter	-2366
▁necess	-2367
▁sounds	-2368
▁towards	-2369
▁rules	-2370
▁solar	-2371
umb	-2372
▁bar	-2373
ctors	-2374
oring	-2375
▁tend	-2376
▁report	-2377
▁prim	-2378
▁generation	-2379
▁aw	-2380
▁defin	-2381
▁mount	-2382
▁device	-2383
▁several	-2384
ips	-2385
▁Inst	-2386
▁rain	-2387
ressed	-2388
▁peace	-2389
nam	-2390
pre	-2391
fort	-2392
ously	-2393
usion	-2394
▁drugs	-2395
▁plant	-2396
lo	-2397
▁wish	-2398
▁danger	-2399
▁rich	-2400
▁Google	-2401
▁Of	-2402
▁First	-2403
▁breat	-2404
▁speed	-2405
▁revolution	-2406
▁particularly	-2407
oms	-2408
▁Yes	-2409
ny	-2410
▁fa	-2411
▁anybody	-2412
Oh	-2413
▁capital	-2414
▁conscious	-2415
▁drug	-2416
▁safe	-2417
une	-2418
used	-2419
▁syn	-2420
▁block	-2421
▁quality	-2422
oun	-2423
▁ec	-2424
▁onto	-2425
▁moved	-2426
vert	-2427
▁Where	-2428
▁character	-2429
▁Re	-2430
medi	-2431
▁extraord	-2432
ief	-2433
▁action	-2434
▁office	-2435
▁potential	-2436
xy	-2437
book	-2438
rast	-2439
▁fem	-2440
▁rece	-2441
ground	-2442
▁basic	-2443
▁games	-2444
▁schools	-2445
▁af	-2446
ires	-2447
view	-2448
▁neg	-2449
▁stru	-2450
▁link	-2451
▁princi	-2452
▁Maybe	-2453
▁showing	-2454
▁walking	-2455
▁examples	-2456
▁obviously	-2457
▁Im	-2458
come	-2459
idge	-2460
pped	-2461
▁hit	-2462
▁certainly	-2463
iar	-2464
uly	-2465
irth	-2466
▁log	-2467
▁vision	-2468
▁journey	-2469
▁materials	-2470
▁pa	-2471
▁further	-2472
▁scientific	-2473
oke	-2474
▁Oh	-2475
ask	-2476
▁context	-2477
▁totally	-2478
▁Any	-2479
▁div	-2480
▁ep	-2481
ores	-2482
▁Pro	-2483
▁aware	-2484
▁wants	-2485
▁starts	-2486
▁chemical	-2487
▁projects	-2488
ma	-2489
ran	-2490
▁After	-2491
▁effic	-2492
▁nobody	-2493
▁screen	-2494
▁biggest	-2495
▁largest	-2496
▁exciting	-2497
▁national	-2498
onse	-2499
▁gal	-2500
▁gas	-2501
igher	-2502
▁extremely	-2503
tend	-2504
▁fix	-2505
ought	-2506
▁student	-2507
▁teachers	-2508
how	-2509
put	-2510
verty	-2511
▁door	-2512
▁account	-2513
▁everywhere	-2514
▁fundamental	-2515
▁results	-2516
▁particip	-2517
uit	-2518
▁memory	-2519
eter	-2520
▁adm	-2521
▁farm	-2522
▁virt	-2523
▁activ	-2524
▁higher	-2525
▁digital	-2526
antly	-2527
▁okay	-2528
▁North	-2529
▁meant	-2530
▁detail	-2531
▁neighbor	-2532
▁represent	-2533
itiz	-2534
▁camera	-2535
▁son	-2536
▁carry	-2537
▁notice	-2538
eth	-2539
▁Cal	-2540
cient	-2541
itary	-2542
▁complic	-2543
▁80	-2544
▁apart	-2545
▁positive	-2546
apan	-2547
icle	-2548
▁role	-2549
▁skin	-2550
▁cross	-2551
ners	-2552
▁Most	-2553
▁continue	-2554
▁thousand	-2555
▁happiness	-2556
▁Joh	-2557
▁Brit	-2558
▁trial	-2559
▁supposed	-2560
▁violence	-2561
more	-2562
▁led	-2563
itten	-2564
▁response	-2565
▁security	-2566
▁pu	-2567
▁jobs	-2568
▁clean	-2569
▁threat	-2570
▁introdu	-2571
▁boy	-2572
▁mob	-2573
▁conflict	-2574
▁Pr	-2575
▁spir	-2576
▁Japan	-2577
▁birth	-2578
▁check	-2579
▁named	-2580
▁favorite	-2581
isions	-2582
▁ready	-2583
▁trees	-2584
osphere	-2585
▁depend	-2586
▁poverty	-2587
▁democracy	-2588
▁eventually	-2589
ids	-2590
rest	-2591
▁capt	-2592
▁adult	-2593
▁stick	-2594
▁improve	-2595
▁connected	-2596
▁individuals	-2597
aur	-2598
▁vac	-2599
▁cris	-2600
▁earl	-2601
▁fill	-2602
iation	-2603
ughter	-2604
▁separ	-2605
ruction	-2606
▁consider	-2607
▁dro	-2608
▁sequ	-2609
▁bunch	-2610
▁graph	-2611
▁terror	-2612
▁transl	-2613
agn	-2614
▁tar	-2615
▁citiz	-2616
ossible	-2617
ulate	-2618
urban	-2619
▁fant	-2620
▁models	-2621
▁progress	-2622
▁watching	-2623
mend	-2624
▁minds	-2625
▁faster	-2626
▁activity	-2627
▁discover	-2628
▁essentially	-2629
IV	-2630
ims	-2631
ina	-2632
▁16	-2633
iger	-2634
oming	-2635
▁West	-2636
▁cause	-2637
▁crazy	-2638
▁tells	-2639
for	-2640
rad	-2641
akes	-2642
▁ann	-2643
▁pen	-2644
iding	-2645
▁magn	-2646
.,	-2647
ze	-2648
odies	-2649
▁plants	-2650
▁return	-2651
▁perspect	-2652
conds	-2653
▁grew	-2654
▁lose	-2655
▁immedi	-2656
joy	-2657
erve	-2658
▁HIV	-2659
▁clin	-2660
▁push	-2661
▁webs	-2662
▁assum	-2663
▁movie	-2664
▁worse	-2665
▁concer	-2666
▁village	-2667
▁mathemat	-2668
▁suddenly	-2669
▁conditions	-2670
▁communities	-2671
ounds	-2672
▁Even	-2673
▁mine	-2674
▁shown	-2675
▁accept	-2676
▁disapp	-2677
ortunately	-2678
iers	-2679
▁John	-2680
▁goal	-2681
▁brains	-2682
▁nuclear	-2683
▁creative	-2684
lex	-2685
▁meth	-2686
▁galax	-2687
▁source	-2688
▁objects	-2689
▁strateg	-2690
▁buildings	-2691
the	-2692
▁11	-2693
▁201	-2694
▁bom	-2695
▁appear	-2696
▁indeed	-2697
▁collabor	-2698
▁hospital	-2699
▁sorts	-2700
▁waste	-2701
▁choose	-2702
▁launch	-2703
▁passion	-2704
▁cart	-2705
▁African	-2706
▁colleag	-2707
▁publish	-2708
ipt	-2709
▁late	-2710
▁remark	-2711
▁finding	-2712
▁somewhere	-2713
We	-2714
▁14	-2715
▁Ge	-2716
cape	-2717
▁phen	-2718
▁site	-2719
▁impossible	-2720
▁extraordinary	-2721
nces	-2722
▁Tod	-2723
atory	-2724
▁marr	-2725
▁labor	-2726
▁lands	-2727
▁larger	-2728
▁teacher	-2729
inct	-2730
▁sand	-2731
▁medicine	-2732
ana	-2733
cise	-2734
▁Look	-2735
▁above	-2736
▁minute	-2737
let	-2738
ror	-2739
estern	-2740
▁killed	-2741
▁taught	-2742
mb	-2743
anc	-2744
ued	-2745
▁deb	-2746
▁blind	-2747
▁enjoy	-2748
▁forms	-2749
▁doctor	-2750
▁allowed	-2751
▁signific	-2752
ech	-2753
others	-2754
▁detect	-2755
▁products	-2756
▁Who	-2757
▁sky	-2758
▁influ	-2759
▁including	-2760
▁complicated	-2761
nal	-2762
▁17	-2763
rage	-2764
sect	-2765
▁mis	-2766
▁phil	-2767
▁wife	-2768
▁Those	-2769
▁Ag	-2770
▁cat	-2771
though	-2772
▁ended	-2773
▁temper	-2774
izations	-2775
amm	-2776
▁Le	-2777
ster	-2778
ured	-2779
▁fine	-2780
▁heav	-2781
▁usually	-2782
urt	-2783
▁dam	-2784
▁Chris	-2785
▁cases	-2786
▁allows	-2787
▁increase	-2788
▁bal	-2789
ission	-2790
▁earth	-2791
▁truly	-2792
▁manage	-2793
▁discuss	-2794
▁studies	-2795
▁univers	-2796
▁phenomen	-2797
▁position	-2798
▁traditional	-2799
▁War	-2800
▁bank	-2801
▁burn	-2802
▁alive	-2803
▁afford	-2804
ologists	-2805
▁training	-2806
rap	-2807
ining	-2808
▁fing	-2809
▁mist	-2810
▁excited	-2811
▁families	-2812
!"	-2813
ffic	-2814
▁oxy	-2815
▁pack	-2816
▁wild	-2817
▁moral	-2818
▁beings	-2819
▁points	-2820
▁older	-2821
▁Christ	-2822
▁author	-2823
▁distrib	-2824
▁decision	-2825
▁standing	-2826
▁successful	-2827
▁international	-2828
▁Q	-2829
edom	-2830
useum	-2831
▁fram	-2832
▁luck	-2833
▁price	-2834
▁prote	-2835
▁stars	-2836
▁critical	-2837
▁dy	-2838
ring	-2839
▁card	-2840
▁wait	-2841
▁Today	-2842
▁region	-2843
▁square	-2844
▁mention	-2845
ugh	-2846
▁Don	-2847
▁doc	-2848
▁kil	-2849
▁purp	-2850
▁finan	-2851
▁throw	-2852
iven	-2853
▁Car	-2854
▁bur	-2855
▁lower	-2856
▁college	-2857
▁bacteria	-2858
▁electricity	-2859
▁tree	-2860
▁Somet	-2861
▁lines	-2862
▁crisis	-2863
▁infect	-2864
▁prison	-2865
▁reading	-2866
▁conversation	-2867
po	-2868
isms	-2869
▁Like	-2870
▁cold	-2871
▁upon	-2872
▁engage	-2873
▁pieces	-2874
▁series	-2875
▁achieve	-2876
▁somehow	-2877
▁perspective	-2878
▁cook	-2879
▁fasc	-2880
inated	-2881
▁provide	-2882
▁patterns	-2883
▁straight	-2884
rel	-2885
ration	-2886
▁policy	-2887
▁healthy	-2888
▁respect	-2889
▁specific	-2890
go	-2891
la	-2892
men	-2893
▁code	-2894
▁star	-2895
▁trou	-2896
▁smaller	-2897
No	-2898
▁TV	-2899
fact	-2900
rect	-2901
soci	-2902
▁198	-2903
▁ign	-2904
▁kept	-2905
▁urban	-2906
▁physics	-2907
▁seconds	-2908
▁hop	-2909
▁enorm	-2910
▁occur	-2911
▁quant	-2912
▁rights	-2913
▁written	-2914
▁Act	-2915
▁fra	-2916
▁print	-2917
▁biology	-2918
▁neurons	-2919
▁anywhere	-2920
▁recognize	-2921
▁East	-2922
▁town	-2923
▁slight	-2924
▁content	-2925
▁treatment	-2926
▁organization	-2927
rab	-2928
▁Ab	-2929
ently	-2930
▁page	-2931
▁term	-2932
▁robots	-2933
▁himself	-2934
▁version	-2935
ama	-2936
imb	-2937
▁Sp	-2938
▁sou	-2939
▁swe	-2940
agine	-2941
▁roll	-2942
▁actual	-2943
▁calcul	-2944
▁military	-2945
▁increasing	-2946
ube	-2947
▁Sw	-2948
ping	-2949
▁Isl	-2950
▁sal	-2951
▁weight	-2952
▁anymore	-2953
▁doctors	-2954
ays	-2955
ops	-2956
iced	-2957
▁board	-2958
▁molec	-2959
▁please	-2960
dom	-2961
▁Are	-2962
▁dog	-2963
ustrial	-2964
▁service	-2965
▁architecture	-2966
epend	-2967
▁Which	-2968
▁effort	-2969
▁Americans	-2970
met	-2971
▁genes	-2972
▁bodies	-2973
▁address	-2974
▁respond	-2975
▁Go	-2976
▁Bra	-2977
▁veh	-2978
▁whe	-2979
erman	-2980
▁Afgh	-2981
uments	-2982
▁trick	-2983
▁employ	-2984
▁contrib	-2985
aging	-2986
iling	-2987
▁transport	-2988
zz	-2989
ulf	-2990
▁13	-2991
back	-2992
▁web	-2993
▁port	-2994
▁magic	-2995
▁earlier	-2996
▁strange	-2997
▁legs	-2998
▁greater	-2999
▁private	-3000
▁becoming	-3001
▁machines	-3002
▁painting	-3003
bol	-3004
▁21	-3005
ried	-3006
▁yeah	-3007
▁email	-3008
▁loved	-3009
▁police	-3010
▁skills	-3011
▁decisions	-3012
▁eth	-3013
thern	-3014
▁desp	-3015
▁catch	-3016
▁remind	-3017
▁clearly	-3018
▁willing	-3019
▁listening	-3020
iest	-3021
oles	-3022
rams	-3023
time	-3024
▁glass	-3025
▁weren	-3026
itation	-3027
▁Another	-3028
▁throughout	-3029
lebr	-3030
▁Mus	-3031
erson	-3032
▁laugh	-3033
▁familiar	-3034
▁expensive	-3035
▁90	-3036
▁sam	-3037
▁jump	-3038
▁shot	-3039
▁famous	-3040
▁mental	-3041
▁comfort	-3042
▁X	-3043
acity	-3044
itude	-3045
▁costs	-3046
▁drink	-3047
▁spect	-3048
▁worry	-3049
▁unique	-3050
▁solutions	-3051
▁therefore	-3052
▁Ad	-3053
▁Mar	-3054
▁cloud	-3055
▁Ex	-3056
▁alg	-3057
▁exh	-3058
▁store	-3059
inating	-3060
▁Afghan	-3061
▁societ	-3062
▁strugg	-3063
▁explore	-3064
▁production	-3065
aly	-3066
sequ	-3067
▁Har	-3068
▁forth	-3069
▁determ	-3070
▁levels	-3071
▁website	-3072
enn	-3073
ceed	-3074
▁rid	-3075
▁thr	-3076
▁park	-3077
▁Imagine	-3078
▁genetic	-3079
▁waiting	-3080
▁practice	-3081
▁fantastic	-3082
eral	-3083
ained	-3084
▁cover	-3085
▁dangerous	-3086
ky	-3087
iti	-3088
mic	-3089
▁tap	-3090
aries	-3091
▁autom	-3092
▁range	-3093
▁surger	-3094
▁freedom	-3095
▁intelligence	-3096
yr	-3097
fer	-3098
ables	-3099
eless	-3100
▁final	-3101
▁greatest	-3102
▁direction	-3103
▁performance	-3104
0,	-3105
cies	-3106
ystem	-3107
atives	-3108
▁beauty	-3109
▁celebr	-3110
▁saving	-3111
bb	-3112
▁Bl	-3113
▁City	-3114
▁hero	-3115
▁prep	-3116
▁rand	-3117
▁rise	-3118
▁weap	-3119
▁zero	-3120
imately	-3121
▁walked	-3122
▁environmental	-3123
orry	-3124
uted	-3125
▁secret	-3126
▁citizens	-3127
▁institutions	-3128
ises	-3129
resh	-3130
▁atm	-3131
orrow	-3132
osing	-3133
▁decade	-3134
▁spirit	-3135
▁University	-3136
ils	-3137
▁Ste	-3138
▁fuel	-3139
▁vari	-3140
ashing	-3141
▁values	-3142
atically	-3143
▁effective	-3144
▁immediately	-3145
oid	-3146
rees	-3147
▁cry	-3148
▁crow	-3149
istics	-3150
▁driving	-3151
▁meeting	-3152
▁Cl	-3153
▁shark	-3154
ologist	-3155
▁random	-3156
▁lad	-3157
▁floor	-3158
▁optim	-3159
▁wealth	-3160
▁invented	-3161
ondon	-3162
▁coun	-3163
▁match	-3164
▁types	-3165
▁German	-3166
▁massive	-3167
▁plastic	-3168
▁various	-3169
▁teaching	-3170
oty	-3171
airs	-3172
itor	-3173
▁pan	-3174
▁ran	-3175
attle	-3176
▁Cent	-3177
▁laws	-3178
▁ahead	-3179
▁demon	-3180
▁encou	-3181
▁decades	-3182
rom	-3183
▁London	-3184
▁income	-3185
▁multip	-3186
▁services	-3187
ches	-3188
▁jud	-3189
▁career	-3190
▁humanity	-3191
▁interview	-3192
▁connection	-3193
▁governments	-3194
▁neighborhood	-3195
pro	-3196
ball	-3197
iles	-3198
vision	-3199
▁gradu	-3200
rastruct	-3201
▁Western	-3202
▁i	-3203
▁Two	-3204
antic	-3205
▁apply	-3206
▁decide	-3207
▁condition	-3208
▁Sch	-3209
▁concl	-3210
▁babies	-3211
▁although	-3212
▁instance	-3213
▁following	-3214
eny	-3215
▁ord	-3216
▁uses	-3217
▁instr	-3218
▁simpl	-3219
▁Second	-3220
▁insect	-3221
▁useful	-3222
iot	-3223
▁fit	-3224
ricult	-3225
▁method	-3226
▁physic	-3227
▁popular	-3228
▁relative	-3229
▁terrible	-3230
▁remarkable	-3231
SA	-3232
key	-3233
▁Mars	-3234
▁nation	-3235
▁choices	-3236
▁electron	-3237
▁enormous	-3238
▁possibly	-3239
▁infrastruct	-3240
▁surve	-3241
▁honest	-3242
▁standard	-3243
yl	-3244
▁Dr	-3245
aign	-3246
▁scr	-3247
▁dram	-3248
▁Austr	-3249
▁forget	-3250
▁effects	-3251
▁demonstr	-3252
wise	-3253
▁Cong	-3254
▁raise	-3255
▁flying	-3256
▁politics	-3257
▁atmosphere	-3258
▁24	-3259
iate	-3260
▁197	-3261
▁sus	-3262
board	-3263
▁broad	-3264
▁anyway	-3265
▁challenges	-3266
▁sad	-3267
▁cust	-3268
▁hair	-3269
▁hous	-3270
▁oppos	-3271
▁trade	-3272
▁virus	-3273
▁associ	-3274
▁stress	-3275
▁financial	-3276
▁societies	-3277
▁nut	-3278
▁yell	-3279
ervation	-3280
▁Per	-3281
anced	-3282
iforn	-3283
▁vict	-3284
▁dynam	-3285
▁integ	-3286
▁motiv	-3287
▁slide	-3288
▁helped	-3289
▁express	-3290
▁Californ	-3291
▁diseases	-3292
▁slightly	-3293
▁engineering	-3294
uct	-3295
▁500	-3296
prene	-3297
▁mamm	-3298
▁race	-3299
▁tiss	-3300
reprene	-3301
▁altern	-3302
▁summer	-3303
▁supply	-3304
▁symbol	-3305
▁pressure	-3306
▁understood	-3307
ray	-3308
▁mut	-3309
itted	-3310
▁worst	-3311
▁speech	-3312
▁capacity	-3313
▁surround	-3314
▁hyd	-3315
iring	-3316
▁Many	-3317
▁Your	-3318
▁commer	-3319
▁microb	-3320
▁purpose	-3321
udd	-3322
▁70	-3323
iber	-3324
▁mal	-3325
▁pig	-3326
▁base	-3327
▁drop	-3328
▁below	-3329
▁philos	-3330
▁directly	-3331
▁television	-3332
now	-3333
cles	-3334
▁From	-3335
▁wood	-3336
▁Indian	-3337
▁artist	-3338
▁destro	-3339
▁female	-3340
▁shared	-3341
▁switch	-3342
▁survive	-3343
▁California	-3344
▁colleagues	-3345
▁ir	-3346
▁196	-3347
▁paid	-3348
▁swim	-3349
▁tens	-3350
cience	-3351
▁whose	-3352
▁mostly	-3353
▁cultural	-3354
▁temperature	-3355
ufact	-3356
▁Arab	-3357
▁rule	-3358
▁offic	-3359
▁central	-3360
▁tremend	-3361
▁programs	-3362
ancy	-3363
▁states	-3364
▁agricult	-3365
▁religion	-3366
▁relationships	-3367
How	-3368
arm	-3369
unk	-3370
yle	-3371
▁boys	-3372
▁forces	-3373
▁invent	-3374
▁consequ	-3375
▁prevent	-3376
ios	-3377
▁et	-3378
cell	-3379
▁dad	-3380
▁doub	-3381
▁causes	-3382
▁dimens	-3383
▁National	-3384
▁published	-3385
▁infrastructure	-3386
cope	-3387
olve	-3388
▁blog	-3389
▁belief	-3390
▁meters	-3391
▁creativity	-3392
▁differences	-3393
▁organizations	-3394
ID	-3395
It	-3396
ef	-3397
Why	-3398
raq	-3399
▁Pl	-3400
load	-3401
wood	-3402
▁300	-3403
▁aid	-3404
▁conc	-3405
▁loss	-3406
▁funny	-3407
▁total	-3408
▁mobile	-3409
▁answers	-3410
▁noticed	-3411
▁reflect	-3412
▁controll	-3413
▁profound	-3414
▁Afghanistan	-3415
▁tun	-3416
arian	-3417
ooper	-3418
▁male	-3419
▁task	-3420
▁Think	-3421
▁oxygen	-3422
gy	-3423
cks	-3424
ked	-3425
ened	-3426
▁Dav	-3427
cules	-3428
▁heat	-3429
▁radio	-3430
▁closer	-3431
ec	-3432
izes	-3433
raid	-3434
▁Char	-3435
▁diagn	-3436
▁legal	-3437
▁liber	-3438
▁expand	-3439
▁campaign	-3440
▁speaking	-3441
rupt	-3442
▁mid	-3443
ement	-3444
inate	-3445
rench	-3446
▁Musl	-3447
▁twice	-3448
▁stopped	-3449
▁surgery	-3450
▁trouble	-3451
▁mountain	-3452
▁original	-3453
▁biological	-3454
▁entreprene	-3455
af	-3456
off	-3457
anda	-3458
ander	-3459
▁Again	-3460
▁afraid	-3461
▁played	-3462
win	-3463
esis	-3464
▁His	-3465
aling	-3466
▁Iraq	-3467
▁Islam	-3468
▁spaces	-3469
▁evolved	-3470
▁markets	-3471
▁streets	-3472
▁workers	-3473
▁manufact	-3474
▁networks	-3475
▁produced	-3476
▁communicate	-3477
ira	-3478
pes	-3479
uing	-3480
▁ang	-3481
▁Face	-3482
▁Russ	-3483
▁hole	-3484
▁compon	-3485
▁gotten	-3486
▁sustainable	-3487
0.	-3488
5,	-3489
vest	-3490
icles	-3491
phone	-3492
water	-3493
▁poet	-3494
▁displ	-3495
▁shock	-3496
▁active	-3497
▁applic	-3498
▁bought	-3499
▁highly	-3500
▁journal	-3501
▁oh	-3502
rael	-3503
▁hus	-3504
▁feels	-3505
▁missing	-3506
▁mix	-3507
▁tax	-3508
▁smell	-3509
▁custom	-3510
▁easily	-3511
▁seemed	-3512
▁Instead	-3513
▁experiments	-3514
▁responsibility	-3515
amb	-3516
▁ut	-3517
adem	-3518
atell	-3519
▁fort	-3520
▁vast	-3521
ashion	-3522
▁dance	-3523
▁dying	-3524
ception	-3525
▁emotional	-3526
▁molecules	-3527
empt	-3528
exic	-3529
▁San	-3530
order	-3531
orith	-3532
▁Iran	-3533
▁lack	-3534
▁shoot	-3535
▁corner	-3536
▁histor	-3537
▁classroom	-3538
▁surprising	-3539
hy	-3540
ibr	-3541
mon	-3542
ste	-3543
zil	-3544
aced	-3545
▁fat	-3546
▁Mich	-3547
▁basis	-3548
▁rough	-3549
▁independ	-3550
▁differently	-3551
ica	-3552
band	-3553
▁cru	-3554
ulner	-3555
▁coff	-3556
▁birds	-3557
▁eating	-3558
▁creates	-3559
▁degrees	-3560
▁helping	-3561
▁knowing	-3562
▁planets	-3563
▁algorith	-3564
▁experiences	-3565
edia	-3566
istry	-3567
▁hall	-3568
▁Brazil	-3569
▁reduce	-3570
▁deliver	-3571
▁designers	-3572
▁efficient	-3573
▁significant	-3574
▁Ro	-3575
▁gold	-3576
▁none	-3577
▁wire	-3578
▁Mexic	-3579
▁rapid	-3580
▁window	-3581
▁attract	-3582
▁members	-3583
▁diversity	-3584
itter	-3585
rical	-3586
▁sick	-3587
▁Great	-3588
▁Austral	-3589
▁daughter	-3590
cript	-3591
▁habit	-3592
▁weird	-3593
▁satell	-3594
▁industrial	-3595
▁communication	-3596
▁$	-3597
reg	-3598
▁iP	-3599
ears	-3600
ening	-3601
▁rare	-3602
▁dinos	-3603
▁broken	-3604
▁nearly	-3605
▁bringing	-3606
▁background	-3607
▁complexity	-3608
▁ur	-3609
term	-3610
▁ver	-3611
▁seas	-3612
▁flight	-3613
▁genome	-3614
▁spending	-3615
▁scientist	-3616
▁Par	-3617
▁etc	-3618
▁hom	-3619
arter	-3620
▁gent	-3621
▁agree	-3622
▁airpl	-3623
▁climb	-3624
▁visit	-3625
▁10,000	-3626
▁Facebook	-3627
ratic	-3628
icking	-3629
▁photo	-3630
osystem	-3631
▁Thanks	-3632
▁demand	-3633
▁lights	-3634
▁target	-3635
▁contact	-3636
▁studying	-3637
▁commercial	-3638
▁conference	-3639
▁consciousness	-3640
gth	-3641
icon	-3642
isco	-3643
▁reb	-3644
▁reco	-3645
▁trip	-3646
aining	-3647
anging	-3648
rength	-3649
▁analy	-3650
▁shift	-3651
▁resist	-3652
▁devices	-3653
▁hearing	-3654
▁addition	-3655
▁Nob	-3656
▁ban	-3657
▁ske	-3658
▁fold	-3659
▁crowd	-3660
▁enter	-3661
▁Israel	-3662
▁breast	-3663
▁volunt	-3664
▁tremendous	-3665
▁opportunities	-3666
IDS	-3667
▁En	-3668
reci	-3669
rogen	-3670
▁bees	-3671
▁boat	-3672
▁join	-3673
▁wide	-3674
ording	-3675
▁David	-3676
▁metap	-3677
▁vulner	-3678
▁focused	-3679
▁landscape	-3680
▁inj	-3681
▁chim	-3682
▁hack	-3683
▁trib	-3684
▁strength	-3685
▁ecosystem	-3686
▁Gu	-3687
▁Dar	-3688
▁fro	-3689
▁tum	-3690
▁flag	-3691
▁rout	-3692
▁fully	-3693
▁fairly	-3694
▁Actually	-3695
aul	-3696
edd	-3697
▁Te	-3698
▁More	-3699
▁stem	-3700
▁brill	-3701
▁Middle	-3702
▁sexual	-3703
▁forever	-3704
▁imagination	-3705
mp	-3706
▁master	-3707
▁passed	-3708
▁identity	-3709
8,	-3710
ees	-3711
bert	-3712
▁Over	-3713
▁1,000	-3714
▁bread	-3715
▁cooper	-3716
▁desert	-3717
▁therap	-3718
▁ancient	-3719
▁mission	-3720
do	-3721
iam	-3722
val	-3723
▁Con	-3724
▁beat	-3725
▁shop	-3726
▁parad	-3727
▁coffee	-3728
▁consid	-3729
▁museum	-3730
▁correct	-3731
na	-3732
hand	-3733
▁Nor	-3734
house	-3735
▁bomb	-3736
▁cred	-3737
▁lucky	-3738
▁pleas	-3739
▁aspect	-3740
▁yellow	-3741
▁inspired	-3742
▁opposite	-3743
▁creatures	-3744
▁phenomenon	-3745
▁Tr	-3746
▁alt	-3747
based	-3748
pping	-3749
▁Good	-3750
▁Will	-3751
orders	-3752
▁cheap	-3753
▁party	-3754
▁artists	-3755
▁despite	-3756
▁farmers	-3757
▁argument	-3758
▁religious	-3759
▁possibility	-3760
atr	-3761
irt	-3762
▁amb	-3763
▁core	-3764
▁mort	-3765
▁scan	-3766
▁magaz	-3767
▁failure	-3768
▁turning	-3769
▁Mc	-3770
▁Ob	-3771
idden	-3772
ipped	-3773
▁cogn	-3774
▁host	-3775
ifying	-3776
▁accom	-3777
▁brand	-3778
ography	-3779
▁advant	-3780
▁easier	-3781
▁gentle	-3782
▁accident	-3783
▁describe	-3784
cest	-3785
mark	-3786
orge	-3787
itely	-3788
▁hell	-3789
▁repe	-3790
▁teen	-3791
atures	-3792
▁giant	-3793
▁mouth	-3794
▁dreams	-3795
▁events	-3796
▁notion	-3797
▁figured	-3798
▁sharing	-3799
▁particles	-3800
1,	-3801
gra	-3802
▁1.	-3803
ties	-3804
▁Web	-3805
▁gun	-3806
using	-3807
▁note	-3808
▁ship	-3809
▁raised	-3810
▁moments	-3811
ification	-3812
▁partners	-3813
▁structures	-3814
▁importantly	-3815
zen	-3816
edic	-3817
lies	-3818
ront	-3819
ulpt	-3820
▁nor	-3821
▁sculpt	-3822
▁foreign	-3823
▁benefits	-3824
▁entirely	-3825
cop	-3826
▁Mr	-3827
▁Sc	-3828
ager	-3829
roud	-3830
▁Aud	-3831
▁ing	-3832
▁joy	-3833
▁exer	-3834
▁gene	-3835
▁harm	-3836
▁coast	-3837
▁ancest	-3838
ford	-3839
▁fol	-3840
print	-3841
▁Asia	-3842
▁Take	-3843
▁forg	-3844
▁held	-3845
▁plat	-3846
▁Niger	-3847
▁bright	-3848
ulations	-3849
▁However	-3850
▁regular	-3851
7,	-3852
ada	-3853
ett	-3854
uge	-3855
reet	-3856
vere	-3857
▁cla	-3858
rated	-3859
▁poem	-3860
▁puzz	-3861
▁vacc	-3862
icians	-3863
▁calls	-3864
▁sorry	-3865
▁batter	-3866
▁brings	-3867
▁elements	-3868
▁negative	-3869
▁suffering	-3870
▁necessarily	-3871
rie	-3872
▁Gl	-3873
▁ble	-3874
▁tom	-3875
▁sport	-3876
connect	-3877
▁charge	-3878
▁require	-3879
▁traffic	-3880
▁billions	-3881
ley	-3882
rim	-3883
roll	-3884
vity	-3885
▁wis	-3886
▁Rich	-3887
▁accur	-3888
▁north	-3889
▁quote	-3890
▁stream	-3891
▁attempt	-3892
▁concent	-3893
▁fashion	-3894
▁kilomet	-3895
▁restaur	-3896
▁European	-3897
▁responsible	-3898
9,	-3899
▁CO	-3900
This	-3901
rate	-3902
▁mill	-3903
dimens	-3904
▁proud	-3905
▁tough	-3906
▁French	-3907
▁bridge	-3908
▁photos	-3909
▁remote	-3910
▁appreci	-3911
▁brother	-3912
▁distance	-3913
▁leadership	-3914
▁competition	-3915
equ	-3916
inc	-3917
▁400	-3918
▁bud	-3919
▁smo	-3920
▁disp	-3921
▁seed	-3922
▁bound	-3923
▁chick	-3924
▁helps	-3925
▁invis	-3926
▁corpor	-3927
▁opened	-3928
▁pounds	-3929
▁tissue	-3930
▁counter	-3931
▁previous	-3932
▁Sometimes	-3933
gypt	-3934
celer	-3935
stein	-3936
verse	-3937
▁Very	-3938
▁edge	-3939
▁iron	-3940
ulated	-3941
▁epide	-3942
▁indic	-3943
ruption	-3944
ifically	-3945
▁leading	-3946
▁studied	-3947
▁virtual	-3948
▁weapons	-3949
▁necessary	-3950
▁definition	-3951
▁1,	-3952
ysis	-3953
▁See	-3954
▁egg	-3955
eared	-3956
▁Keny	-3957
idents	-3958
inally	-3959
itable	-3960
▁grass	-3961
▁inform	-3962
▁oceans	-3963
▁sector	-3964
▁emotion	-3965
▁holding	-3966
ibilities	-3967
▁document	-3968
▁intellect	-3969
▁philosoph	-3970
▁Ha	-3971
▁Su	-3972
▁Big	-3973
▁cand	-3974
▁reve	-3975
▁adapt	-3976
▁subst	-3977
▁balance	-3978
▁husband	-3979
▁matters	-3980
▁shouldn	-3981
▁believed	-3982
▁brilliant	-3983
▁ultimately	-3984
kn	-3985
▁Fl	-3986
▁Egypt	-3987
▁faith	-3988
▁maint	-3989
▁motor	-3990
▁stuck	-3991
▁adults	-3992
▁dollar	-3993
▁failed	-3994
▁destroy	-3995
▁related	-3996
▁unfortunately	-3997
ses	-3998
▁Sun	-3999
▁tast	-4000
▁compl	-4001
▁leads	-4002
▁offer	-4003
▁truck	-4004
artment	-4005
▁colors	-4006
▁convin	-4007
▁double	-4008
▁signal	-4009
▁succeed	-4010
▁childhood	-4011
my	-4012
aff	-4013
lin	-4014
iors	-4015
urch	-4016
uros	-4017
vant	-4018
▁und	-4019
iable	-4020
▁shel	-4021
ctions	-4022
▁river	-4023
▁grandm	-4024
dimensional	-4025
▁investment	-4026
▁institution	-4027
tle	-4028
iage	-4029
▁Once	-4030
▁narr	-4031
▁click	-4032
▁heads	-4033
▁mouse	-4034
▁insects	-4035
▁platform	-4036
▁concerned	-4037
▁Me	-4038
care	-4039
uild	-4040
word	-4041
▁Gen	-4042
▁fab	-4043
▁pet	-4044
inist	-4045
▁foss	-4046
▁hate	-4047
▁noise	-4048
▁wheel	-4049
ographic	-4050
▁leaving	-4051
▁discovery	-4052
▁university	-4053
ij	-4054
cra	-4055
mar	-4056
oop	-4057
▁Ed	-4058
oses	-4059
▁fle	-4060
agers	-4061
▁Bang	-4062
▁exhib	-4063
▁lunch	-4064
▁newsp	-4065
▁deeply	-4066
▁slowly	-4067
▁unlike	-4068
▁element	-4069
▁sequence	-4070
▁construct	-4071
▁influence	-4072
2,	-4073
▁Ne	-4074
aria	-4075
hold	-4076
▁unc	-4077
▁exch	-4078
terday	-4079
▁crash	-4080
▁frequ	-4081
▁moves	-4082
▁novel	-4083
▁prior	-4084
▁caught	-4085
▁degree	-4086
▁lesson	-4087
mit	-4088
illed	-4089
▁weak	-4090
ipping	-4091
▁transp	-4092
▁prototy	-4093
▁typical	-4094
▁compared	-4095
▁constantly	-4096
▁professional	-4097
▁Did	-4098
▁bag	-4099
▁mig	-4100
lands	-4101
▁argue	-4102
▁embra	-4103
▁synth	-4104
▁letter	-4105
▁install	-4106
▁protein	-4107
▁trained	-4108
▁creation	-4109
▁fighting	-4110
▁president	-4111
enty	-4112
oted	-4113
pper	-4114
▁Des	-4115
▁hyp	-4116
▁rot	-4117
right	-4118
▁ants	-4119
▁frag	-4120
▁grad	-4121
elling	-4122
▁names	-4123
▁walls	-4124
lection	-4125
▁begins	-4126
▁closed	-4127
▁sister	-4128
▁British	-4129
▁factory	-4130
▁insight	-4131
▁finished	-4132
▁majority	-4133
▁fascinating	-4134
ha	-4135
ius	-4136
son	-4137
athy	-4138
▁den	-4139
ortex	-4140
throp	-4141
▁bone	-4142
▁gard	-4143
▁opin	-4144
▁spot	-4145
▁fresh	-4146
▁paint	-4147
▁phones	-4148
▁acceler	-4149
▁capable	-4150
▁emotions	-4151
▁strategy	-4152
▁surprise	-4153
▁described	-4154
▁collective	-4155
▁interaction	-4156
ami	-4157
oom	-4158
esth	-4159
▁Gra	-4160
▁tit	-4161
▁tor	-4162
ength	-4163
essed	-4164
▁horr	-4165
▁tour	-4166
▁equal	-4167
▁faces	-4168
▁talks	-4169
mission	-4170
▁attach	-4171
▁reward	-4172
▁equival	-4173
▁managed	-4174
▁quantum	-4175
▁metaphor	-4176
▁otherwise	-4177
▁depression	-4178
▁mathematics	-4179
IT	-4180
oe	-4181
▁NA	-4182
▁Bas	-4183
▁mos	-4184
▁adop	-4185
▁roof	-4186
▁seat	-4187
▁coral	-4188
▁paying	-4189
▁separate	-4190
▁advantage	-4191
▁operating	-4192
ads	-4193
▁150	-4194
▁cos	-4195
▁ton	-4196
itute	-4197
▁Life	-4198
ancing	-4199
urally	-4200
▁Audience	-4201
▁cognitive	-4202
▁engineers	-4203
▁organisms	-4204
▁perfectly	-4205
▁Her	-4206
▁era	-4207
▁pun	-4208
apers	-4209
uries	-4210
▁Have	-4211
▁king	-4212
▁moon	-4213
▁soil	-4214
▁avoid	-4215
entally	-4216
▁benefit	-4217
▁justice	-4218
▁disaster	-4219
▁followed	-4220
▁currently	-4221
▁principles	-4222
ox	-4223
▁ju	-4224
anes	-4225
oint	-4226
▁odd	-4227
▁band	-4228
▁hasn	-4229
▁purs	-4230
▁whom	-4231
▁breath	-4232
▁Washing	-4233
▁artific	-4234
▁volunte	-4235
▁galaxies	-4236
▁invisible	-4237
▁mentioned	-4238
▁consumption	-4239
▁civilization	-4240
▁Col	-4241
▁org	-4242
asion	-4243
ulous	-4244
▁empt	-4245
▁stim	-4246
▁Franc	-4247
▁categ	-4248
▁chann	-4249
▁eleph	-4250
▁homes	-4251
vention	-4252
▁Mexico	-4253
▁feedback	-4254
▁surprised	-4255
ae	-4256
icity	-4257
known	-4258
▁meat	-4259
▁brief	-4260
▁equip	-4261
▁grown	-4262
oration	-4263
▁finger	-4264
▁harder	-4265
▁limited	-4266
▁replace	-4267
▁treated	-4268
▁worried	-4269
irm	-4270
cked	-4271
▁mir	-4272
alley	-4273
▁Bill	-4274
▁Each	-4275
▁Paul	-4276
▁incent	-4277
▁leader	-4278
▁England	-4279
▁vehicle	-4280
▁wearing	-4281
▁Australia	-4282
▁Washington	-4283
▁businesses	-4284
▁equivalent	-4285
ok	-4286
▁Hum	-4287
▁due	-4288
▁gar	-4289
▁fell	-4290
▁lapt	-4291
▁belong	-4292
▁desire	-4293
▁galaxy	-4294
▁compare	-4295
▁precise	-4296
▁contract	-4297
▁everyday	-4298
▁investig	-4299
▁received	-4300
▁languages	-4301
RI	-4302
apse	-4303
cket	-4304
onom	-4305
isher	-4306
▁arms	-4307
▁nerv	-4308
▁wear	-4309
ildren	-4310
▁Three	-4311
▁cycle	-4312
▁south	-4313
▁wisdom	-4314
▁invited	-4315
▁Everybody	-4316
If	-4317
ara	-4318
rict	-4319
wide	-4320
▁tox	-4321
▁Park	-4322
▁bull	-4323
▁chair	-4324
▁circle	-4325
▁extend	-4326
▁fellow	-4327
▁fourth	-4328
▁unless	-4329
▁Richard	-4330
▁married	-4331
▁watched	-4332
▁magazine	-4333
▁molecule	-4334
▁planning	-4335
▁alternative	-4336
cil	-4337
pet	-4338
▁ax	-4339
aked	-4340
▁Red	-4341
▁pow	-4342
▁agre	-4343
▁wave	-4344
issions	-4345
▁implic	-4346
▁select	-4347
▁Twitter	-4348
▁weather	-4349
▁launched	-4350
gar	-4351
roph	-4352
▁Min	-4353
▁tal	-4354
craft	-4355
ublic	-4356
▁Does	-4357
▁intu	-4358
ensity	-4359
▁Would	-4360
▁surge	-4361
▁commit	-4362
▁exists	-4363
▁symmet	-4364
▁highest	-4365
▁mothers	-4366
▁designer	-4367
▁survival	-4368
▁equipment	-4369
▁agriculture	-4370
ume	-4371
▁fed	-4372
▁anti	-4373
▁pages	-4374
▁prost	-4375
▁quiet	-4376
▁users	-4377
iration	-4378
▁academ	-4379
▁battle	-4380
▁debate	-4381
▁expert	-4382
▁stupid	-4383
▁soldiers	-4384
▁seriously	-4385
oman	-4386
▁App	-4387
▁dol	-4388
▁dry	-4389
▁hun	-4390
▁coal	-4391
▁puts	-4392
▁dinner	-4393
▁thinks	-4394
▁toward	-4395
▁versus	-4396
▁Germany	-4397
▁curious	-4398
▁drawing	-4399
▁organic	-4400
▁normally	-4401
▁hopefully	-4402
4,	-4403
▁35	-4404
lied	-4405
▁Pal	-4406
▁Pres	-4407
▁pros	-4408
▁Darwin	-4409
▁shapes	-4410
▁nervous	-4411
▁identify	-4412
▁multiple	-4413
▁economics	-4414
ago	-4415
car	-4416
hab	-4417
set	-4418
▁Rep	-4419
▁poo	-4420
▁AIDS	-4421
▁nutr	-4422
▁reef	-4423
▁polic	-4424
▁steps	-4425
▁veget	-4426
▁100,000	-4427
▁testing	-4428
▁associated	-4429
▁kilometers	-4430
▁distribution	-4431
▁increasingly	-4432
Yes	-4433
add	-4434
bel	-4435
▁Co	-4436
▁El	-4437
▁Sm	-4438
▁Ein	-4439
▁ves	-4440
anted	-4441
place	-4442
umber	-4443
▁init	-4444
▁warm	-4445
ushing	-4446
▁folks	-4447
▁neuro	-4448
▁plane	-4449
▁round	-4450
▁hidden	-4451
▁article	-4452
▁players	-4453
▁signals	-4454
▁property	-4455
▁sentence	-4456
▁existence	-4457
▁processes	-4458
▁yesterday	-4459
▁statistics	-4460
au	-4461
▁Res	-4462
▁agg	-4463
▁cro	-4464
estic	-4465
▁myth	-4466
encies	-4467
forest	-4468
▁dolph	-4469
▁rural	-4470
▁saved	-4471
▁astron	-4472
▁interp	-4473
▁leaves	-4474
▁motion	-4475
▁neuros	-4476
▁reform	-4477
▁station	-4478
▁ordinary	-4479
▁resource	-4480
▁according	-4481
▁technical	-4482
▁transformation	-4483
ocol	-4484
otic	-4485
▁diet	-4486
▁tick	-4487
▁Green	-4488
▁antib	-4489
▁chain	-4490
▁infin	-4491
▁sites	-4492
▁circum	-4493
▁driver	-4494
▁filled	-4495
▁gather	-4496
▁illness	-4497
▁warming	-4498
▁airplane	-4499
▁struggle	-4500
▁comfortable	-4501
▁generations	-4502
ino	-4503
rum	-4504
aled	-4505
▁Bar	-4506
nding	-4507
▁date	-4508
▁flat	-4509
▁tail	-4510
▁tall	-4511
▁awful	-4512
▁daily	-4513
▁inner	-4514
▁lifet	-4515
▁stood	-4516
▁caused	-4517
▁island	-4518
▁safety	-4519
▁dimensions	-4520
oot	-4521
cale	-4522
vard	-4523
▁spl	-4524
olves	-4525
▁rein	-4526
▁shut	-4527
▁tons	-4528
▁Kenya	-4529
▁frustr	-4530
▁gender	-4531
▁losing	-4532
▁vessel	-4533
▁conduct	-4534
▁dealing	-4535
▁setting	-4536
▁Japanese	-4537
▁designing	-4538
▁principle	-4539
▁Everything	-4540
▁importance	-4541
▁experienced	-4542
▁researchers	-4543
▁intellectual	-4544
Hey	-4545
That	-4546
aurs	-4547
cast	-4548
erves	-4549
lease	-4550
▁abst	-4551
▁dial	-4552
▁hadn	-4553
▁hide	-4554
▁scen	-4555
▁soul	-4556
ession	-4557
▁colon	-4558
▁crime	-4559
▁heavy	-4560
▁shoes	-4561
▁spoke	-4562
▁toile	-4563
ressive	-4564
▁explan	-4565
▁covered	-4566
▁theater	-4567
▁Einstein	-4568
▁electrical	-4569
▁consequences	-4570
6,	-4571
engu	-4572
semb	-4573
▁Ben	-4574
▁MIT	-4575
▁cow	-4576
▁gap	-4577
▁copy	-4578
▁libr	-4579
▁valu	-4580
▁Times	-4581
▁facts	-4582
▁scene	-4583
▁fields	-4584
▁finish	-4585
▁movies	-4586
▁Britain	-4587
▁arrived	-4588
▁clinical	-4589
▁convinced	-4590
▁wondering	-4591
▁artificial	-4592
ns	-4593
urd	-4594
aker	-4595
▁god	-4596
▁row	-4597
▁tow	-4598
force	-4599
▁Kore	-4600
▁bits	-4601
▁enem	-4602
▁soph	-4603
▁2,000	-4604
▁layer	-4605
▁liked	-4606
▁limit	-4607
▁signs	-4608
akistan	-4609
▁damage	-4610
▁forced	-4611
▁poetry	-4612
▁killing	-4613
▁partner	-4614
▁universal	-4615
▁considered	-4616
ux	-4617
ald	-4618
low	-4619
cipl	-4620
rete	-4621
▁Dan	-4622
▁Sim	-4623
▁King	-4624
▁dots	-4625
▁Their	-4626
▁cloth	-4627
▁negot	-4628
▁picked	-4629
▁calling	-4630
▁continu	-4631
▁microbes	-4632
▁essential	-4633
▁professor	-4634
▁connections	-4635
▁intelligent	-4636
ato	-4637
bble	-4638
gged	-4639
odes	-4640
zing	-4641
neath	-4642
▁Gree	-4643
▁bear	-4644
▁peak	-4645
▁wond	-4646
lement	-4647
▁holes	-4648
▁recon	-4649
▁advert	-4650
▁deeper	-4651
▁height	-4652
▁muscle	-4653
▁refuge	-4654
▁replic	-4655
▁appropr	-4656
▁opening	-4657
▁analysis	-4658
▁engineer	-4659
▁continent	-4660
▁satellite	-4661
▁grandmother	-4662
3,	-4663
▁Rem	-4664
▁lie	-4665
▁nar	-4666
▁pil	-4667
iency	-4668
▁resc	-4669
▁manip	-4670
▁School	-4671
▁fossil	-4672
▁player	-4673
▁consist	-4674
▁cutting	-4675
▁letters	-4676
▁Pakistan	-4677
▁feelings	-4678
▁reaction	-4679
▁chemicals	-4680
▁management	-4681
▁possibilities	-4682
30	-4683
hi	-4684
zed	-4685
▁Mo	-4686
abet	-4687
fish	-4688
▁nan	-4689
▁rat	-4690
organ	-4691
▁blow	-4692
▁gall	-4693
▁kick	-4694
▁qual	-4695
▁recy	-4696
▁surf	-4697
▁camer	-4698
▁estab	-4699
▁grade	-4700
▁grain	-4701
▁mosqu	-4702
▁trials	-4703
▁sources	-4704
▁variety	-4705
▁expected	-4706
▁whenever	-4707
▁chemistry	-4708
▁expression	-4709
▁healthcare	-4710
icip	-4711
mber	-4712
ogen	-4713
▁Mil	-4714
▁Swed	-4715
▁pray	-4716
▁empty	-4717
▁perce	-4718
▁waves	-4719
▁credit	-4720
▁Harvard	-4721
▁battery	-4722
▁messages	-4723
2.	-4724
lom	-4725
mas	-4726
min	-4727
hyth	-4728
life	-4729
▁Amaz	-4730
▁crim	-4731
▁ends	-4732
▁lies	-4733
▁vote	-4734
▁solid	-4735
▁stock	-4736
osition	-4737
▁review	-4738
▁videos	-4739
▁experts	-4740
▁illustr	-4741
▁tomorrow	-4742
▁dinosaurs	-4743
▁collection	-4744
▁underneath	-4745
▁construction	-4746
ait	-4747
▁fal	-4748
▁ten	-4749
▁hurt	-4750
▁wake	-4751
acters	-4752
itness	-4753
▁broke	-4754
▁pengu	-4755
▁rates	-4756
ulating	-4757
▁dynamic	-4758
▁advanced	-4759
▁exercise	-4760
▁marriage	-4761
▁requires	-4762
▁President	-4763
▁corruption	-4764
new	-4765
ests	-4766
▁lat	-4767
▁uns	-4768
▁Last	-4769
▁gang	-4770
ension	-4771
▁illeg	-4772
▁George	-4773
▁micros	-4774
▁sharks	-4775
▁consumer	-4776
▁location	-4777
▁characters	-4778
▁relatively	-4779
▁transition	-4780
▁independent	-4781
DP	-4782
ael	-4783
▁Int	-4784
▁Jew	-4785
▁Sat	-4786
▁chap	-4787
▁shif	-4788
▁user	-4789
▁ideal	-4790
▁prove	-4791
▁teeth	-4792
▁fortun	-4793
▁voices	-4794
▁cartoon	-4795
▁keeping	-4796
▁rapidly	-4797
▁roughly	-4798
▁thoughts	-4799
▁valuable	-4800
▁carefully	-4801
▁interface	-4802
▁organized	-4803
▁sophistic	-4804
ri	-4805
uff	-4806
▁Je	-4807
▁Cam	-4808
▁bee	-4809
iques	-4810
▁2000	-4811
▁desk	-4812
▁evil	-4813
▁gift	-4814
▁isol	-4815
▁lawy	-4816
▁myst	-4817
▁fewer	-4818
▁teles	-4819
▁budget	-4820
▁facing	-4821
▁capture	-4822
▁privile	-4823
▁cultures	-4824
▁emerging	-4825
▁epidemic	-4826
▁exchange	-4827
▁represents	-4828
▁CE	-4829
▁sla	-4830
aters	-4831
▁gain	-4832
▁hang	-4833
▁Could	-4834
▁chart	-4835
▁sympt	-4836
▁Anyway	-4837
▁Canada	-4838
▁Center	-4839
▁Street	-4840
▁length	-4841
▁member	-4842
▁prefer	-4843
▁display	-4844
▁victims	-4845
▁convince	-4846
▁generate	-4847
▁behaviors	-4848
▁interpret	-4849
▁producing	-4850
▁vulnerable	-4851
▁specifically	-4852
gets	-4853
onym	-4854
▁Atl	-4855
▁bul	-4856
▁lic	-4857
▁pal	-4858
▁pip	-4859
lying	-4860
▁auth	-4861
▁pure	-4862
pected	-4863
▁cards	-4864
▁flies	-4865
▁houses	-4866
▁status	-4867
▁cameras	-4868
▁chimpan	-4869
▁nations	-4870
▁primary	-4871
▁password	-4872
▁Francisco	-4873
▁disappear	-4874
▁encourage	-4875
▁properties	-4876
▁situations	-4877
▁effectively	-4878
▁entrepreneurs	-4879
rs	-4880
ym	-4881
eal	-4882
▁45	-4883
▁mel	-4884
▁bran	-4885
▁intr	-4886
▁lady	-4887
▁ride	-4888
stream	-4889
▁Frank	-4890
▁claim	-4891
▁reven	-4892
▁bottle	-4893
▁Nigeria	-4894
▁depends	-4895
▁details	-4896
▁extract	-4897
▁reprodu	-4898
▁emissions	-4899
.'	-4900
uls	-4901
down	-4902
irty	-4903
mers	-4904
osis	-4905
uary	-4906
▁GDP	-4907
icago	-4908
▁flex	-4909
▁pian	-4910
▁shad	-4911
▁added	-4912
▁shall	-4913
▁contain	-4914
▁release	-4915
▁viruses	-4916
▁hydrogen	-4917
▁Institute	-4918
▁entertain	-4919
▁movements	-4920
▁instrument	-4921
gl	-4922
what	-4923
▁arts	-4924
▁spin	-4925
▁kitch	-4926
▁hypoth	-4927
▁Chicago	-4928
▁carrying	-4929
▁lifetime	-4930
gn	-4931
Don	-4932
▁Gh	-4933
▁II	-4934
itan	-4935
▁cure	-4936
▁exec	-4937
▁inev	-4938
▁lect	-4939
▁maps	-4940
▁sight	-4941
▁sugar	-4942
▁assign	-4943
▁define	-4944
▁promise	-4945
▁radical	-4946
▁sending	-4947
▁circumst	-4948
▁generally	-4949
▁interests	-4950
▁molecular	-4951
▁mortality	-4952
▁politicians	-4953
▁mathematical	-4954
igm	-4955
▁'9	-4956
▁Tom	-4957
▁Tur	-4958
▁gay	-4959
▁ped	-4960
itals	-4961
▁Ange	-4962
▁acqu	-4963
▁grid	-4964
▁liqu	-4965
▁unit	-4966
▁honor	-4967
▁risks	-4968
▁smile	-4969
itarian	-4970
▁Muslim	-4971
▁remain	-4972
chnology	-4973
▁engaged	-4974
▁however	-4975
abilities	-4976
▁Anderson	-4977
▁official	-4978
▁prepared	-4979
▁released	-4980
▁components	-4981
▁discussion	-4982
Do	-4983
fit	-4984
▁99	-4985
olds	-4986
pher	-4987
▁Los	-4988
▁Wik	-4989
▁Phil	-4990
▁YouT	-4991
▁dish	-4992
▁ring	-4993
▁snow	-4994
▁unex	-4995
▁beach	-4996
▁minim	-4997
▁occup	-4998
▁staff	-4999
▁sample	-5000
▁regions	-5001
▁selling	-5002
▁Congress	-5003
▁graduate	-5004
▁trillion	-5005
▁introduce	-5006
▁introduced	-5007
▁restaurant	-5008
▁techniques	-5009
log	-5010
▁GP	-5011
▁Gal	-5012
▁bow	-5013
▁rom	-5014
▁rub	-5015
▁spo	-5016
oting	-5017
▁bath	-5018
▁Since	-5019
▁atoms	-5020
▁goals	-5021
▁metal	-5022
▁serve	-5023
▁analog	-5024
▁bubble	-5025
▁buying	-5026
▁compar	-5027
▁fisher	-5028
▁organs	-5029
▁spring	-5030
▁winter	-5031
▁YouTube	-5032
▁establish	-5033
▁terrorism	-5034
▁convention	-5035
▁profession	-5036
60	-5037
alt	-5038
atin	-5039
bors	-5040
cont	-5041
▁Bro	-5042
▁Coll	-5043
▁NASA	-5044
▁drag	-5045
▁thin	-5046
▁steel	-5047
▁factor	-5048
▁forgot	-5049
▁encoura	-5050
▁factors	-5051
▁malaria	-5052
▁abstract	-5053
▁pleasure	-5054
▁employees	-5055
1.	-5056
ss	-5057
can	-5058
lly	-5059
▁Qu	-5060
▁Pac	-5061
▁san	-5062
erved	-5063
▁unus	-5064
porary	-5065
▁horse	-5066
▁hyper	-5067
▁sides	-5068
▁blocks	-5069
▁former	-5070
▁medium	-5071
▁mirror	-5072
▁regard	-5073
▁sphere	-5074
▁thanks	-5075
▁worlds	-5076
▁Charles	-5077
▁gravity	-5078
▁mistake	-5079
▁invention	-5080
▁newspaper	-5081
▁radiation	-5082
▁definitely	-5083
▁protection	-5084
▁environments	-5085
uel	-5086
over	-5087
▁mer	-5088
▁phr	-5089
▁que	-5090
etics	-5091
▁bill	-5092
▁runs	-5093
▁James	-5094
▁Other	-5095
▁tumor	-5096
▁scared	-5097
▁lessons	-5098
▁affected	-5099
▁spectrum	-5100
▁mountains	-5101
▁pollution	-5102
▁practical	-5103
▁combination	-5104
▁evolutionary	-5105
▁ens	-5106
alled	-5107
icing	-5108
orous	-5109
▁clip	-5110
▁goods	-5111
▁refer	-5112
▁assist	-5113
▁conver	-5114
▁driven	-5115
▁option	-5116
▁season	-5117
▁autonom	-5118
▁kitchen	-5119
▁opinion	-5120
▁reached	-5121
▁recorded	-5122
▁typically	-5123
▁democratic	-5124
bur	-5125
ham	-5126
iat	-5127
rog	-5128
Look	-5129
ingu	-5130
▁Yet	-5131
eline	-5132
lines	-5133
riend	-5134
▁bare	-5135
▁tank	-5136
olving	-5137
ternal	-5138
▁clock	-5139
▁estim	-5140
▁false	-5141
▁Russia	-5142
▁aftern	-5143
▁cortex	-5144
▁ingred	-5145
▁pulled	-5146
▁centers	-5147
▁chicken	-5148
▁fishing	-5149
▁include	-5150
▁neighbors	-5151
▁worldwide	-5152
▁perception	-5153
ita	-5154
sec	-5155
▁75	-5156
cend	-5157
olly	-5158
uits	-5159
▁Mic	-5160
▁eld	-5161
▁iPh	-5162
gment	-5163
▁Four	-5164
▁cere	-5165
▁dogs	-5166
▁plus	-5167
urance	-5168
▁keeps	-5169
▁ought	-5170
▁satis	-5171
▁Michael	-5172
▁Perhaps	-5173
▁actions	-5174
▁dropped	-5175
▁forests	-5176
▁privacy	-5177
▁singing	-5178
▁rational	-5179
▁relevant	-5180
▁required	-5181
▁traveling	-5182
▁literature	-5183
▁psychology	-5184
▁collaboration	-5185
▁sophisticated	-5186
oos	-5187
▁adj	-5188
▁dip	-5189
point	-5190
▁Alex	-5191
▁cast	-5192
▁diss	-5193
▁mira	-5194
▁Steve	-5195
▁input	-5196
▁notes	-5197
eration	-5198
▁garden	-5199
▁hoping	-5200
▁severe	-5201
▁applied	-5202
▁feature	-5203
▁harvest	-5204
▁features	-5205
▁vehicles	-5206
▁naturally	-5207
▁personally	-5208
▁participate	-5209
esh	-5210
spe	-5211
umps	-5212
▁194	-5213
abled	-5214
usive	-5215
▁cord	-5216
▁hits	-5217
▁reci	-5218
▁vent	-5219
arrass	-5220
▁aging	-5221
▁skill	-5222
▁liquid	-5223
▁perman	-5224
▁rocket	-5225
▁senses	-5226
▁sports	-5227
▁courage	-5228
▁illegal	-5229
▁unusual	-5230
▁combined	-5231
▁ultimate	-5232
▁ancestors	-5233
▁meaningful	-5234
▁destruction	-5235
▁fundamentally	-5236
▁technological	-5237
ums	-5238
ifth	-5239
▁Art	-5240
▁Ber	-5241
▁asp	-5242
▁rig	-5243
oston	-5244
▁Also	-5245
▁Bank	-5246
▁bicy	-5247
▁eggs	-5248
▁glam	-5249
▁mile	-5250
▁remo	-5251
▁wine	-5252
▁3,000	-5253
▁dedic	-5254
▁score	-5255
▁topic	-5256
▁formed	-5257
▁operate	-5258
▁stronger	-5259
▁afternoon	-5260
▁awareness	-5261
▁increased	-5262
▁mechanism	-5263
▁activities	-5264
▁algorithms	-5265
▁efficiency	-5266
oly	-5267
osh	-5268
xim	-5269
ework	-5270
itual	-5271
vable	-5272
▁Mart	-5273
▁Port	-5274
▁sees	-5275
▁wash	-5276
▁pregn	-5277
▁sweet	-5278
▁acting	-5279
▁clever	-5280
▁solved	-5281
▁accompl	-5282
▁records	-5283
▁internal	-5284
▁memories	-5285
▁mistakes	-5286
▁occurred	-5287
▁sunlight	-5288
▁embarrass	-5289
▁framework	-5290
▁functions	-5291
▁hospitals	-5292
▁physically	-5293
▁processing	-5294
▁underwater	-5295
▁manufacturing	-5296
▁transportation	-5297
cred	-5298
▁gut	-5299
enced	-5300
▁Mont	-5301
▁biom	-5302
▁joke	-5303
▁pair	-5304
▁inequ	-5305
▁pitch	-5306
▁tests	-5307
▁Amazon	-5308
▁France	-5309
▁studio	-5310
▁survey	-5311
▁Project	-5312
▁cooking	-5313
▁empathy	-5314
▁astronom	-5315
▁foundation	-5316
za	-5317
500	-5318
bre	-5319
ula	-5320
aren	-5321
asks	-5322
elly	-5323
▁Dem	-5324
▁Lad	-5325
▁mak	-5326
scale	-5327
▁Adam	-5328
▁trig	-5329
making	-5330
▁Women	-5331
▁theme	-5332
▁Boston	-5333
▁drives	-5334
cription	-5335
▁Pacific	-5336
▁equally	-5337
▁falling	-5338
▁largely	-5339
▁musical	-5340
▁suppose	-5341
▁witness	-5342
▁somewhat	-5343
▁conservation	-5344
ta	-5345
vis	-5346
abol	-5347
hips	-5348
▁Dep	-5349
▁nav	-5350
retch	-5351
▁Stan	-5352
▁fert	-5353
▁tape	-5354
▁wars	-5355
▁coord	-5356
▁domin	-5357
▁doubt	-5358
▁horiz	-5359
▁initi	-5360
▁prime	-5361
▁shame	-5362
▁storm	-5363
▁Nobody	-5364
▁advice	-5365
▁laptop	-5366
▁amounts	-5367
▁burning	-5368
▁discipl	-5369
▁birthday	-5370
▁dramatic	-5371
▁proteins	-5372
▁swimming	-5373
▁collected	-5374
▁computing	-5375
80	-5376
mm	-5377
itz	-5378
sem	-5379
top	-5380
berg	-5381
whel	-5382
▁Ant	-5383
▁Rob	-5384
▁Unf	-5385
▁anx	-5386
▁cha	-5387
ended	-5388
▁cave	-5389
▁club	-5390
▁decl	-5391
▁hung	-5392
▁5,000	-5393
▁advent	-5394
▁button	-5395
▁desper	-5396
▁diction	-5397
▁figures	-5398
▁silence	-5399
▁visible	-5400
▁antibiot	-5401
▁apparent	-5402
▁concrete	-5403
▁Something	-5404
▁protected	-5405
▁conclusion	-5406
▁photographs	-5407
▁potentially	-5408
orb	-5409
rat	-5410
lock	-5411
xide	-5412
▁Day	-5413
▁Mon	-5414
▁toy	-5415
akers	-5416
being	-5417
night	-5418
▁Five	-5419
▁fake	-5420
▁load	-5421
▁sets	-5422
▁suit	-5423
angers	-5424
source	-5425
▁While	-5426
▁piano	-5427
▁ridic	-5428
▁toxic	-5429
▁upper	-5430
▁Health	-5431
▁defined	-5432
▁constant	-5433
▁contrast	-5434
▁election	-5435
▁presence	-5436
▁percentage	-5437
▁Unfortunately	-5438
▁psychological	-5439
8.	-5440
In	-5441
yn	-5442
nel	-5443
▁2.	-5444
▁bes	-5445
▁Only	-5446
▁Talk	-5447
▁hunt	-5448
▁obst	-5449
▁vert	-5450
isters	-5451
▁Paris	-5452
▁cents	-5453
▁chose	-5454
▁frame	-5455
▁renew	-5456
▁roads	-5457
▁rooms	-5458
▁thick	-5459
▁Valley	-5460
▁contem	-5461
▁critic	-5462
▁iPhone	-5463
▁string	-5464
▁attacks	-5465
▁empower	-5466
▁extinct	-5467
▁overall	-5468
▁quarter	-5469
▁tonight	-5470
▁accurate	-5471
▁administ	-5472
▁confront	-5473
▁creature	-5474
▁overwhel	-5475
▁subjects	-5476
▁tracking	-5477
▁marketing	-5478
▁operation	-5479
▁sensitive	-5480
▁confidence	-5481
▁explanation	-5482
▁conversations	-5483
▁ru	-5484
foot	-5485
▁Jan	-5486
▁wel	-5487
▁diag	-5488
▁hook	-5489
▁mere	-5490
▁silk	-5491
▁State	-5492
▁films	-5493
inction	-5494
▁ritual	-5495
▁stayed	-5496
aneously	-5497
▁circuit	-5498
▁clothes	-5499
▁intense	-5500
▁outcome	-5501
▁remains	-5502
▁existing	-5503
▁infected	-5504
▁explained	-5505
▁providing	-5506
▁innovative	-5507
▁productive	-5508
▁surrounded	-5509
▁appropriate	-5510
▁inspiration	-5511
▁circumstances	-5512
▁sustainability	-5513
20	-5514
ls	-5515
uh	-5516
fin	-5517
aser	-5518
obal	-5519
▁Law	-5520
▁Pol	-5521
iture	-5522
▁cock	-5523
▁flew	-5524
▁lens	-5525
▁nurs	-5526
▁orch	-5527
▁subs	-5528
estyle	-5529
iosity	-5530
owered	-5531
▁recom	-5532
▁songs	-5533
▁Number	-5534
▁assume	-5535
▁monkey	-5536
▁reject	-5537
▁tested	-5538
▁breathe	-5539
▁closely	-5540
▁electro	-5541
▁nowhere	-5542
▁reverse	-5543
▁measured	-5544
▁authority	-5545
▁spiritual	-5546
▁electronic	-5547
▁presentation	-5548
▁Ac	-5549
▁Em	-5550
▁Fe	-5551
adic	-5552
keys	-5553
tail	-5554
▁Bab	-5555
▁Eth	-5556
▁Med	-5557
▁dot	-5558
esome	-5559
itors	-5560
stand	-5561
▁Thom	-5562
▁diam	-5563
▁furn	-5564
▁ment	-5565
▁nest	-5566
▁pill	-5567
▁scar	-5568
▁Wikip	-5569
▁error	-5570
▁resil	-5571
▁split	-5572
▁uncom	-5573
▁church	-5574
▁joined	-5575
▁command	-5576
▁comment	-5577
▁decline	-5578
▁options	-5579
▁sensors	-5580
▁unknown	-5581
▁horrible	-5582
▁wireless	-5583
▁appreciate	-5584
▁applications	-5585
5.	-5586
ih	-5587
alu	-5588
den	-5589
oons	-5590
▁600	-5591
▁Rev	-5592
▁pin	-5593
▁van	-5594
allel	-5595
▁ears	-5596
▁elev	-5597
▁jail	-5598
▁loud	-5599
▁pump	-5600
▁tack	-5601
▁zoom	-5602
herent	-5603
illing	-5604
▁bones	-5605
▁curve	-5606
▁datab	-5607
▁depth	-5608
▁frank	-5609
▁plate	-5610
▁taste	-5611
▁trend	-5612
▁deaths	-5613
▁deploy	-5614
▁flower	-5615
▁papers	-5616
▁whales	-5617
▁Angeles	-5618
▁evening	-5619
▁housing	-5620
▁therapy	-5621
▁symptoms	-5622
▁Basically	-5623
▁Christmas	-5624
▁controlled	-5625
▁economists	-5626
▁challenging	-5627
Is	-5628
Os	-5629
cal	-5630
▁Ah	-5631
▁BG	-5632
▁Jul	-5633
▁mad	-5634
iters	-5635
▁Come	-5636
▁Sept	-5637
▁disg	-5638
▁horm	-5639
▁pool	-5640
▁Union	-5641
▁lying	-5642
▁multi	-5643
▁whist	-5644
▁boring	-5645
▁handle	-5646
▁relate	-5647
▁remove	-5648
▁suffer	-5649
▁volume	-5650
▁advance	-5651
▁combine	-5652
▁fingers	-5653
▁samples	-5654
▁transpl	-5655
▁provided	-5656
ologically	-5657
▁centuries	-5658
▁gentlemen	-5659
▁narrative	-5660
▁statement	-5661
▁laboratory	-5662
▁passionate	-5663
dr	-5664
▁Sa	-5665
Yeah	-5666
cers	-5667
▁GPS	-5668
▁Part	-5669
▁busy	-5670
▁item	-5671
▁nose	-5672
athers	-5673
ounced	-5674
▁Micro	-5675
▁falls	-5676
▁globe	-5677
▁hotel	-5678
▁Museum	-5679
▁autism	-5680
▁clouds	-5681
inations	-5682
▁Science	-5683
▁channel	-5684
▁flowers	-5685
▁allowing	-5686
▁collapse	-5687
▁distinct	-5688
▁instruct	-5689
▁paradigm	-5690
▁villages	-5691
▁wherever	-5692
▁September	-5693
▁Wikipedia	-5694
▁implement	-5695
▁exploration	-5696
▁transformed	-5697
box	-5698
que	-5699
▁["	-5700
anta	-5701
ault	-5702
tech	-5703
▁Air	-5704
eness	-5705
ounce	-5706
▁Gulf	-5707
▁bike	-5708
▁gras	-5709
▁outc	-5710
▁angry	-5711
▁cyber	-5712
▁memor	-5713
▁navig	-5714
▁stone	-5715
▁weigh	-5716
▁divide	-5717
▁explos	-5718
▁extent	-5719
▁marine	-5720
ographer	-5721
▁Republic	-5722
▁determine	-5723
▁technique	-5724
▁capitalism	-5725
och	-5726
hour	-5727
look	-5728
lymp	-5729
▁ath	-5730
clear	-5731
gging	-5732
▁barr	-5733
▁icon	-5734
▁milk	-5735
▁poly	-5736
▁root	-5737
ateful	-5738
father	-5739
▁dress	-5740
▁expon	-5741
▁faced	-5742
▁fixed	-5743
▁humor	-5744
▁logic	-5745
▁prize	-5746
▁rocks	-5747
▁attend	-5748
▁corres	-5749
▁encoun	-5750
▁linked	-5751
▁pollen	-5752
▁profit	-5753
▁embrace	-5754
▁fiction	-5755
▁mosquit	-5756
▁policies	-5757
▁suggests	-5758
▁footprint	-5759
▁standards	-5760
▁behavioral	-5761
▁application	-5762
▁instruments	-5763
My	-5764
hol	-5765
nda	-5766
ola	-5767
uce	-5768
▁La	-5769
▁Ma	-5770
iggs	-5771
▁Mal	-5772
▁sen	-5773
otion	-5774
▁army	-5775
▁impl	-5776
▁mush	-5777
▁suic	-5778
▁tent	-5779
▁vibr	-5780
▁About	-5781
▁Found	-5782
▁admit	-5783
▁breed	-5784
▁label	-5785
▁polar	-5786
▁Robert	-5787
▁enable	-5788
▁limits	-5789
▁puzzle	-5790
onscious	-5791
▁dancing	-5792
▁download	-5793
▁infinite	-5794
▁organism	-5795
▁identical	-5796
mal	-5797
ota	-5798
vey	-5799
Okay	-5800
iled	-5801
nded	-5802
▁Che	-5803
▁hem	-5804
▁hur	-5805
acing	-5806
sters	-5807
▁Mark	-5808
▁gest	-5809
▁Higgs	-5810
▁Olymp	-5811
▁anger	-5812
▁boxes	-5813
▁decre	-5814
▁plans	-5815
▁Before	-5816
▁border	-5817
▁narrow	-5818
▁spinal	-5819
etically	-5820
▁causing	-5821
▁earthqu	-5822
▁feeding	-5823
▁funding	-5824
▁poorest	-5825
▁pushing	-5826
▁younger	-5827
▁director	-5828
▁floating	-5829
▁occasion	-5830
▁wondered	-5831
▁continued	-5832
▁measuring	-5833
▁reference	-5834
▁architects	-5835
▁mechanical	-5836
▁educational	-5837
▁implications	-5838
/1	-5839
emb	-5840
▁23	-5841
▁Sam	-5842
▁ack	-5843
▁vag	-5844
arant	-5845
belie	-5846
esity	-5847
▁Comm	-5848
▁June	-5849
▁acts	-5850
profit	-5851
▁guide	-5852
▁shell	-5853
▁whale	-5854
onymous	-5855
▁Please	-5856
▁agreed	-5857
▁chocol	-5858
▁corals	-5859
▁fright	-5860
▁inject	-5861
▁owners	-5862
▁Muslims	-5863
▁anticip	-5864
▁classes	-5865
▁frankly	-5866
▁mammals	-5867
▁robotic	-5868
▁vaccine	-5869
connected	-5870
▁equation	-5871
▁constrain	-5872
▁disorders	-5873
▁increases	-5874
▁selection	-5875
▁telephone	-5876
▁greenhouse	-5877
▁unexpected	-5878
70	-5879
gly	-5880
ups	-5881
van	-5882
▁py	-5883
iety	-5884
ille	-5885
rors	-5886
▁irr	-5887
ingly	-5888
▁1950	-5889
▁clus	-5890
▁elim	-5891
▁firm	-5892
imeter	-5893
▁Latin	-5894
▁ignor	-5895
▁pharm	-5896
▁Sweden	-5897
▁Thomas	-5898
▁clinic	-5899
▁diplom	-5900
▁interf	-5901
▁secure	-5902
▁struck	-5903
▁Finally	-5904
▁carried	-5905
▁existed	-5906
▁library	-5907
▁offered	-5908
▁parking	-5909
▁violent	-5910
▁Everyone	-5911
▁drinking	-5912
▁obsessed	-5913
▁transfer	-5914
▁arguments	-5915
▁breathing	-5916
▁directions	-5917
▁mathematic	-5918
▁automatically	-5919
iop	-5920
ctic	-5921
east	-5922
erge	-5923
gent	-5924
heim	-5925
▁Haw	-5926
itory	-5927
▁atom	-5928
▁cosm	-5929
▁dign	-5930
▁mice	-5931
▁stro	-5932
▁zone	-5933
▁Mount	-5934
▁dozen	-5935
▁flood	-5936
▁knock	-5937
▁recyc	-5938
▁astero	-5939
▁fabric	-5940
▁myster	-5941
▁placed	-5942
▁script	-5943
▁spider	-5944
▁careful	-5945
▁monkeys	-5946
▁mystery	-5947
▁proport	-5948
▁surgeon	-5949
▁windows	-5950
▁instinct	-5951
▁economies	-5952
▁performing	-5953
▁resistance	-5954
▁distributed	-5955
▁represented	-5956
▁dramatically	-5957
▁interactions	-5958
ata	-5959
ban	-5960
ias	-5961
imp	-5962
▁NG	-5963
amin	-5964
aret	-5965
etch	-5966
otes	-5967
rets	-5968
well	-5969
▁250	-5970
▁Jer	-5971
▁ben	-5972
hythm	-5973
icted	-5974
uting	-5975
▁Gold	-5976
▁cash	-5977
▁chip	-5978
▁ours	-5979
▁Count	-5980
▁Ghana	-5981
▁Korea	-5982
▁Obama	-5983
▁bombs	-5984
▁dense	-5985
▁phase	-5986
▁teams	-5987
▁arrest	-5988
▁mainly	-5989
▁stands	-5990
▁toilet	-5991
▁traged	-5992
▁Remember	-5993
▁domestic	-5994
▁elephant	-5995
▁grateful	-5996
▁outcomes	-5997
▁properly	-5998
▁celebrate	-5999
▁component	-6000
▁consumers	-6001
▁corporate	-6002
▁spreading	-6003
▁recognition	-6004
▁US	-6005
bage	-6006
wich	-6007
▁sed	-6008
▁tab	-6009
eters	-6010
while	-6011
▁excl	-6012
abetes	-6013
▁aston	-6014
▁enemy	-6015
▁grows	-6016
▁style	-6017
illance	-6018
▁January	-6019
▁Nothing	-6020
▁collaps	-6021
▁metabol	-6022
▁neither	-6023
▁savings	-6024
▁solving	-6025
▁engaging	-6026
▁illusion	-6027
▁overcome	-6028
▁penguins	-6029
▁household	-6030
▁lifestyle	-6031
▁prototype	-6032
▁populations	-6033
4.	-6034
PA	-6035
But	-6036
isl	-6037
oes	-6038
▁Ke	-6039
aint	-6040
appy	-6041
illy	-6042
▁10,	-6043
▁Cap	-6044
▁Leg	-6045
▁tea	-6046
esign	-6047
iance	-6048
iform	-6049
▁biod	-6050
▁tube	-6051
▁Apple	-6052
▁Inter	-6053
▁colum	-6054
▁crack	-6055
▁honey	-6056
▁males	-6057
▁scary	-6058
▁tight	-6059
iveness	-6060
▁acknow	-6061
▁filter	-6062
▁obstac	-6063
▁phrase	-6064
▁prices	-6065
▁storyt	-6066
▁borders	-6067
▁obesity	-6068
▁painful	-6069
▁receive	-6070
▁hardware	-6071
▁maintain	-6072
▁practices	-6073
▁controlling	-6074
bl	-6075
aks	-6076
bal	-6077
▁Hy	-6078
rary	-6079
rous	-6080
soft	-6081
▁Sec	-6082
▁sem	-6083
▁grab	-6084
▁gray	-6085
▁lets	-6086
▁loop	-6087
▁lung	-6088
▁seek	-6089
▁stri	-6090
called	-6091
▁Congo	-6092
▁Human	-6093
▁polio	-6094
▁smoke	-6095
▁stack	-6096
▁tries	-6097
▁plenty	-6098
▁proced	-6099
▁worker	-6100
ollywood	-6101
▁conserv	-6102
▁entered	-6103
▁license	-6104
▁raising	-6105
▁stretch	-6106
▁academic	-6107
▁brothers	-6108
▁romantic	-6109
▁destroyed	-6110
▁precisely	-6111
▁presented	-6112
▁recording	-6113
▁Foundation	-6114
▁Revolution	-6115
▁exhibition	-6116
▁inequality	-6117
▁philosophy	-6118
▁antibiotics	-6119
▁cooperation	-6120
▁conventional	-6121
▁entrepreneur	-6122
edy	-6123
oca	-6124
sum	-6125
tes	-6126
ello	-6127
ogue	-6128
rade	-6129
▁Cop	-6130
▁Hom	-6131
▁Sil	-6132
▁lun	-6133
▁raw	-6134
andon	-6135
▁Narr	-6136
▁golf	-6137
▁neut	-6138
▁pour	-6139
Americ	-6140
struct	-6141
▁House	-6142
▁Nobel	-6143
▁abuse	-6144
▁sales	-6145
▁title	-6146
▁immune	-6147
▁rising	-6148
▁scenar	-6149
▁slides	-6150
▁Central	-6151
▁designs	-6152
▁pretend	-6153
▁vessels	-6154
▁appeared	-6155
▁concepts	-6156
▁parallel	-6157
▁particle	-6158
▁printing	-6159
▁traveled	-6160
▁sculpture	-6161
▁uncertain	-6162
▁connecting	-6163
▁expectations	-6164
wr	-6165
▁DH	-6166
▁Rw	-6167
cean	-6168
▁Tor	-6169
▁dio	-6170
▁fan	-6171
▁tip	-6172
▁Jack	-6173
▁dict	-6174
apping	-6175
astern	-6176
▁accum	-6177
▁explo	-6178
▁stere	-6179
▁tasks	-6180
▁walks	-6181
raction	-6182
▁colony	-6183
▁embedd	-6184
▁excell	-6185
▁latest	-6186
▁pocket	-6187
▁repeat	-6188
▁surely	-6189
▁thrown	-6190
▁Islamic	-6191
▁appears	-6192
▁classic	-6193
▁density	-6194
▁guarant	-6195
▁lecture	-6196
▁spectac	-6197
▁attached	-6198
▁imagined	-6199
▁mushroom	-6200
▁depending	-6201
▁emergency	-6202
▁permanent	-6203
▁recommend	-6204
▁translate	-6205
▁commitment	-6206
▁department	-6207
▁fascinated	-6208
▁interactive	-6209
▁personality	-6210
▁surveillance	-6211
▁entertainment	-6212
bi	-6213
anny	-6214
gers	-6215
keep	-6216
ocal	-6217
ubes	-6218
udes	-6219
walk	-6220
▁Get	-6221
▁ate	-6222
▁mim	-6223
aving	-6224
iders	-6225
power	-6226
pring	-6227
▁Budd	-6228
▁Bush	-6229
▁prem	-6230
▁till	-6231
arency	-6232
▁liver	-6233
▁orbit	-6234
▁units	-6235
▁yield	-6236
erences	-6237
▁Ethiop	-6238
▁Island	-6239
▁behave	-6240
▁candid	-6241
▁geomet	-6242
▁hearts	-6243
▁hunger	-6244
▁lovely	-6245
▁rescue	-6246
▁writer	-6247
▁awesome	-6248
▁concert	-6249
▁divided	-6250
▁habitat	-6251
▁whereas	-6252
▁disorder	-6253
▁laughing	-6254
▁reaching	-6255
▁shoulder	-6256
▁Microsoft	-6257
▁chocolate	-6258
▁committed	-6259
▁exploring	-6260
▁furniture	-6261
▁interacting	-6262
7.	-6263
gic	-6264
iang	-6265
quar	-6266
uous	-6267
▁Nat	-6268
aming	-6269
earch	-6270
▁axis	-6271
▁plot	-6272
▁ther	-6273
▁ugly	-6274
▁Democ	-6275
▁Haiti	-6276
▁delic	-6277
▁persu	-6278
▁usual	-6279
related	-6280
through	-6281
▁repair	-6282
▁scream	-6283
▁spoken	-6284
▁dioxide	-6285
▁muscles	-6286
▁breaking	-6287
▁diabetes	-6288
▁estimate	-6289
▁involves	-6290
▁magnetic	-6291
▁recovery	-6292
▁treating	-6293
▁curiosity	-6294
▁customers	-6295
▁paintings	-6296
▁recognized	-6297
▁manufacture	-6298
St	-6299
azz	-6300
ris	-6301
▁22	-6302
▁Hi	-6303
▁Us	-6304
ener	-6305
hatt	-6306
osen	-6307
▁Jes	-6308
▁Jim	-6309
▁gla	-6310
▁shr	-6311
iated	-6312
inals	-6313
think	-6314
▁pace	-6315
▁rush	-6316
▁sacr	-6317
hattan	-6318
▁brown	-6319
▁chest	-6320
▁flash	-6321
▁plays	-6322
▁pyram	-6323
▁toler	-6324
▁Global	-6325
▁signed	-6326
▁aspects	-6327
▁balloon	-6328
▁ceiling	-6329
▁concern	-6330
▁finance	-6331
▁opposed	-6332
▁section	-6333
▁Stanford	-6334
▁achieved	-6335
▁shooting	-6336
▁Manhattan	-6337
▁virtually	-6338
▁controvers	-6339
▁productivity	-6340
fl	-6341
Let	-6342
han	-6343
ida	-6344
org	-6345
rey	-6346
vas	-6347
▁Ox	-6348
▁Ug	-6349
doll	-6350
exas	-6351
pass	-6352
▁Eve	-6353
▁Spe	-6354
▁tag	-6355
agger	-6356
cence	-6357
under	-6358
▁Cons	-6359
▁corn	-6360
▁mold	-6361
▁pink	-6362
orking	-6363
▁White	-6364
▁likes	-6365
▁maxim	-6366
▁purch	-6367
▁sheep	-6368
▁tired	-6369
▁wings	-6370
▁adjust	-6371
▁agenda	-6372
▁assemb	-6373
▁eradic	-6374
▁escape	-6375
▁portra	-6376
▁bicycle	-6377
▁cheaper	-6378
▁dignity	-6379
▁monitor	-6380
▁rebuild	-6381
▁scratch	-6382
▁wanting	-6383
▁Africans	-6384
▁Narrator	-6385
▁embedded	-6386
▁reported	-6387
▁sandwich	-6388
▁animation	-6389
▁colleague	-6390
▁conflicts	-6391
▁privilege	-6392
▁incentives	-6393
▁disappeared	-6394
Be	-6395
anz	-6396
nes	-6397
oir	-6398
iday	-6399
lete	-6400
zees	-6401
▁Mad	-6402
▁Pre	-6403
▁beg	-6404
▁gig	-6405
▁tro	-6406
class	-6407
level	-6408
▁cute	-6409
▁pref	-6410
phones	-6411
▁Grand	-6412
▁Texas	-6413
▁aside	-6414
▁meter	-6415
▁vital	-6416
▁conven	-6417
▁devast	-6418
▁frozen	-6419
▁hardly	-6420
▁heroes	-6421
▁ignore	-6422
▁ladies	-6423
▁legisl	-6424
▁abandon	-6425
▁authent	-6426
▁disgust	-6427
▁diverse	-6428
▁orchest	-6429
▁removed	-6430
▁accepted	-6431
▁produces	-6432
▁vertical	-6433
▁apartment	-6434
▁backwards	-6435
▁generated	-6436
▁insurance	-6437
▁engagement	-6438
▁volunteers	-6439
▁grandfather	-6440
▁neighborhoods	-6441
hen	-6442
nic	-6443
ras	-6444
▁Po	-6445
phas	-6446
tery	-6447
▁9/1	-6448
▁Bob	-6449
▁bon	-6450
▁enh	-6451
▁lin	-6452
▁nit	-6453
going	-6454
iment	-6455
leton	-6456
oster	-6457
▁boom	-6458
▁cens	-6459
▁Super	-6460
▁Woman	-6461
▁adopt	-6462
▁alien	-6463
▁champ	-6464
▁elder	-6465
▁judge	-6466
▁legit	-6467
▁reput	-6468
▁shake	-6469
▁traum	-6470
century	-6471
uration	-6472
▁50,000	-6473
▁Indeed	-6474
▁defend	-6475
▁legacy	-6476
▁scales	-6477
▁Nations	-6478
▁unbelie	-6479
▁captured	-6480
▁darkness	-6481
▁dolphins	-6482
▁football	-6483
▁meetings	-6484
▁northern	-6485
▁organize	-6486
▁stations	-6487
▁continues	-6488
▁dedicated	-6489
▁reduction	-6490
▁telescope	-6491
▁functional	-6492
▁rainforest	-6493
▁strategies	-6494
▁International	-6495
AR	-6496
ua	-6497
arp	-6498
aws	-6499
▁Op	-6500
fall	-6501
▁Boy	-6502
▁Del	-6503
▁Dis	-6504
▁Ice	-6505
▁Sov	-6506
▁cup	-6507
andem	-6508
archy	-6509
▁bubb	-6510
▁flip	-6511
lessly	-6512
▁Space	-6513
▁drove	-6514
▁imper	-6515
forward	-6516
▁actors	-6517
▁chosen	-6518
▁crying	-6519
▁expans	-6520
▁hungry	-6521
▁missed	-6522
▁powers	-6523
▁punish	-6524
▁shadow	-6525
▁silent	-6526
▁charity	-6527
▁exposed	-6528
▁instant	-6529
▁suspect	-6530
▁equality	-6531
▁globally	-6532
▁laughter	-6533
▁theories	-6534
▁algorithm	-6535
▁accessible	-6536
▁collecting	-6537
▁contribute	-6538
▁earthquake	-6539
▁governance	-6540
▁motivation	-6541
▁optimistic	-6542
▁advertising	-6543
▁universities	-6544
3.	-6545
ka	-6546
hib	-6547
pox	-6548
▁$1	-6549
▁PM	-6550
part	-6551
thal	-6552
▁Lar	-6553
▁Ten	-6554
▁aim	-6555
▁bat	-6556
▁meg	-6557
There	-6558
state	-6559
▁Sing	-6560
▁east	-6561
▁fulf	-6562
▁infl	-6563
ptions	-6564
usions	-6565
▁Never	-6566
▁angle	-6567
▁finds	-6568
▁march	-6569
▁paras	-6570
▁route	-6571
▁skull	-6572
anthrop	-6573
unclear	-6574
▁20,000	-6575
▁attrib	-6576
▁evolve	-6577
▁oldest	-6578
▁patent	-6579
▁satisf	-6580
▁talent	-6581
▁weapon	-6582
children	-6583
▁amongst	-6584
▁distant	-6585
▁efforts	-6586
▁initial	-6587
▁touched	-6588
▁provides	-6589
▁Christian	-6590
▁encounter	-6591
▁mechanics	-6592
▁searching	-6593
▁historical	-6594
▁microscope	-6595
▁resolution	-6596
▁probability	-6597
▁neuroscience	-6598
ek	-6599
asy	-6600
▁65	-6601
icop	-6602
ulse	-6603
▁Fre	-6604
▁Net	-6605
▁Pat	-6606
▁Sea	-6607
▁hol	-6608
▁unp	-6609
▁wip	-6610
ckets	-6611
▁1990	-6612
▁High	-6613
▁Next	-6614
▁Step	-6615
▁Stud	-6616
▁beer	-6617
▁carr	-6618
▁dust	-6619
▁leap	-6620
▁limb	-6621
▁quad	-6622
dollar	-6623
ietnam	-6624
yright	-6625
▁Voice	-6626
▁blank	-6627
▁fluid	-6628
▁fruit	-6629
▁schol	-6630
▁seeds	-6631
▁tears	-6632
▁youth	-6633
▁Palest	-6634
▁Really	-6635
▁Uganda	-6636
▁barely	-6637
▁borrow	-6638
▁facial	-6639
▁invite	-6640
▁locked	-6641
▁neuron	-6642
▁smooth	-6643
▁essence	-6644
▁herself	-6645
▁letting	-6646
▁suicide	-6647
▁Atlantic	-6648
▁controls	-6649
▁minister	-6650
▁elsewhere	-6651
▁apparently	-6652
▁boundaries	-6653
▁simplicity	-6654
▁transplant	-6655
▁electronics	-6656
▁ingredients	-6657
▁transparent	-6658
-1	-6659
6.	-6660
ari	-6661
cut	-6662
nov	-6663
omb	-6664
ura	-6665
▁27	-6666
▁Bu	-6667
▁id	-6668
ardo	-6669
case	-6670
ocin	-6671
▁Tal	-6672
▁der	-6673
▁gon	-6674
▁jun	-6675
▁lob	-6676
▁obl	-6677
▁pra	-6678
▁wet	-6679
orter	-6680
▁ages	-6681
▁boss	-6682
▁dump	-6683
▁prev	-6684
▁rely	-6685
▁abund	-6686
▁drill	-6687
▁fifth	-6688
▁minor	-6689
▁reefs	-6690
▁utter	-6691
▁views	-6692
▁wound	-6693
astroph	-6694
itution	-6695
▁Jewish	-6696
▁heaven	-6697
▁margin	-6698
▁rating	-6699
▁trends	-6700
▁William	-6701
▁tragedy	-6702
▁aircraft	-6703
▁contains	-6704
▁criminal	-6705
▁pregnant	-6706
▁symmetry	-6707
▁intention	-6708
▁innovations	-6709
▁underground	-6710
▁communications	-6711
li	-6712
bra	-6713
cel	-6714
ixt	-6715
▁Jo	-6716
▁na	-6717
ding	-6718
oral	-6719
rimp	-6720
utch	-6721
▁Fin	-6722
▁MRI	-6723
▁fib	-6724
quare	-6725
▁Girl	-6726
▁Jeff	-6727
▁glad	-6728
▁hire	-6729
▁lock	-6730
ivered	-6731
▁Black	-6732
▁balls	-6733
▁conce	-6734
▁dirty	-6735
▁laser	-6736
▁links	-6737
▁realm	-6738
▁fertil	-6739
▁intent	-6740
▁layers	-6741
▁orange	-6742
▁paraly	-6743
▁poison	-6744
▁retire	-6745
▁stages	-6746
▁Vietnam	-6747
▁airport	-6748
▁beliefs	-6749
▁delight	-6750
▁methods	-6751
▁pointed	-6752
▁symbols	-6753
▁visited	-6754
▁dominant	-6755
▁surfaces	-6756
▁uncomfort	-6757
▁afterwards	-6758
▁mechanisms	-6759
▁transparency	-6760
9.	-6761
So	-6762
oma	-6763
rol	-6764
war	-6765
irds	-6766
oust	-6767
rant	-6768
rons	-6769
zens	-6770
▁Les	-6771
▁Vir	-6772
▁hat	-6773
▁ric	-6774
itate	-6775
▁1960	-6776
▁1980	-6777
▁Back	-6778
▁bias	-6779
▁dive	-6780
▁eleg	-6781
▁lift	-6782
▁mail	-6783
▁toys	-6784
▁Bible	-6785
▁Italy	-6786
▁crops	-6787
▁diver	-6788
▁evalu	-6789
▁pilot	-6790
▁seats	-6791
▁stops	-6792
▁thumb	-6793
▁yours	-6794
igation	-6795
▁Martin	-6796
▁absorb	-6797
▁adding	-6798
▁athlet	-6799
▁capita	-6800
▁commod	-6801
▁stable	-6802
▁consume	-6803
▁crucial	-6804
▁diagram	-6805
▁granted	-6806
▁inspire	-6807
▁speaker	-6808
▁database	-6809
▁external	-6810
▁lighting	-6811
▁passwords	-6812
▁catastroph	-6813
▁terrorists	-6814
def	-6815
ione	-6816
oded	-6817
phor	-6818
▁195	-6819
▁Bon	-6820
▁Hey	-6821
▁Mac	-6822
▁gro	-6823
▁twe	-6824
inder	-6825
tocin	-6826
▁1970	-6827
▁Arch	-6828
▁Flor	-6829
▁Mary	-6830
▁earn	-6831
▁hier	-6832
▁trop	-6833
▁vacu	-6834
arents	-6835
othing	-6836
▁Smith	-6837
▁genoc	-6838
▁recru	-6839
section	-6840
viously	-6841
▁Oxford	-6842
▁emphas	-6843
▁farmer	-6844
▁genius	-6845
▁output	-6846
▁poster	-6847
▁waters	-6848
▁disrupt	-6849
▁ethical	-6850
▁passing	-6851
▁pulling	-6852
▁smoking	-6853
▁isolated	-6854
▁textbook	-6855
▁Hollywood	-6856
▁announced	-6857
▁calculate	-6858
▁delivered	-6859
▁depressed	-6860
▁intuitive	-6861
▁musicians	-6862
▁strangers	-6863
▁affordable	-6864
▁capability	-6865
▁journalist	-6866
▁suggesting	-6867
▁chimpanzees	-6868
▁demonstrate	-6869
▁spectacular	-6870
aj	-6871
uk	-6872
▁x	-6873
ams	-6874
bul	-6875
iac	-6876
▁BF	-6877
▁Ok	-6878
bits	-6879
ideo	-6880
west	-6881
▁Pan	-6882
▁aer	-6883
▁cab	-6884
Where	-6885
alian	-6886
izoph	-6887
▁Turn	-6888
▁clim	-6889
▁neat	-6890
▁nets	-6891
▁peer	-6892
▁pile	-6893
▁tuna	-6894
▁wing	-6895
▁Child	-6896
▁chief	-6897
▁drawn	-6898
▁edges	-6899
▁monit	-6900
▁relax	-6901
▁upset	-6902
▁degrad	-6903
▁extrem	-6904
▁neural	-6905
▁pandem	-6906
▁richer	-6907
▁shrimp	-6908
▁Eastern	-6909
▁General	-6910
▁Whether	-6911
▁circles	-6912
▁happier	-6913
▁origami	-6914
▁category	-6915
▁district	-6916
▁speakers	-6917
▁accidents	-6918
▁elections	-6919
▁inspiring	-6920
▁integrated	-6921
▁treatments	-6922
▁breakthrough	-6923
▁participants	-6924
▁uncomfortable	-6925
Ch	-6926
rid	-6927
uba	-6928
▁SS	-6929
fess	-6930
osal	-6931
▁10-	-6932
▁Oct	-6933
▁ink	-6934
▁spr	-6935
▁unh	-6936
▁wid	-6937
aches	-6938
cohol	-6939
eller	-6940
osure	-6941
▁Mand	-6942
▁Wall	-6943
▁bars	-6944
▁bask	-6945
▁debt	-6946
▁quit	-6947
▁soap	-6948
heimer	-6949
iology	-6950
mingly	-6951
▁Cambr	-6952
▁Ocean	-6953
▁banks	-6954
▁chrom	-6955
▁lungs	-6956
▁manif	-6957
▁sheet	-6958
▁veter	-6959
isphere	-6960
ogether	-6961
▁Rwanda	-6962
▁dozens	-6963
▁emerge	-6964
▁origin	-6965
▁perpet	-6966
▁regret	-6967
▁tricks	-6968
▁anthrop	-6969
▁chapter	-6970
▁consult	-6971
▁defense	-6972
▁disturb	-6973
▁helicop	-6974
▁parties	-6975
▁reduced	-6976
▁traject	-6977
▁conclude	-6978
▁dynamics	-6979
▁includes	-6980
▁dependent	-6981
▁separated	-6982
▁variation	-6983
▁biologists	-6984
▁protecting	-6985
▁reputation	-6986
▁ridiculous	-6987
▁photography	-6988
▁predictions	-6989
▁agricultural	-6990
▁characteristics	-6991
bed	-6992
lyn	-6993
▁32	-6994
Talk	-6995
atom	-6996
fold	-6997
onds	-6998
▁Bel	-6999
▁Bur	-7000
▁Rio	-7001
▁Ven	-7002
▁Was	-7003
amine	-7004
ested	-7005
opher	-7006
▁Pole	-7007
▁laid	-7008
▁rail	-7009
utical	-7010
▁aesth	-7011
▁blame	-7012
▁fuels	-7013
▁jelly	-7014
▁spark	-7015
▁spots	-7016
▁Design	-7017
▁Soviet	-7018
▁integr	-7019
▁observ	-7020
▁settle	-7021
▁tribes	-7022
▁Florida	-7023
▁anxiety	-7024
▁briefly	-7025
▁federal	-7026
▁impacts	-7027
▁painted	-7028
▁picking	-7029
▁prosper	-7030
▁reports	-7031
▁revenue	-7032
▁session	-7033
▁Children	-7034
▁Ethiopia	-7035
▁agencies	-7036
▁returned	-7037
▁unlikely	-7038
▁ignorance	-7039
▁physicist	-7040
▁synthetic	-7041
▁teenagers	-7042
▁determined	-7043
▁dictionary	-7044
▁ecosystems	-7045
▁identified	-7046
▁consequence	-7047
▁improvement	-7048
▁intervention	-7049
▁photographer	-7050
obs	-7051
▁2,	-7052
▁gh	-7053
onic	-7054
enger	-7055
oding	-7056
ribly	-7057
▁Gand	-7058
▁adap	-7059
▁enth	-7060
▁kiss	-7061
▁knee	-7062
▁mate	-7063
▁tied	-7064
iatric	-7065
▁Carol	-7066
▁Peter	-7067
▁apple	-7068
▁cliff	-7069
▁cryst	-7070
▁digit	-7071
▁disag	-7072
▁opens	-7073
▁strip	-7074
▁unpre	-7075
▁branch	-7076
▁landed	-7077
▁robust	-7078
▁stores	-7079
▁triang	-7080
▁trucks	-7081
izophren	-7082
▁TEDTalk	-7083
▁recover	-7084
▁welcome	-7085
▁wheelch	-7086
aceutical	-7087
▁Research	-7088
▁bathroom	-7089
▁incident	-7090
▁reminded	-7091
▁repeated	-7092
▁smallpox	-7093
▁southern	-7094
▁Obviously	-7095
▁dimension	-7096
▁Department	-7097
▁originally	-7098
▁constructed	-7099
▁experimental	-7100
▁globalization	-7101
hal	-7102
iel	-7103
raw	-7104
atts	-7105
icks	-7106
ober	-7107
rich	-7108
▁Alz	-7109
▁Bay	-7110
▁Lab	-7111
▁Mod	-7112
▁Que	-7113
▁Sur	-7114
▁Wal	-7115
▁bio	-7116
▁lon	-7117
▁lux	-7118
capes	-7119
isted	-7120
obile	-7121
▁Dere	-7122
▁Long	-7123
▁Time	-7124
▁beet	-7125
▁brib	-7126
▁caps	-7127
▁mall	-7128
▁rent	-7129
▁wise	-7130
erving	-7131
▁Antar	-7132
▁Prize	-7133
▁River	-7134
▁Third	-7135
▁Video	-7136
▁actor	-7137
▁brave	-7138
▁chaos	-7139
▁doors	-7140
▁fiber	-7141
▁glaci	-7142
▁naked	-7143
▁nucle	-7144
▁proof	-7145
▁threw	-7146
▁ultra	-7147
ughters	-7148
▁Arabic	-7149
▁adoles	-7150
▁agency	-7151
▁inches	-7152
▁injury	-7153
▁linear	-7154
▁nurses	-7155
▁pushed	-7156
▁rarely	-7157
▁simult	-7158
▁vacuum	-7159
fficient	-7160
▁October	-7161
▁alcohol	-7162
▁citizen	-7163
▁clients	-7164
▁hanging	-7165
▁pyramid	-7166
▁sensory	-7167
▁crossing	-7168
▁facility	-7169
▁oxytocin	-7170
▁Alzheimer	-7171
▁copyright	-7172
▁positions	-7173
▁predicted	-7174
▁primarily	-7175
▁sentences	-7176
▁underlying	-7177
▁assumptions	-7178
▁discoveries	-7179
DA	-7180
Can	-7181
hes	-7182
▁95	-7183
▁Os	-7184
ache	-7185
emen	-7186
pond	-7187
rome	-7188
zero	-7189
▁700	-7190
▁Syr	-7191
▁sle	-7192
▁spa	-7193
▁wra	-7194
opard	-7195
tical	-7196
▁Beij	-7197
▁Star	-7198
▁fool	-7199
▁mode	-7200
▁salt	-7201
▁stom	-7202
▁sulf	-7203
icious	-7204
▁arrow	-7205
▁begun	-7206
▁court	-7207
▁fract	-7208
▁holds	-7209
▁punch	-7210
attered	-7211
▁Saturn	-7212
▁Virgin	-7213
▁caring	-7214
▁fought	-7215
▁reveal	-7216
▁sticks	-7217
▁thresh	-7218
▁bubbles	-7219
▁comprom	-7220
▁drivers	-7221
▁farming	-7222
▁hackers	-7223
▁shelter	-7224
▁targets	-7225
▁artistic	-7226
▁dinosaur	-7227
▁extended	-7228
▁figuring	-7229
▁inherent	-7230
▁shopping	-7231
▁expanding	-7232
▁inevitable	-7233
▁translated	-7234
▁schizophren	-7235
▁grandchildren	-7236
BI	-7237
tw	-7238
bru	-7239
che	-7240
erd	-7241
hum	-7242
opy	-7243
ugg	-7244
aran	-7245
born	-7246
izar	-7247
onia	-7248
urse	-7249
▁120	-7250
▁191	-7251
▁Cor	-7252
▁hip	-7253
▁Give	-7254
▁clar	-7255
▁meal	-7256
▁pupp	-7257
▁sits	-7258
makers	-7259
market	-7260
mented	-7261
▁burst	-7262
▁exped	-7263
▁gases	-7264
▁gonna	-7265
▁owner	-7266
▁reson	-7267
▁Nature	-7268
▁chairs	-7269
▁panels	-7270
▁partly	-7271
▁sacred	-7272
▁scores	-7273
▁volcan	-7274
American	-7275
▁chromos	-7276
▁elderly	-7277
▁emerged	-7278
▁involve	-7279
▁answered	-7280
▁attitude	-7281
▁focusing	-7282
▁throwing	-7283
▁frequency	-7284
▁objective	-7285
▁primitive	-7286
▁consistent	-7287
▁permission	-7288
▁observation	-7289
MA	-7290
MS	-7291
And	-7292
ali	-7293
auc	-7294
ena	-7295
err	-7296
lar	-7297
apor	-7298
free	-7299
half	-7300
illa	-7301
liam	-7302
ulum	-7303
▁'60	-7304
▁CEO	-7305
▁Ken	-7306
▁Mah	-7307
▁sav	-7308
ffect	-7309
gency	-7310
ocent	-7311
riger	-7312
▁acid	-7313
▁dear	-7314
▁hill	-7315
▁rice	-7316
▁sink	-7317
itudes	-7318
▁4,000	-7319
▁array	-7320
▁flour	-7321
▁sharp	-7322
▁stunt	-7323
athered	-7324
▁Things	-7325
▁barrel	-7326
▁ensure	-7327
▁pursue	-7328
▁regime	-7329
▁sensor	-7330
▁served	-7331
▁subtle	-7332
▁Through	-7333
▁graphic	-7334
▁helpful	-7335
▁imagery	-7336
▁magical	-7337
▁promote	-7338
▁sisters	-7339
▁smarter	-7340
▁writers	-7341
▁flexible	-7342
▁measures	-7343
▁proposed	-7344
▁sleeping	-7345
▁abilities	-7346
▁confident	-7347
▁diagnosed	-7348
▁documents	-7349
▁expansion	-7350
▁forgotten	-7351
▁highlight	-7352
▁suggested	-7353
▁autonomous	-7354
▁difficulty	-7355
▁disappoint	-7356
▁mysterious	-7357
▁operations	-7358
▁resilience	-7359
▁satellites	-7360
▁philanthrop	-7361
▁collaborative	-7362
▁participation	-7363
"]	-7364
EC	-7365
ET	-7366
cap	-7367
▁26	-7368
eart	-7369
iens	-7370
izer	-7371
▁Acc	-7372
▁Det	-7373
▁Hel	-7374
▁Ser	-7375
▁Six	-7376
▁cas	-7377
▁hey	-7378
▁mur	-7379
allow	-7380
anned	-7381
atrix	-7382
inson	-7383
▁Blue	-7384
▁Cont	-7385
▁Sund	-7386
▁cott	-7387
▁defe	-7388
▁plug	-7389
▁tear	-7390
▁whis	-7391
erable	-7392
izarre	-7393
soever	-7394
▁Titan	-7395
▁audio	-7396
▁bucks	-7397
▁elite	-7398
▁joint	-7399
▁pione	-7400
▁plain	-7401
▁roots	-7402
▁skept	-7403
▁tribe	-7404
▁Within	-7405
▁assess	-7406
▁buried	-7407
▁curren	-7408
▁merely	-7409
▁needle	-7410
▁transm	-7411
▁victim	-7412
▁Russian	-7413
▁analyze	-7414
▁enterpr	-7415
▁failing	-7416
▁hitting	-7417
▁immense	-7418
▁liberal	-7419
▁millenn	-7420
▁Somebody	-7421
▁baseball	-7422
▁colonies	-7423
▁dialogue	-7424
▁keyboard	-7425
▁openness	-7426
▁refriger	-7427
▁elephants	-7428
▁gathering	-7429
▁immediate	-7430
▁radically	-7431
▁supported	-7432
▁additional	-7433
▁struggling	-7434
▁whatsoever	-7435
▁astonishing	-7436
▁programming	-7437
▁biodiversity	-7438
▁photographed	-7439
hh	-7440
elf	-7441
oli	-7442
ora	-7443
▁KB	-7444
When	-7445
iban	-7446
oran	-7447
▁Put	-7448
▁Som	-7449
▁gee	-7450
▁ham	-7451
itous	-7452
mates	-7453
ville	-7454
worth	-7455
▁Move	-7456
▁Play	-7457
▁duck	-7458
▁grat	-7459
▁lamp	-7460
▁mood	-7461
▁phos	-7462
▁tone	-7463
bruary	-7464
esthes	-7465
semble	-7466
▁Brown	-7467
▁Gates	-7468
▁agent	-7469
▁chron	-7470
▁craft	-7471
▁flows	-7472
▁silly	-7473
▁spell	-7474
liament	-7475
unction	-7476
▁arrive	-7477
▁domain	-7478
▁ending	-7479
▁lawyer	-7480
▁shaped	-7481
▁theore	-7482
▁convert	-7483
▁deliber	-7484
▁dolphin	-7485
▁founded	-7486
▁routine	-7487
▁selfish	-7488
▁shocked	-7489
▁slavery	-7490
▁soldier	-7491
▁February	-7492
▁climbing	-7493
▁fabulous	-7494
▁fraction	-7495
▁genocide	-7496
▁leverage	-7497
▁refugees	-7498
▁Cambridge	-7499
▁completed	-7500
▁daughters	-7501
▁exception	-7502
▁expectancy	-7503
▁explaining	-7504
▁industries	-7505
▁wheelchair	-7506
▁instructions	-7507
▁successfully	-7508
▁demonstration	-7509
▁interestingly	-7510
fe	-7511
va	-7512
ala	-7513
udi	-7514
▁0.	-7515
▁3.	-7516
abil	-7517
agos	-7518
conf	-7519
eday	-7520
enly	-7521
yard	-7522
▁Aug	-7523
▁Isn	-7524
▁LED	-7525
▁Mor	-7526
▁Out	-7527
▁Sar	-7528
▁aqu	-7529
▁cig	-7530
▁lit	-7531
copes	-7532
ifice	-7533
▁Tell	-7534
▁butt	-7535
▁cats	-7536
▁cert	-7537
▁craw	-7538
▁publ	-7539
▁tech	-7540
▁tort	-7541
engine	-7542
oosing	-7543
▁Derek	-7544
▁Greek	-7545
▁Jesus	-7546
▁Scott	-7547
▁cable	-7548
▁owned	-7549
▁wider	-7550
embered	-7551
▁Norway	-7552
▁basket	-7553
▁compos	-7554
▁curric	-7555
▁funded	-7556
▁intrig	-7557
▁skelet	-7558
▁surviv	-7559
interest	-7560
▁bizarre	-7561
▁methane	-7562
▁prepare	-7563
▁refugee	-7564
▁warning	-7565
▁washing	-7566
▁confused	-7567
▁informed	-7568
▁invested	-7569
▁manifest	-7570
▁perceive	-7571
▁skeleton	-7572
▁strongly	-7573
▁suffered	-7574
▁accomplish	-7575
▁correspond	-7576
▁hypothesis	-7577
▁proportion	-7578
▁description	-7579
▁translation	-7580
▁capabilities	-7581
▁surprisingly	-7582
▁unbelievable	-7583
▁architectural	-7584
▁representation	-7585
ya	-7586
Wow	-7587
aze	-7588
eda	-7589
hop	-7590
mod	-7591
rit	-7592
sey	-7593
▁MT	-7594
▁Ty	-7595
▁ub	-7596
ason	-7597
play	-7598
uity	-7599
umes	-7600
▁'70	-7601
▁'90	-7602
▁800	-7603
▁Joe	-7604
▁Lou	-7605
▁Mom	-7606
▁ain	-7607
▁dim	-7608
▁sew	-7609
ician	-7610
stage	-7611
▁Bron	-7612
▁Comp	-7613
▁Coun	-7614
▁Dece	-7615
▁cham	-7616
▁leaf	-7617
▁tong	-7618
encing	-7619
fessor	-7620
▁Organ	-7621
▁advoc	-7622
▁bears	-7623
▁mixed	-7624
▁nerve	-7625
▁nurse	-7626
▁stake	-7627
▁tempt	-7628
▁trash	-7629
▁weeke	-7630
parents	-7631
▁Arctic	-7632
▁Should	-7633
▁breaks	-7634
▁cheese	-7635
▁correl	-7636
▁decent	-7637
▁garage	-7638
▁golden	-7639
▁rivers	-7640
▁stroke	-7641
▁tumors	-7642
▁tunnel	-7643
▁Islands	-7644
▁adopted	-7645
▁elected	-7646
▁fragile	-7647
▁lawyers	-7648
▁miracle	-7649
▁synthes	-7650
▁threats	-7651
istically	-7652
▁December	-7653
▁cartoons	-7654
▁choosing	-7655
▁educated	-7656
▁entering	-7657
▁homework	-7658
▁neurolog	-7659
▁stranger	-7660
▁fortunate	-7661
▁infection	-7662
▁nutrition	-7663
▁attractive	-7664
▁hemisphere	-7665
▁simulation	-7666
▁uncertainty	-7667
▁pharmaceutical	-7668
LA	-7669
OK	-7670
sc	-7671
sp	-7672
sun	-7673
yal	-7674
▁AB	-7675
▁Up	-7676
pled	-7677
road	-7678
viol	-7679
▁Unt	-7680
▁boo	-7681
clock	-7682
stone	-7683
▁Gore	-7684
▁Miss	-7685
▁None	-7686
▁Span	-7687
▁brut	-7688
▁dumb	-7689
▁neck	-7690
▁orph	-7691
▁rats	-7692
▁suck	-7693
friend	-7694
mental	-7695
rained	-7696
▁bored	-7697
▁membr	-7698
▁ships	-7699
▁shout	-7700
▁squee	-7701
▁wired	-7702
otherap	-7703
▁Turkey	-7704
▁killer	-7705
▁tackle	-7706
▁Beijing	-7707
▁Taliban	-7708
▁affects	-7709
▁closing	-7710
▁fastest	-7711
▁persist	-7712
▁restore	-7713
▁distingu	-7714
▁judgment	-7715
▁restrict	-7716
▁adventure	-7717
▁expecting	-7718
▁gradually	-7719
▁intuition	-7720
▁magnitude	-7721
▁microbial	-7722
▁paralyzed	-7723
▁physician	-7724
▁realizing	-7725
▁replicate	-7726
▁terrorist	-7727
▁compelling	-7728
▁remembered	-7729
▁authorities	-7730
▁competitive	-7731
▁genetically	-7732
▁experiencing	-7733
BM	-7734
He	-7735
].	-7736
Who	-7737
ela	-7738
kin	-7739
sch	-7740
fast	-7741
kins	-7742
yrus	-7743
▁Lib	-7744
▁Moo	-7745
▁Nic	-7746
▁Wow	-7747
▁sin	-7748
▁upd	-7749
ading	-7750
flies	-7751
gence	-7752
maker	-7753
ostic	-7754
▁cake	-7755
▁cong	-7756
▁cous	-7757
▁dism	-7758
▁pale	-7759
aching	-7760
atever	-7761
urable	-7762
▁foods	-7763
▁pride	-7764
▁schem	-7765
▁shots	-7766
▁spray	-7767
▁tooth	-7768
angible	-7769
working	-7770
▁August	-7771
▁Church	-7772
▁Mother	-7773
▁addict	-7774
▁enthus	-7775
▁headed	-7776
▁jumped	-7777
▁mining	-7778
▁negoti	-7779
▁occurs	-7780
▁senior	-7781
▁unable	-7782
▁widely	-7783
▁beneath	-7784
▁besides	-7785
▁chances	-7786
▁charges	-7787
▁demands	-7788
▁deserve	-7789
▁enables	-7790
▁fortune	-7791
▁imaging	-7792
▁leather	-7793
▁staying	-7794
▁winning	-7795
▁articles	-7796
▁covering	-7797
▁homeless	-7798
▁improved	-7799
▁included	-7800
▁innocent	-7801
▁initially	-7802
▁remaining	-7803
▁threshold	-7804
▁profoundly	-7805
▁traditions	-7806
▁trajectory	-7807
▁exponential	-7808
▁institutional	-7809
▁professionals	-7810
Sah	-7811
ati	-7812
bar	-7813
ctu	-7814
des	-7815
enh	-7816
ague	-7817
four	-7818
ship	-7819
xual	-7820
▁Sou	-7821
▁Ver	-7822
▁bug	-7823
▁lap	-7824
adays	-7825
anged	-7826
field	-7827
iogen	-7828
opath	-7829
oples	-7830
otted	-7831
umble	-7832
▁alph	-7833
▁deli	-7834
▁dile	-7835
▁gaps	-7836
▁gods	-7837
▁lean	-7838
▁nurt	-7839
active	-7840
edding	-7841
icient	-7842
iences	-7843
▁Bronx	-7844
▁Brook	-7845
▁chips	-7846
▁civic	-7847
▁drone	-7848
▁marry	-7849
▁pairs	-7850
▁shore	-7851
▁spont	-7852
▁steal	-7853
▁valid	-7854
ounding	-7855
▁burned	-7856
▁errors	-7857
▁metric	-7858
▁shrink	-7859
▁tracks	-7860
cedented	-7861
▁Without	-7862
▁distort	-7863
▁footage	-7864
▁observe	-7865
▁peoples	-7866
▁printer	-7867
▁secrets	-7868
▁Minister	-7869
▁comments	-7870
▁detailed	-7871
▁musician	-7872
▁pandemic	-7873
▁preserve	-7874
▁scenario	-7875
▁survived	-7876
▁tendency	-7877
▁qualities	-7878
▁reactions	-7879
▁substance	-7880
▁approaches	-7881
▁assumption	-7882
▁curriculum	-7883
▁facilities	-7884
▁influenced	-7885
▁physicists	-7886
▁vulnerability	-7887
aa	-7888
gu	-7889
lim	-7890
▁85	-7891
▁rh	-7892
aded	-7893
agen	-7894
erer	-7895
ifer	-7896
kind	-7897
ownt	-7898
ropy	-7899
▁'80	-7900
▁20,	-7901
▁Mag	-7902
▁Tes	-7903
▁cub	-7904
▁dop	-7905
▁nom	-7906
gines	-7907
lings	-7908
▁Brun	-7909
▁Camp	-7910
▁Hill	-7911
▁Homo	-7912
▁Leon	-7913
▁asks	-7914
▁frog	-7915
▁lone	-7916
▁odds	-7917
▁pigs	-7918
▁soup	-7919
▁susp	-7920
▁tsun	-7921
▁urge	-7922
▁woke	-7923
employ	-7924
▁Trans	-7925
▁brows	-7926
▁dilem	-7927
▁outer	-7928
▁queen	-7929
▁rehab	-7930
▁spons	-7931
inarily	-7932
▁Square	-7933
▁aggreg	-7934
▁convey	-7935
▁formal	-7936
▁engines	-7937
▁forming	-7938
▁mindset	-7939
▁portion	-7940
▁profile	-7941
▁uniform	-7942
▁channels	-7943
▁clothing	-7944
▁distract	-7945
▁gathered	-7946
▁insights	-7947
▁optimism	-7948
▁socially	-7949
▁substant	-7950
▁conducted	-7951
▁factories	-7952
▁glamorous	-7953
▁instantly	-7954
▁investing	-7955
▁nutrients	-7956
▁aggressive	-7957
▁comparison	-7958
▁frustrated	-7959
▁significantly	-7960
▁unprecedented	-7961
▁interpretation	-7962
▁simultaneously	-7963
aby	-7964
ini	-7965
isy	-7966
▁Bo	-7967
agon	-7968
ails	-7969
ares	-7970
arsh	-7971
estr	-7972
olic	-7973
quis	-7974
▁Hen	-7975
▁Ray	-7976
irect	-7977
ivial	-7978
press	-7979
▁bell	-7980
▁coca	-7981
▁dies	-7982
▁dung	-7983
▁irre	-7984
▁lake	-7985
▁west	-7986
▁2000,	-7987
▁March	-7988
▁Power	-7989
▁cruel	-7990
▁incor	-7991
▁indig	-7992
▁kills	-7993
▁lifes	-7994
▁lions	-7995
▁tends	-7996
▁30,000	-7997
▁acoust	-7998
▁combat	-7999
▁export	-8000
▁halluc	-8001
▁rubber	-8002
▁subway	-8003
andering	-8004
otherapy	-8005
quarters	-8006
▁analogy	-8007
▁arrange	-8008
▁bottles	-8009
▁courses	-8010
▁flowing	-8011
▁garbage	-8012
▁regener	-8013
▁rolling	-8014
▁serving	-8015
▁trigger	-8016
▁wealthy	-8017
▁Northern	-8018
▁accounts	-8019
▁delivery	-8020
▁explains	-8021
▁morality	-8022
▁purposes	-8023
▁remained	-8024
▁wildlife	-8025
▁Alexander	-8026
▁anonymous	-8027
▁expertise	-8028
▁extension	-8029
▁gentleman	-8030
▁healthier	-8031
▁improving	-8032
▁obstacles	-8033
▁ownership	-8034
▁strategic	-8035
▁medication	-8036
▁structural	-8037
▁demographic	-8038
▁restaurants	-8039
▁conservative	-8040
▁contemporary	-8041
],	-8042
ani	-8043
asm	-8044
uke	-8045
▁28	-8046
▁33	-8047
▁ho	-8048
asty	-8049
atar	-8050
fram	-8051
imal	-8052
mony	-8053
uded	-8054
▁Jud	-8055
▁Sir	-8056
▁Tim	-8057
antom	-8058
athan	-8059
chron	-8060
licit	-8061
ogram	-8062
rence	-8063
▁Both	-8064
▁Eric	-8065
▁Jose	-8066
▁Mike	-8067
▁bend	-8068
▁gate	-8069
▁gear	-8070
▁iPod	-8071
▁outs	-8072
▁prec	-8073
▁2007,	-8074
▁Dutch	-8075
▁Saudi	-8076
▁Sorry	-8077
▁Spain	-8078
▁Under	-8079
▁armed	-8080
▁blogs	-8081
▁camps	-8082
▁crick	-8083
▁excit	-8084
▁fears	-8085
▁gotta	-8086
▁inhab	-8087
▁panel	-8088
▁proto	-8089
▁suspe	-8090
▁troub	-8091
▁ubiqu	-8092
Saharan	-8093
itating	-8094
looking	-8095
usiness	-8096
▁Econom	-8097
▁cosmic	-8098
▁drones	-8099
▁recept	-8100
▁ticket	-8101
▁trains	-8102
orescent	-8103
▁Council	-8104
▁contrad	-8105
▁females	-8106
▁hunting	-8107
▁located	-8108
▁printed	-8109
▁reminds	-8110
▁someday	-8111
▁Southern	-8112
▁drawings	-8113
▁friendly	-8114
▁pointing	-8115
▁reducing	-8116
▁shipping	-8117
▁versions	-8118
▁airplanes	-8119
▁interrupt	-8120
▁nonprofit	-8121
▁categories	-8122
▁classrooms	-8123
▁impression	-8124
▁supporting	-8125
▁threatened	-8126
▁established	-8127
▁compassionate	-8128
CA	-8129
.'"	-8130
bye	-8131
see	-8132
zee	-8133
▁CD	-8134
aves	-8135
cons	-8136
cost	-8137
hist	-8138
ipts	-8139
omin	-8140
ords	-8141
umin	-8142
▁Cra	-8143
▁Met	-8144
▁awk	-8145
▁gre	-8146
▁ine	-8147
asses	-8148
human	-8149
ormal	-8150
produ	-8151
usted	-8152
▁NGOs	-8153
▁crew	-8154
▁file	-8155
▁fung	-8156
▁genu	-8157
▁hors	-8158
minute	-8159
▁2009,	-8160
▁2010,	-8161
▁Charl	-8162
▁altru	-8163
▁badly	-8164
▁energ	-8165
▁intim	-8166
▁loves	-8167
▁pause	-8168
▁poems	-8169
▁sixth	-8170
▁uncle	-8171
perform	-8172
▁Howard	-8173
▁Newton	-8174
▁Scient	-8175
▁column	-8176
▁inevit	-8177
▁matrix	-8178
▁nights	-8179
▁planes	-8180
▁tongue	-8181
▁upside	-8182
▁Indians	-8183
▁Spanish	-8184
▁Whereas	-8185
▁awkward	-8186
▁cigaret	-8187
▁closest	-8188
▁despair	-8189
▁entropy	-8190
▁islands	-8191
▁officer	-8192
▁ongoing	-8193
▁rituals	-8194
▁scanner	-8195
▁Although	-8196
▁Secondly	-8197
▁Whatever	-8198
▁believes	-8199
▁connects	-8200
▁counting	-8201
▁dopamine	-8202
▁genetics	-8203
▁graphics	-8204
▁peaceful	-8205
▁redesign	-8206
▁reliable	-8207
▁stereoty	-8208
▁classical	-8209
▁detection	-8210
▁excellent	-8211
▁explosion	-8212
▁incentive	-8213
▁performed	-8214
otechnology	-8215
▁discipline	-8216
▁excitement	-8217
▁extinction	-8218
▁computation	-8219
▁occasionally	-8220
mo	-8221
ghai	-8222
neys	-8223
wind	-8224
▁Age	-8225
▁Bet	-8226
▁Den	-8227
▁Fey	-8228
▁gam	-8229
▁tie	-8230
▁tut	-8231
anges	-8232
apped	-8233
burgh	-8234
copic	-8235
ctica	-8236
inter	-8237
puter	-8238
▁Cour	-8239
▁Hall	-8240
▁Shan	-8241
▁Walk	-8242
▁bats	-8243
▁clay	-8244
▁deck	-8245
▁gram	-8246
▁guns	-8247
▁nerd	-8248
▁subt	-8249
phorus	-8250
rowing	-8251
▁2008,	-8252
▁Asian	-8253
▁Delhi	-8254
▁Eight	-8255
▁Hello	-8256
▁Moore	-8257
▁Peace	-8258
▁devil	-8259
▁incom	-8260
▁items	-8261
▁opera	-8262
▁overl	-8263
▁tower	-8264
itative	-8265
▁Govern	-8266
▁annual	-8267
▁canopy	-8268
▁client	-8269
▁comedy	-8270
▁lowest	-8271
▁luxury	-8272
▁nearby	-8273
▁orient	-8274
▁preval	-8275
▁prosth	-8276
▁stimul	-8277
▁strike	-8278
▁tragic	-8279
▁upload	-8280
▁200,000	-8281
▁Italian	-8282
▁beating	-8283
▁genuine	-8284
▁glasses	-8285
▁harness	-8286
▁package	-8287
▁percept	-8288
▁profits	-8289
▁spreads	-8290
▁tissues	-8291
▁applying	-8292
▁catching	-8293
▁earliest	-8294
▁magnific	-8295
▁precious	-8296
▁reinvent	-8297
▁robotics	-8298
▁shifting	-8299
▁terribly	-8300
▁graduated	-8301
▁investors	-8302
▁phenomena	-8303
▁sacrifice	-8304
▁transcend	-8305
▁Antarctica	-8306
▁appearance	-8307
▁continents	-8308
▁continuing	-8309
▁encouraged	-8310
▁impressive	-8311
▁vegetables	-8312
▁approaching	-8313
▁fortunately	-8314
▁journalists	-8315
▁reconstruct	-8316
▁corporations	-8317
▁grandparents	-8318
▁straightforward	-8319
ava	-8320
cro	-8321
▁IM	-8322
▁RB	-8323
edge	-8324
gram	-8325
ihad	-8326
ilty	-8327
made	-8328
▁Far	-8329
▁Kev	-8330
▁Sud	-8331
▁Tel	-8332
▁alb	-8333
▁jew	-8334
anzan	-8335
eries	-8336
grade	-8337
icial	-8338
isons	-8339
itage	-8340
itzer	-8341
oning	-8342
▁2050	-8343
▁Bell	-8344
▁Josh	-8345
▁Make	-8346
▁Same	-8347
▁Sure	-8348
▁ange	-8349
▁bind	-8350
▁cath	-8351
▁damn	-8352
▁fits	-8353
▁grav	-8354
▁loan	-8355
▁neoc	-8356
▁nuts	-8357
▁prol	-8358
▁rose	-8359
▁tune	-8360
aneous	-8361
astics	-8362
ifully	-8363
itated	-8364
tering	-8365
umines	-8366
▁Watch	-8367
▁align	-8368
▁amate	-8369
▁annoy	-8370
▁downt	-8371
▁drown	-8372
▁eaten	-8373
▁fancy	-8374
▁farms	-8375
▁revol	-8376
▁sauce	-8377
▁tubes	-8378
▁wires	-8379
angered	-8380
uilding	-8381
▁Sunday	-8382
▁System	-8383
▁Tanzan	-8384
▁burden	-8385
▁cotton	-8386
▁ethnic	-8387
▁excess	-8388
▁freely	-8389
▁propag	-8390
▁sketch	-8391
▁speaks	-8392
▁traits	-8393
esthesia	-8394
▁Develop	-8395
▁compete	-8396
▁dressed	-8397
▁paradox	-8398
▁pedestr	-8399
▁phantom	-8400
▁propose	-8401
▁rethink	-8402
▁arrested	-8403
▁branches	-8404
▁circuits	-8405
▁currency	-8406
▁managers	-8407
▁navigate	-8408
▁scholars	-8409
▁teenager	-8410
▁unemploy	-8411
▁affecting	-8412
▁broadcast	-8413
▁collapsed	-8414
▁passenger	-8415
▁perceived	-8416
▁religions	-8417
▁seemingly	-8418
▁signature	-8419
▁stability	-8420
▁temporary	-8421
▁chimpanzee	-8422
▁disability	-8423
▁ecological	-8424
▁landscapes	-8425
▁monitoring	-8426
▁prediction	-8427
▁previously	-8428
▁researcher	-8429
▁achievement	-8430
▁interviewed	-8431
▁philosopher	-8432
▁alternatives	-8433
hea	-8434
▁LG	-8435
away	-8436
lend	-8437
list	-8438
▁20-	-8439
▁FBI	-8440
▁Moz	-8441
▁Ros	-8442
▁Tas	-8443
▁bin	-8444
▁dys	-8445
▁ski	-8446
▁ven	-8447
arest	-8448
ashed	-8449
elson	-8450
orage	-8451
pless	-8452
ushed	-8453
▁Fort	-8454
▁Mach	-8455
▁Rand	-8456
▁Vict	-8457
▁inex	-8458
▁rape	-8459
▁rope	-8460
▁synd	-8461
iberia	-8462
▁Koran	-8463
▁caves	-8464
▁divor	-8465
▁flags	-8466
▁hydro	-8467
▁numer	-8468
▁ratio	-8469
▁safer	-8470
▁shirt	-8471
▁viral	-8472
reating	-8473
▁campus	-8474
▁dating	-8475
▁dragon	-8476
▁editor	-8477
▁fibers	-8478
▁habits	-8479
▁hiding	-8480
▁improv	-8481
▁loving	-8482
▁makers	-8483
▁recall	-8484
▁recess	-8485
▁static	-8486
▁subsid	-8487
▁vagina	-8488
controll	-8489
▁Indones	-8490
▁Johnson	-8491
▁hardest	-8492
▁manager	-8493
▁offices	-8494
▁pockets	-8495
▁resolve	-8496
▁stomach	-8497
▁tsunami	-8498
▁Shanghai	-8499
▁asteroid	-8500
▁customer	-8501
▁decrease	-8502
▁generous	-8503
▁offering	-8504
▁replaced	-8505
▁smallest	-8506
▁synchron	-8507
▁diagnosis	-8508
▁distances	-8509
▁guarantee	-8510
▁jellyfish	-8511
▁prisoners	-8512
▁procedure	-8513
▁responses	-8514
▁workforce	-8515
▁assignment	-8516
▁assistance	-8517
▁commission	-8518
▁endangered	-8519
▁yourselves	-8520
▁collectively	-8521
▁transforming	-8522
▁administration	-8523
OL	-8524
200	-8525
For	-8526
cip	-8527
dig	-8528
oln	-8529
▁36	-8530
▁DV	-8531
airo	-8532
amps	-8533
crim	-8534
eady	-8535
lers	-8536
▁202	-8537
▁30-	-8538
▁Edu	-8539
▁ads	-8540
bably	-8541
izers	-8542
venth	-8543
▁Ford	-8544
▁Fore	-8545
▁July	-8546
▁Mill	-8547
▁Open	-8548
▁Rock	-8549
▁Snow	-8550
▁Sudd	-8551
▁brid	-8552
▁clue	-8553
▁coat	-8554
▁crop	-8555
▁tatt	-8556
▁warr	-8557
incoln	-8558
weight	-8559
▁Arist	-8560
▁Henry	-8561
▁Santa	-8562
▁Until	-8563
▁Yemen	-8564
▁encry	-8565
▁fault	-8566
▁hired	-8567
▁insul	-8568
▁locom	-8569
▁parks	-8570
▁patch	-8571
▁screw	-8572
▁slime	-8573
▁slums	-8574
▁wheat	-8575
▁winds	-8576
ometown	-8577
▁During	-8578
▁Except	-8579
▁Twenty	-8580
▁agents	-8581
▁builds	-8582
▁cycles	-8583
▁diving	-8584
▁estate	-8585
▁fusion	-8586
▁gained	-8587
▁rhythm	-8588
▁silver	-8589
▁troops	-8590
▁wheels	-8591
changing	-8592
▁Neander	-8593
▁bedroom	-8594
▁cocaine	-8595
▁ignored	-8596
▁passive	-8597
▁stepped	-8598
▁storage	-8599
▁teenage	-8600
▁Palestin	-8601
▁interior	-8602
▁interven	-8603
▁mobility	-8604
▁relation	-8605
▁sciences	-8606
▁Professor	-8607
▁addiction	-8608
▁audiences	-8609
▁breakfast	-8610
▁estimates	-8611
▁miserable	-8612
▁sensation	-8613
▁succeeded	-8614
▁helicopter	-8615
▁phosphorus	-8616
▁terrifying	-8617
▁ubiquitous	-8618
▁desperately	-8619
▁discovering	-8620
▁encouraging	-8621
▁predictable	-8622
▁specialized	-8623
▁unconscious	-8624
▁schizophrenia	-8625
▁mathematicians	-8626
aid	-8627
arl	-8628
col	-8629
ege	-8630
eps	-8631
ona	-8632
▁Gr	-8633
▁SP	-8634
iece	-8635
inth	-8636
irlf	-8637
izza	-8638
outs	-8639
sell	-8640
▁Dra	-8641
▁Its	-8642
▁hal	-8643
▁les	-8644
▁obt	-8645
elled	-8646
ensus	-8647
icked	-8648
inery	-8649
lades	-8650
sized	-8651
uther	-8652
▁Abra	-8653
▁Supp	-8654
▁ampl	-8655
▁bags	-8656
▁bold	-8657
▁dawn	-8658
▁heal	-8659
▁labs	-8660
▁rect	-8661
▁shit	-8662
▁toes	-8663
iously	-8664
▁Being	-8665
▁Medic	-8666
▁anten	-8667
▁coinc	-8668
▁defic	-8669
▁donor	-8670
▁immig	-8671
▁knife	-8672
▁mayor	-8673
▁plank	-8674
▁redef	-8675
▁shine	-8676
▁spill	-8677
▁trace	-8678
▁worms	-8679
▁Columb	-8680
▁Friday	-8681
▁Nelson	-8682
▁Yorker	-8683
▁bullet	-8684
▁manual	-8685
▁marvel	-8686
▁native	-8687
▁proven	-8688
▁safely	-8689
▁Anybody	-8690
▁Aristot	-8691
▁Redwood	-8692
▁absence	-8693
▁arguing	-8694
▁clinics	-8695
▁destiny	-8696
▁drought	-8697
▁ecology	-8698
▁horizon	-8699
▁hormone	-8700
▁minimum	-8701
▁pursuit	-8702
▁puzzles	-8703
▁request	-8704
▁seeking	-8705
▁unhappy	-8706
▁wedding	-8707
▁whistle	-8708
▁Brooklyn	-8709
▁Suddenly	-8710
▁concerns	-8711
▁contrary	-8712
▁intended	-8713
▁sidewalk	-8714
▁striking	-8715
▁Banglades	-8716
▁cooperate	-8717
▁describes	-8718
▁empowered	-8719
▁equations	-8720
▁overnight	-8721
▁residents	-8722
▁territory	-8723
▁volunteer	-8724
▁challenged	-8725
▁convenient	-8726
▁mainstream	-8727
▁prevention	-8728
▁reasonable	-8729
▁acknowledge	-8730
▁constraints	-8731
▁interconnected	-8732
bow	-8733
eds	-8734
lan	-8735
uts	-8736
▁2:	-8737
▁Bi	-8738
▁ah	-8739
..."	-8740
ifty	-8741
▁Jon	-8742
▁Str	-8743
▁Sus	-8744
▁gif	-8745
▁jet	-8746
▁via	-8747
erent	-8748
rance	-8749
ucose	-8750
uctor	-8751
▁Gene	-8752
▁Lake	-8753
▁Love	-8754
▁News	-8755
▁Zeal	-8756
▁athe	-8757
▁biol	-8758
▁indo	-8759
▁jazz	-8760
▁melt	-8761
▁palm	-8762
▁sett	-8763
gments	-8764
ureauc	-8765
▁6,000	-8766
▁Brian	-8767
▁Stage	-8768
▁fires	-8769
▁grabb	-8770
▁jihad	-8771
▁obese	-8772
▁raped	-8773
▁stays	-8774
ativity	-8775
▁Anyone	-8776
▁assets	-8777
▁chains	-8778
▁claims	-8779
▁emails	-8780
▁fallen	-8781
▁infant	-8782
▁insane	-8783
▁motors	-8784
▁offers	-8785
▁potato	-8786
▁proved	-8787
▁sheets	-8788
▁stored	-8789
▁strict	-8790
▁tempor	-8791
▁valley	-8792
▁Lincoln	-8793
▁Mandela	-8794
▁barrier	-8795
▁doubled	-8796
▁elegant	-8797
▁enabled	-8798
▁formula	-8799
▁halfway	-8800
▁kingdom	-8801
▁locally	-8802
▁mapping	-8803
▁proceed	-8804
▁protest	-8805
▁tension	-8806
▁terrain	-8807
criptions	-8808
▁Carolina	-8809
▁Leonardo	-8810
▁advances	-8811
▁attacked	-8812
▁complain	-8813
▁downtown	-8814
▁exposure	-8815
▁failures	-8816
▁geometry	-8817
▁honestly	-8818
▁listened	-8819
▁stopping	-8820
▁transmit	-8821
▁economist	-8822
▁headlines	-8823
▁locations	-8824
▁preparing	-8825
▁recycling	-8826
▁reproduce	-8827
▁Industrial	-8828
▁Technology	-8829
▁continuous	-8830
▁electrodes	-8831
▁elementary	-8832
▁inevitably	-8833
▁infections	-8834
▁manipulate	-8835
▁newspapers	-8836
▁reflection	-8837
▁contributed	-8838
▁limitations	-8839
▁marketplace	-8840
▁surrounding	-8841
▁calculations	-8842
▁concentrated	-8843
▁humanitarian	-8844
▁psychologist	-8845
▁transmission	-8846
▁extraordinarily	-8847
▁.	-8848
All	-8849
dis	-8850
ete	-8851
mun	-8852
oen	-8853
uty	-8854
▁55	-8855
▁SW	-8856
aped	-8857
cycl	-8858
erry	-8859
grad	-8860
irts	-8861
nman	-8862
ules	-8863
ynth	-8864
▁Dad	-8865
▁Dou	-8866
▁Ext	-8867
▁Rom	-8868
▁Sky	-8869
▁Way	-8870
▁aug	-8871
▁cyl	-8872
▁ooh	-8873
▁rib	-8874
▁vit	-8875
enses	-8876
ifact	-8877
inger	-8878
▁Hist	-8879
▁Moon	-8880
▁Tony	-8881
▁drum	-8882
▁fate	-8883
▁glow	-8884
▁inch	-8885
▁keys	-8886
▁mand	-8887
▁sail	-8888
▁sons	-8889
▁summ	-8890
▁turb	-8891
▁wrap	-8892
arians	-8893
ournal	-8894
▁Chile	-8895
▁Coast	-8896
▁Court	-8897
▁ambit	-8898
▁bench	-8899
▁bills	-8900
▁boats	-8901
▁embry	-8902
▁exerc	-8903
▁grasp	-8904
▁guard	-8905
▁immun	-8906
▁lever	-8907
▁loose	-8908
▁nodes	-8909
▁sched	-8910
▁sperm	-8911
▁Almost	-8912
▁amazed	-8913
▁bother	-8914
▁config	-8915
▁manner	-8916
▁murder	-8917
▁orphan	-8918
▁purple	-8919
▁render	-8920
▁scenes	-8921
▁voting	-8922
standing	-8923
▁Abraham	-8924
▁Feynman	-8925
▁Zealand	-8926
▁colored	-8927
▁corrupt	-8928
▁cricket	-8929
▁deepest	-8930
▁discrim	-8931
▁enforce	-8932
▁fathers	-8933
▁follows	-8934
▁gesture	-8935
▁insulin	-8936
▁logical	-8937
▁readers	-8938
▁toilets	-8939
▁trivial	-8940
▁consumed	-8941
▁observed	-8942
▁prostate	-8943
▁Indonesia	-8944
▁amazingly	-8945
▁believing	-8946
▁correctly	-8947
▁protocell	-8948
▁terrified	-8949
▁workplace	-8950
▁approached	-8951
▁legitimate	-8952
▁physicians	-8953
▁retirement	-8954
▁beautifully	-8955
▁consciously	-8956
▁foundations	-8957
▁supermarket	-8958
▁demonstrated	-8959
▁installation	-8960
▁storytelling	-8961
▁concentration	-8962
ga	-8963
py	-8964
tr	-8965
ado	-8966
ima	-8967
pat	-8968
uan	-8969
▁42	-8970
▁od	-8971
aeda	-8972
mill	-8973
pers	-8974
▁350	-8975
▁Bol	-8976
▁Ire	-8977
▁ash	-8978
▁ech	-8979
▁hub	-8980
▁pir	-8981
▁sir	-8982
ademy	-8983
ansas	-8984
enous	-8985
gradu	-8986
ipher	-8987
isten	-8988
odied	-8989
oenix	-8990
peare	-8991
phony	-8992
reens	-8993
world	-8994
▁1900	-8995
▁Coke	-8996
▁Half	-8997
▁Hans	-8998
▁Hong	-8999
▁Nove	-9000
▁batt	-9001
▁cows	-9002
▁dent	-9003
▁glue	-9004
▁hybr	-9005
▁rabb	-9006
▁verb	-9007
inging	-9008
lihood	-9009
person	-9010
vation	-9011
▁Clint	-9012
▁Detro	-9013
▁Hawai	-9014
▁Leban	-9015
▁McDon	-9016
▁ambig	-9017
▁aspir	-9018
▁award	-9019
▁cabin	-9020
▁fatal	-9021
▁funds	-9022
▁inher	-9023
▁lanes	-9024
▁maker	-9025
▁memes	-9026
▁mines	-9027
▁param	-9028
▁pills	-9029
▁proph	-9030
▁trail	-9031
powered	-9032
▁Compan	-9033
▁Social	-9034
▁Victor	-9035
▁atomic	-9036
▁beaten	-9037
▁behalf	-9038
▁crimes	-9039
▁execut	-9040
▁grocer	-9041
▁guilty	-9042
▁nerves	-9043
▁orders	-9044
▁posted	-9045
▁relief	-9046
▁stones	-9047
▁summar	-9048
▁College	-9049
▁Silicon	-9050
▁cancers	-9051
▁enemies	-9052
▁glamour	-9053
▁glucose	-9054
▁intrins	-9055
▁neutral	-9056
▁origins	-9057
▁princip	-9058
▁staring	-9059
▁useless	-9060
akespeare	-9061
▁activist	-9062
▁artifact	-9063
▁breeding	-9064
▁calories	-9065
▁explicit	-9066
▁hometown	-9067
▁horizont	-9068
▁mosquito	-9069
▁portrait	-9070
▁selected	-9071
▁supplies	-9072
▁tropical	-9073
▁ambitious	-9074
▁estimated	-9075
▁installed	-9076
▁officials	-9077
▁orchestra	-9078
▁therapies	-9079
forestation	-9080
▁expedition	-9081
▁illustrate	-9082
▁initiative	-9083
▁interviews	-9084
▁prosperity	-9085
▁sufficient	-9086
▁telescopes	-9087
▁devastating	-9088
▁magnificent	-9089
▁partnership	-9090
▁politically	-9091
▁proposition	-9092
▁civilizations	-9093
▁communicating	-9094
▁psychologists	-9095
,'	-9096
BA	-9097
jo	-9098
yd	-9099
Are	-9100
ape	-9101
dam	-9102
two	-9103
▁Da	-9104
▁JH	-9105
▁RS	-9106
Here	-9107
char	-9108
erey	-9109
▁15-	-9110
▁Cur	-9111
▁DVD	-9112
▁Had	-9113
▁Off	-9114
▁Ron	-9115
▁Roy	-9116
▁Sal	-9117
▁Val	-9118
▁oct	-9119
▁pit	-9120
atson	-9121
inent	-9122
oline	-9123
omics	-9124
▁Benj	-9125
▁Jane	-9126
▁Math	-9127
▁calm	-9128
▁dece	-9129
▁drew	-9130
▁exha	-9131
▁forb	-9132
▁hipp	-9133
▁meme	-9134
▁pige	-9135
▁pole	-9136
▁rank	-9137
▁sake	-9138
▁toss	-9139
▁util	-9140
cyclop	-9141
racies	-9142
rating	-9143
▁2005,	-9144
▁Media	-9145
▁buses	-9146
▁cared	-9147
▁deals	-9148
▁delay	-9149
▁grave	-9150
▁humil	-9151
▁jewel	-9152
▁pizza	-9153
▁remix	-9154
▁shelf	-9155
▁steam	-9156
▁taxes	-9157
▁tiles	-9158
umented	-9159
▁Berlin	-9160
▁Little	-9161
▁Portug	-9162
▁Rather	-9163
▁Tasman	-9164
▁anatom	-9165
▁binary	-9166
▁butter	-9167
▁compre	-9168
▁contam	-9169
▁epidem	-9170
▁lonely	-9171
▁magnet	-9172
▁packed	-9173
▁parach	-9174
▁recipe	-9175
▁thread	-9176
▁worthy	-9177
▁Iceland	-9178
▁Someone	-9179
▁adapted	-9180
▁congest	-9181
▁heading	-9182
▁highway	-9183
▁laptops	-9184
▁Monterey	-9185
▁November	-9186
▁Probably	-9187
▁Security	-9188
▁athletes	-9189
▁cellular	-9190
▁disabled	-9191
▁enjoying	-9192
▁nitrogen	-9193
▁opinions	-9194
▁spinning	-9195
▁syndrome	-9196
▁worrying	-9197
▁activists	-9198
▁biologist	-9199
▁blindness	-9200
▁competing	-9201
▁criminals	-9202
▁motivated	-9203
▁receiving	-9204
▁renewable	-9205
▁biolumines	-9206
▁indigenous	-9207
▁likelihood	-9208
▁punishment	-9209
▁regardless	-9210
▁sanitation	-9211
▁variations	-9212
▁Shakespeare	-9213
▁expressions	-9214
▁instruction	-9215
▁neuroscient	-9216
▁technically	-9217
▁historically	-9218
▁personalized	-9219
Sh	-9220
da	-9221
osn	-9222
rof	-9223
zes	-9224
▁Ap	-9225
▁Es	-9226
alem	-9227
door	-9228
plus	-9229
rane	-9230
rats	-9231
take	-9232
▁Ann	-9233
▁Mur	-9234
▁Rad	-9235
▁Try	-9236
▁Tun	-9237
▁orb	-9238
▁shy	-9239
▁tur	-9240
amboo	-9241
apore	-9242
break	-9243
enter	-9244
ighth	-9245
▁..."	-9246
▁Mean	-9247
▁bite	-9248
▁bulb	-9249
▁bump	-9250
▁chop	-9251
▁cree	-9252
▁enzy	-9253
▁jugg	-9254
▁mesh	-9255
▁murd	-9256
▁sale	-9257
▁sexy	-9258
▁tact	-9259
ulsion	-9260
▁Kevin	-9261
▁algae	-9262
▁coach	-9263
▁comic	-9264
▁conqu	-9265
▁dough	-9266
▁drops	-9267
▁girlf	-9268
▁lobby	-9269
▁meals	-9270
▁messy	-9271
▁mobil	-9272
▁peers	-9273
▁stair	-9274
▁straw	-9275
fulness	-9276
keepers	-9277
▁Albert	-9278
▁Watson	-9279
▁asleep	-9280
▁bamboo	-9281
▁carpet	-9282
▁covers	-9283
▁curves	-9284
▁pencil	-9285
▁topics	-9286
▁Israeli	-9287
▁banking	-9288
▁belongs	-9289
▁constit	-9290
▁enjoyed	-9291
▁healing	-9292
▁implant	-9293
▁reactor	-9294
▁simpler	-9295
▁Tanzania	-9296
▁approved	-9297
▁barriers	-9298
▁ceremony	-9299
▁disagree	-9300
▁division	-9301
▁historic	-9302
▁predator	-9303
▁promised	-9304
▁randomly	-9305
▁reserves	-9306
▁revealed	-9307
▁websites	-9308
▁Singapore	-9309
▁dominated	-9310
▁electrons	-9311
▁fisheries	-9312
▁hierarchy	-9313
▁resistant	-9314
▁responded	-9315
▁Bangladesh	-9316
▁engineered	-9317
▁narratives	-9318
▁psychopath	-9319
▁publishing	-9320
▁legislation	-9321
▁connectivity	-9322
"?	-9323
SP	-9324
gie	-9325
oto	-9326
▁AK	-9327
▁AT	-9328
▁UC	-9329
ette	-9330
five	-9331
inem	-9332
pril	-9333
reme	-9334
thur	-9335
utan	-9336
▁193	-9337
▁Amy	-9338
▁Lin	-9339
▁USA	-9340
▁Vol	-9341
▁dil	-9342
▁sne	-9343
▁tin	-9344
aware	-9345
cking	-9346
eling	-9347
front	-9348
▁Carl	-9349
▁Rick	-9350
▁Turk	-9351
▁Zero	-9352
▁bang	-9353
▁junk	-9354
▁outl	-9355
▁shoe	-9356
▁span	-9357
▁spat	-9358
▁stad	-9359
▁unre	-9360
assemb	-9361
▁April	-9362
▁Bruno	-9363
▁Elect	-9364
▁Force	-9365
▁Queen	-9366
▁Still	-9367
▁Swiss	-9368
▁blink	-9369
▁decor	-9370
▁irony	-9371
▁loads	-9372
▁mimic	-9373
▁pound	-9374
▁rings	-9375
▁roles	-9376
▁zones	-9377
essions	-9378
ocation	-9379
theless	-9380
▁40,000	-9381
▁accent	-9382
▁approx	-9383
▁cockro	-9384
▁criter	-9385
▁divers	-9386
▁elabor	-9387
▁excuse	-9388
▁namely	-9389
▁viewer	-9390
▁wooden	-9391
▁Clinton	-9392
▁Ireland	-9393
▁Stephen	-9394
▁Switzer	-9395
▁artwork	-9396
▁bureauc	-9397
▁corners	-9398
▁dilemma	-9399
▁educate	-9400
▁enhance	-9401
▁genomes	-9402
▁strands	-9403
▁strings	-9404
▁altitude	-9405
▁incorpor	-9406
▁kindness	-9407
▁overhead	-9408
▁plastics	-9409
▁scanning	-9410
▁simplest	-9411
▁vaccines	-9412
▁agreement	-9413
▁attitudes	-9414
▁authentic	-9415
▁bacterial	-9416
▁batteries	-9417
▁intensive	-9418
▁predators	-9419
▁regularly	-9420
▁Geographic	-9421
▁anticipate	-9422
▁automobile	-9423
▁calculated	-9424
▁generating	-9425
▁Switzerland	-9426
▁independence	-9427
▁measurements	-9428
▁temperatures	-9429
IS	-9430
tt	-9431
ETI	-9432
lor	-9433
▁ED	-9434
▁Er	-9435
▁Ev	-9436
▁JF	-9437
▁Sl	-9438
▁UN	-9439
▁je	-9440
ials	-9441
igma	-9442
iots	-9443
olen	-9444
oric	-9445
plic	-9446
seen	-9447
▁10.	-9448
▁Ele	-9449
▁IBM	-9450
▁Kir	-9451
▁Sen	-9452
▁Tib	-9453
▁jar	-9454
cribe	-9455
impse	-9456
orden	-9457
raine	-9458
storm	-9459
▁Cath	-9460
▁Conf	-9461
▁Lego	-9462
▁Rome	-9463
▁Soci	-9464
▁appe	-9465
▁blah	-9466
▁dirt	-9467
▁dose	-9468
▁lawn	-9469
▁mask	-9470
▁subm	-9471
▁vary	-9472
driven	-9473
income	-9474
orient	-9475
romagn	-9476
thirds	-9477
uction	-9478
▁Jones	-9479
▁Seven	-9480
▁appla	-9481
▁bleed	-9482
▁bless	-9483
▁depos	-9484
▁entry	-9485
▁gorge	-9486
▁hopes	-9487
▁inhib	-9488
▁lists	-9489
▁minus	-9490
▁norms	-9491
▁penet	-9492
▁picks	-9493
▁recre	-9494
▁sends	-9495
▁sheer	-9496
ascular	-9497
ressing	-9498
▁Andrew	-9499
▁comics	-9500
▁harbor	-9501
▁tomato	-9502
▁unfold	-9503
▁wishes	-9504
▁happily	-9505
▁harmony	-9506
▁maximum	-9507
▁rehabil	-9508
▁smiling	-9509
▁trapped	-9510
▁Benjamin	-9511
▁Interest	-9512
▁McDonald	-9513
▁accuracy	-9514
▁compound	-9515
▁coverage	-9516
▁diameter	-9517
▁forecast	-9518
▁hormones	-9519
▁injuries	-9520
▁mentally	-9521
▁nowadays	-9522
▁prospect	-9523
▁skeletal	-9524
▁underest	-9525
▁Aristotle	-9526
▁Brazilian	-9527
▁abundance	-9528
▁aesthetic	-9529
▁compounds	-9530
▁expressed	-9531
▁favorites	-9532
▁machinery	-9533
▁medicines	-9534
▁statistic	-9535
▁suspended	-9536
▁compromise	-9537
▁frequently	-9538
▁professors	-9539
▁remarkably	-9540
▁electromagn	-9541
▁fluorescent	-9542
▁Organization	-9543
▁continuously	-9544
▁contribution	-9545
▁embarrassing	-9546
▁introduction	-9547
▁observations	-9548
▁visualization	-9549
eu	-9550
God	-9551
gal	-9552
mes	-9553
nut	-9554
obb	-9555
yon	-9556
▁Cr	-9557
▁JA	-9558
▁Kh	-9559
▁PC	-9560
They	-9561
ador	-9562
aste	-9563
gend	-9564
orph	-9565
oton	-9566
▁12,	-9567
▁Civ	-9568
▁Emp	-9569
▁Tam	-9570
aired	-9571
angle	-9572
cover	-9573
ester	-9574
inity	-9575
ivate	-9576
▁Hope	-9577
▁Kong	-9578
▁Lord	-9579
▁Mass	-9580
▁Scot	-9581
▁biof	-9582
▁carp	-9583
▁crap	-9584
▁cuts	-9585
▁offs	-9586
▁unst	-9587
Please	-9588
ending	-9589
orough	-9590
▁2004,	-9591
▁Turns	-9592
▁belly	-9593
▁erect	-9594
▁grace	-9595
▁hated	-9596
▁juice	-9597
▁panic	-9598
imeters	-9599
istical	-9600
▁fluctu	-9601
▁grades	-9602
▁immers	-9603
▁intact	-9604
▁lifted	-9605
▁masses	-9606
▁tables	-9607
▁trauma	-9608
etheless	-9609
function	-9610
▁Detroit	-9611
▁Olympic	-9612
▁bridges	-9613
▁broader	-9614
▁chronic	-9615
▁coastal	-9616
▁cooling	-9617
▁envelop	-9618
▁glacier	-9619
▁glimpse	-9620
▁hacking	-9621
▁landing	-9622
▁mankind	-9623
▁nearest	-9624
▁sectors	-9625
▁swallow	-9626
▁texture	-9627
▁accompan	-9628
▁announce	-9629
▁clusters	-9630
▁expanded	-9631
▁findings	-9632
▁helpless	-9633
▁hopeless	-9634
▁momentum	-9635
▁publicly	-9636
▁recycled	-9637
▁abandoned	-9638
▁administr	-9639
▁attracted	-9640
▁candidate	-9641
▁delicious	-9642
▁intensity	-9643
▁planetary	-9644
▁realities	-9645
▁reflected	-9646
▁relatives	-9647
▁textbooks	-9648
▁phenomenal	-9649
▁responding	-9650
▁spacecraft	-9651
▁suggestion	-9652
▁frightening	-9653
▁realization	-9654
▁understands	-9655
▁accomplished	-9656
▁overwhelming	-9657
▁controversial	-9658
bie	-9659
mat	-9660
via	-9661
▁AI	-9662
▁Ol	-9663
▁TK	-9664
▁nu	-9665
▁tu	-9666
amas	-9667
cher	-9668
esty	-9669
fare	-9670
ieve	-9671
mind	-9672
oned	-9673
orse	-9674
uana	-9675
udge	-9676
wart	-9677
▁192	-9678
▁Hol	-9679
▁Men	-9680
▁Wol	-9681
▁pla	-9682
▁rap	-9683
adian	-9684
berry	-9685
keley	-9686
lfare	-9687
owers	-9688
three	-9689
▁Jews	-9690
▁Lear	-9691
▁Nick	-9692
▁SETI	-9693
▁Wind	-9694
▁asth	-9695
▁buff	-9696
▁bush	-9697
▁chew	-9698
▁deaf	-9699
▁drif	-9700
▁ende	-9701
▁fest	-9702
▁porn	-9703
▁quar	-9704
▁seal	-9705
▁slic	-9706
arrhea	-9707
awater	-9708
culiar	-9709
▁boots	-9710
▁brush	-9711
▁clubs	-9712
▁consp	-9713
▁cream	-9714
▁crude	-9715
▁illum	-9716
▁naive	-9717
▁revel	-9718
▁sizes	-9719
▁trips	-9720
▁vocal	-9721
vestock	-9722
▁County	-9723
▁Greece	-9724
▁Pretty	-9725
▁apolog	-9726
▁cattle	-9727
▁chimps	-9728
▁denial	-9729
▁dispar	-9730
▁horror	-9731
▁retail	-9732
▁revers	-9733
▁riding	-9734
▁shower	-9735
▁sovere	-9736
▁stolen	-9737
▁Similar	-9738
▁authors	-9739
▁chamber	-9740
▁climbed	-9741
▁crossed	-9742
▁default	-9743
▁earning	-9744
▁heavily	-9745
▁kidding	-9746
▁labeled	-9747
▁laughed	-9748
▁patents	-9749
▁penguin	-9750
▁reaches	-9751
▁rewards	-9752
▁screens	-9753
▁teaches	-9754
▁transit	-9755
▁venture	-9756
▁Berkeley	-9757
▁Business	-9758
▁activate	-9759
▁backyard	-9760
▁boundary	-9761
▁contempl	-9762
▁dropping	-9763
▁gorgeous	-9764
▁indicate	-9765
▁literacy	-9766
▁membrane	-9767
▁peculiar	-9768
▁priority	-9769
▁touching	-9770
▁Parkinson	-9771
▁answering	-9772
▁comparing	-9773
▁disasters	-9774
▁formation	-9775
▁livestock	-9776
▁occurring	-9777
▁realistic	-9778
▁screaming	-9779
▁visualize	-9780
▁Christians	-9781
▁describing	-9782
▁destroying	-9783
▁determines	-9784
▁exceptions	-9785
▁privileged	-9786
▁prototypes	-9787
▁separation	-9788
▁composition	-9789
▁discussions	-9790
▁distinction	-9791
▁theoretical	-9792
▁intersection	-9793
▁transformative	-9794
BC	-9795
ye	-9796
She	-9797
bag	-9798
net	-9799
tra	-9800
upp	-9801
▁29	-9802
▁31	-9803
▁AM	-9804
▁Ba	-9805
▁Gi	-9806
▁du	-9807
agan	-9808
alog	-9809
city	-9810
enth	-9811
etti	-9812
hear	-9813
▁FDA	-9814
▁Mas	-9815
▁Sah	-9816
▁Tra	-9817
▁mud	-9818
▁pad	-9819
▁unw	-9820
▁vel	-9821
acher	-9822
ellow	-9823
ifies	-9824
ouses	-9825
restr	-9826
▁Army	-9827
▁Norm	-9828
▁Penn	-9829
▁Sand	-9830
▁chef	-9831
▁coin	-9832
▁epis	-9833
▁jack	-9834
▁mast	-9835
▁mixt	-9836
▁radi	-9837
▁sole	-9838
▁thus	-9839
▁ties	-9840
coming	-9841
gevity	-9842
iances	-9843
ijuana	-9844
unning	-9845
usalem	-9846
▁Harry	-9847
▁Laden	-9848
▁Louis	-9849
▁Syria	-9850
▁alarm	-9851
▁arbit	-9852
▁artic	-9853
▁careg	-9854
▁cheat	-9855
▁drunk	-9856
▁fence	-9857
▁	-9858
e	-9859
t	-9860
o	-9861
a	-9862
n	-9863
i	-9864
s	-9865
r	-9866
h	-9867
l	-9868
d	-9869
u	-9870
c	-9871
m	-9872
y	-9873
w	-9874
g	-9875
f	-9876
p	-9877
,	-9878
b	-9879
.	-9880
v	-9881
k	-9882
'	-9883
I	-9884
-	-9885
A	-9886
T	-9887
S	-9888
"	-9889
W	-9890
x	-9891
0	-9892
B	-9893
j	-9894
?	-9895
N	-9896
z	-9897
C	-9898
H	-9899
M	-9900
q	-9901
1	-9902
:	-9903
Y	-9904
O	-9905
D	-9906
E	-9907
P	-9908
2	-9909
L	-9910
G	-9911
F	-9912
R	-9913
5	-9914
J	-9915
9	-9916
K	-9917
♫	-9918
U	-9919
3	-9920
;	-9921
4	-9922
8	-9923
V	-9924
6	-9925
7	-9926
!	-9927
[	-9928
]	-9929
’	-9930
♪	-9931
—	-9932
Z	-9933
Q	-9934
X	-9935
/	-9936
$	-9937
é	-9938
&	-9939
í	-9940
á	-9941
+	-9942
%	-9943
_	-9944
ç	-9945
)	-9946
ó	-9947
ã	-9948
#	-9949
=	-9950
è	-9951
“	-9952
ö	-9953
”	-9954
–	-9955
@	-9956
ù	-9957
ü	-9958
(	-9959
^	-9960
‘	-9961
à	-9962
â	-9963
ï	-9964
ø	-9965
ñ	-9966
ā	-9967
อ	-9968
*	-9969
	-9970
	-9971
É	-9972
ä	-9973
ê	-9974
ë	-9975
£	-9976
Á	-9977
ô	-9978
ć	-9979
ī	-9980
ย	-9981
ร	-9982
่	-9983
¡	-9984
Å	-9985
Ç	-9986
ò	-9987
Č	-9988
ē	-9989
ě	-9990
ū	-9991
€	-9992
你	-9993
葱	-9994
送	-9995
