<pad>	0
<unk>	0
<s>	0
</s>	0
en	-0
er	-1
ch	-2
▁d	-3
in	-4
ie	-5
▁w	-6
un	-7
▁s	-8
ich	-9
▁e	-10
an	-11
st	-12
as	-13
ei	-14
▁die	-15
▁a	-16
▁un	-17
▁m	-18
▁ein	-19
te	-20
▁S	-21
ge	-22
▁i	-23
on	-24
▁v	-25
ir	-26
sch	-27
▁h	-28
▁n	-29
▁z	-30
ll	-31
▁und	-32
▁das	-33
ar	-34
gen	-35
ten	-36
▁b	-37
es	-38
▁D	-39
hr	-40
▁A	-41
▁W	-42
▁zu	-43
▁k	-44
▁M	-45
▁der	-46
or	-47
ein	-48
at	-49
it	-50
em	-51
der	-52
▁in	-53
▁E	-54
au	-55
▁wir	-56
▁au	-57
▁ist	-58
icht	-59
▁I	-60
de	-61
den	-62
al	-63
ach	-64
ier	-65
▁f	-66
lich	-67
▁G	-68
ben	-69
▁g	-70
ber	-71
▁B	-72
el	-73
▁ge	-74
ur	-75
▁ich	-76
ter	-77
▁U	-78
▁K	-79
▁es	-80
▁F	-81
ung	-82
le	-83
se	-84
▁an	-85
▁er	-86
▁P	-87
▁sie	-88
▁den	-89
sen	-90
▁Un	-91
▁Sie	-92
▁L	-93
ür	-94
mm	-95
ro	-96
▁T	-97
um	-98
nen	-99
ig	-100
▁nicht	-101
▁ver	-102
ls	-103
▁dass	-104
eit	-105
▁von	-106
re	-107
▁be	-108
is	-109
▁eine	-110
ck	-111
ser	-112
▁auf	-113
▁H	-114
▁Und	-115
ann	-116
▁ha	-117
▁so	-118
tz	-119
▁V	-120
eh	-121
▁mit	-122
ion	-123
ind	-124
▁wie	-125
▁R	-126
isch	-127
am	-128
enn	-129
▁N	-130
▁als	-131
ra	-132
▁war	-133
▁sch	-134
▁sich	-135
us	-136
kt	-137
ent	-138
▁l	-139
▁o	-140
eu	-141
▁Ich	-142
▁J	-143
▁Z	-144
▁t	-145
ft	-146
ahr	-147
ol	-148
über	-149
▁sind	-150
ön	-151
be	-152
ehr	-153
▁haben	-154
▁für	-155
lle	-156
▁j	-157
ste	-158
▁hat	-159
▁man	-160
▁aus	-161
ag	-162
▁um	-163
and	-164
iel	-165
il	-166
▁St	-167
ik	-168
än	-169
ff	-170
▁über	-171
▁"	-172
▁kön	-173
eine	-174
▁p	-175
▁Das	-176
▁Die	-177
och	-178
ut	-179
▁Es	-180
▁wer	-181
llen	-182
▁Wir	-183
tw	-184
sten	-185
▁Sch	-186
▁In	-187
▁Ge	-188
om	-189
hl	-190
▁da	-191
eil	-192
▁Er	-193
▁diese	-194
▁was	-195
▁dem	-196
▁im	-197
igen	-198
ern	-199
hen	-200
▁O	-201
▁-	-202
▁ihr	-203
▁wenn	-204
bt	-205
▁uns	-206
sp	-207
▁einen	-208
rei	-209
chen	-210
mmen	-211
▁dies	-212
ieren	-213
▁C	-214
▁Ver	-215
ensch	-216
ne	-217
▁können	-218
▁des	-219
▁unser	-220
▁je	-221
ien	-222
▁werden	-223
▁Jahr	-224
▁oder	-225
wei	-226
iv	-227
▁Pro	-228
ungen	-229
rau	-230
▁vor	-231
zu	-232
ehen	-233
ige	-234
▁sein	-235
▁Ar	-236
elt	-237
iert	-238
scha	-239
▁An	-240
rü	-241
ation	-242
▁ander	-243
▁kann	-244
▁aber	-245
▁wo	-246
▁auch	-247
▁1	-248
▁Mensch	-249
▁einer	-250
men	-251
▁Aber	-252
▁einem	-253
gt	-254
▁Be	-255
▁nach	-256
anz	-257
▁mein	-258
ken	-259
ort	-260
▁mach	-261
▁Ein	-262
uch	-263
hnen	-264
▁nur	-265
▁wird	-266
▁etw	-267
▁bei	-268
▁sehr	-269
ischen	-270
▁hier	-271
▁all	-272
00	-273
ör	-274
▁Menschen	-275
os	-276
ht	-277
▁dar	-278
ibt	-279
aus	-280
fen	-281
▁ent	-282
hn	-283
▁--	-284
▁mich	-285
urch	-286
▁st	-287
äch	-288
▁gibt	-289
issen	-290
▁Re	-291
▁le	-292
▁–	-293
ot	-294
▁wur	-295
▁dann	-296
lau	-297
▁Le	-298
ät	-299
▁also	-300
▁sp	-301
hal	-302
ill	-303
tzt	-304
ab	-305
eute	-306
und	-307
▁En	-308
ru	-309
▁noch	-310
og	-311
dern	-312
ing	-313
schaft	-314
▁etwas	-315
bl	-316
ick	-317
rie	-318
ommen	-319
▁her	-320
mmer	-321
tet	-322
et	-323
ang	-324
▁sehen	-325
▁habe	-326
▁wei	-327
▁vie	-328
▁Welt	-329
▁sa	-330
▁Sp	-331
▁Als	-332
▁mir	-333
▁dieser	-334
ul	-335
▁mehr	-336
bei	-337
heit	-338
▁durch	-339
▁kl	-340
ische	-341
roß	-342
ers	-343
op	-344
▁sag	-345
▁re	-346
mal	-347
lichen	-348
keit	-349
we	-350
▁gen	-351
all	-352
acht	-353
▁Was	-354
▁viel	-355
ank	-356
▁Wenn	-357
he	-358
."	-359
ffen	-360
▁Leben	-361
her	-362
liche	-363
▁Au	-364
▁2	-365
üs	-366
▁alle	-367
är	-368
cht	-369
uss	-370
fach	-371
▁ganz	-372
klich	-373
▁zum	-374
▁wurde	-375
end	-376
▁mö	-377
▁unter	-378
▁Zeit	-379
ess	-380
fü	-381
▁wür	-382
ri	-383
ze	-384
▁Ihnen	-385
ähr	-386
rin	-387
bst	-388
ass	-389
assen	-390
▁machen	-391
tzen	-392
▁ste	-393
oll	-394
▁groß	-395
ech	-396
▁ab	-397
▁zwei	-398
▁wirklich	-399
▁Gesch	-400
for	-401
fl	-402
▁einfach	-403
▁immer	-404
▁meine	-405
▁bes	-406
ungs	-407
wer	-408
ob	-409
rück	-410
▁weil	-411
▁r	-412
▁am	-413
▁kon	-414
inge	-415
tern	-416
bar	-417
▁tun	-418
chte	-419
ekt	-420
mmt	-421
▁fü	-422
▁Also	-423
art	-424
schie	-425
ner	-426
äu	-427
aten	-428
nte	-429
ad	-430
▁neu	-431
▁müs	-432
▁hatte	-433
iz	-434
▁Ihr	-435
ist	-436
inden	-437
▁unsere	-438
▁bis	-439
ap	-440
lie	-441
▁dieses	-442
ehmen	-443
che	-444
elbst	-445
leich	-446
▁hin	-447
per	-448
▁keine	-449
ück	-450
eiten	-451
gel	-452
ger	-453
glich	-454
▁Leute	-455
im	-456
▁ihre	-457
▁Gr	-458
▁wissen	-459
ionen	-460
iger	-461
▁müssen	-462
rach	-463
stell	-464
hlen	-465
unkt	-466
sa	-467
▁diesem	-468
▁soll	-469
est	-470
dem	-471
▁Man	-472
omp	-473
▁viele	-474
pt	-475
▁waren	-476
▁Art	-477
ßen	-478
▁dam	-479
itte	-480
olog	-481
ke	-482
▁♫	-483
▁sagte	-484
▁sagen	-485
▁Dinge	-486
lt	-487
▁diesen	-488
gend	-489
rä	-490
▁Zu	-491
▁Ges	-492
unden	-493
▁Jahren	-494
blem	-495
▁weiter	-496
▁beg	-497
▁lie	-498
▁bin	-499
ild	-500
sam	-501
▁eines	-502
du	-503
zen	-504
age	-505
▁andere	-506
einen	-507
▁gew	-508
kommen	-509
ats	-510
▁Or	-511
▁So	-512
hm	-513
▁Vor	-514
▁Kon	-515
ver	-516
▁jetzt	-517
ed	-518
▁zei	-519
▁ko	-520
▁anderen	-521
ität	-522
ster	-523
▁wieder	-524
▁Kin	-525
▁Wie	-526
lan	-527
▁eigen	-528
ichte	-529
det	-530
ichtig	-531
lleicht	-532
▁Bei	-533
auf	-534
nis	-535
▁glau	-536
▁würde	-537
geb	-538
▁Problem	-539
▁alles	-540
pp	-541
▁zur	-542
zi	-543
▁Aus	-544
ün	-545
▁selbst	-546
▁nie	-547
▁Der	-548
▁damit	-549
▁Ch	-550
▁du	-551
eg	-552
sehen	-553
▁verb	-554
▁ar	-555
▁wen	-556
auen	-557
eln	-558
▁geht	-559
yst	-560
änder	-561
▁Mill	-562
under	-563
▁gem	-564
ast	-565
ler	-566
spiel	-567
▁vers	-568
▁Jahre	-569
ande	-570
▁ob	-571
halten	-572
tes	-573
ystem	-574
▁zurück	-575
▁ber	-576
ale	-577
▁Frau	-578
▁Auf	-579
beit	-580
▁ger	-581
off	-582
▁muss	-583
kl	-584
▁denn	-585
ragen	-586
inn	-587
▁wel	-588
rö	-589
pf	-590
mer	-591
ßer	-592
▁zw	-593
angen	-594
▁gut	-595
nten	-596
äre	-597
▁Um	-598
schl	-599
amen	-600
▁Ne	-601
igkeit	-602
▁schon	-603
ächlich	-604
ran	-605
▁heraus	-606
von	-607
zeu	-608
des	-609
aar	-610
▁verst	-611
▁Kinder	-612
lei	-613
▁möchte	-614
vor	-615
rit	-616
ok	-617
stellen	-618
ell	-619
ierte	-620
fahr	-621
▁son	-622
▁ihnen	-623
▁best	-624
zent	-625
▁vielleicht	-626
echn	-627
ahl	-628
ringen	-629
▁zusa	-630
▁Dies	-631
▁Her	-632
▁letz	-633
ationen	-634
ert	-635
▁pass	-636
▁Teil	-637
▁zusammen	-638
▁3	-639
imm	-640
▁Geh	-641
▁Ide	-642
atsächlich	-643
ha	-644
▁brau	-645
▁pro	-646
▁drei	-647
▁davon	-648
▁Fl	-649
zie	-650
▁dort	-651
ade	-652
fe	-653
..	-654
ug	-655
▁arbei	-656
alen	-657
hne	-658
▁Dank	-659
▁Nun	-660
uchen	-661
rechen	-662
alt	-663
▁Land	-664
▁gleich	-665
ant	-666
▁heute	-667
halb	-668
▁Hier	-669
▁hatten	-670
agen	-671
▁genau	-672
form	-673
000	-674
▁inter	-675
kte	-676
atür	-677
▁Techn	-678
▁Wissen	-679
▁Geschichte	-680
▁Kl	-681
cken	-682
wo	-683
att	-684
▁einige	-685
esen	-686
▁bet	-687
▁Bild	-688
ater	-689
▁kein	-690
ichten	-691
weise	-692
mlich	-693
ändern	-694
aut	-695
eld	-696
anden	-697
▁jem	-698
aum	-699
net	-700
▁ihn	-701
▁könnte	-702
zä	-703
▁Arbeit	-704
schen	-705
▁For	-706
▁ir	-707
rage	-708
ennen	-709
atz	-710
▁Nach	-711
ud	-712
▁Diese	-713
ielen	-714
▁Bl	-715
ologie	-716
▁wollen	-717
▁Unter	-718
▁Gen	-719
ine	-720
war	-721
unde	-722
oren	-723
▁paar	-724
irn	-725
▁meiner	-726
▁Mit	-727
▁woll	-728
▁gehen	-729
▁wurden	-730
▁Inter	-731
reich	-732
▁einz	-733
▁wahr	-734
▁darüber	-735
fr	-736
▁nun	-737
rag	-738
qu	-739
▁Ko	-740
ak	-741
▁Wei	-742
▁Je	-743
wick	-744
äd	-745
▁werde	-746
unktion	-747
für	-748
▁ben	-749
?"	-750
tlich	-751
▁besser	-752
utzen	-753
▁sondern	-754
▁tatsächlich	-755
hren	-756
schieden	-757
▁verw	-758
eich	-759
▁Ber	-760
gar	-761
▁Beispiel	-762
▁grö	-763
▁Da	-764
▁ange	-765
hör	-766
ährend	-767
▁zie	-768
atur	-769
▁Ü	-770
ache	-771
▁weiß	-772
fol	-773
▁gab	-774
▁unserer	-775
▁Geb	-776
atürlich	-777
ativ	-778
eisten	-779
▁gu	-780
▁seine	-781
▁Ab	-782
▁Se	-783
ah	-784
hin	-785
ander	-786
änd	-787
▁Wasser	-788
▁bede	-789
▁bek	-790
▁wäre	-791
▁5	-792
▁leben	-793
akt	-794
▁neue	-795
ode	-796
▁Fre	-797
schei	-798
▁dazu	-799
▁vom	-800
ult	-801
▁Aut	-802
schein	-803
▁denke	-804
▁Ste	-805
▁will	-806
▁gef	-807
teil	-808
▁19	-809
▁Al	-810
▁hät	-811
ite	-812
▁irgend	-813
achen	-814
öglich	-815
gie	-816
eite	-817
▁finden	-818
br	-819
▁denken	-820
me	-821
▁entwick	-822
▁Grund	-823
▁kommen	-824
▁sogar	-825
▁denen	-826
utz	-827
▁macht	-828
▁einmal	-829
▁20	-830
öff	-831
▁hei	-832
ittel	-833
▁gegen	-834
ma	-835
▁Mon	-836
▁Wer	-837
▁zwischen	-838
▁Tag	-839
▁lang	-840
▁Ent	-841
▁ges	-842
▁gerade	-843
ften	-844
▁gemacht	-845
▁Des	-846
▁glaube	-847
ierung	-848
▁erzä	-849
▁funktion	-850
▁wichtig	-851
▁Frauen	-852
▁geben	-853
▁Gehirn	-854
▁interess	-855
ark	-856
▁kommt	-857
▁Im	-858
erson	-859
äh	-860
ingen	-861
▁Frage	-862
▁ex	-863
▁Lebens	-864
geben	-865
rank	-866
▁erst	-867
▁Über	-868
ika	-869
enden	-870
rün	-871
keiten	-872
▁Mal	-873
▁ohne	-874
lück	-875
▁bedeu	-876
▁mus	-877
ys	-878
▁jeder	-879
▁näch	-880
▁4	-881
▁letzten	-882
gan	-883
hem	-884
▁nichts	-885
tschaft	-886
fer	-887
▁zeigen	-888
andel	-889
▁ihren	-890
▁würden	-891
alten	-892
ellen	-893
▁dafür	-894
▁verl	-895
ic	-896
weg	-897
ate	-898
achte	-899
▁konnte	-900
▁passiert	-901
▁verschieden	-902
od	-903
▁Daten	-904
▁ersten	-905
▁sieht	-906
gef	-907
chten	-908
gehen	-909
äl	-910
ay	-911
▁Prozent	-912
▁Reg	-913
cher	-914
ikan	-915
▁meisten	-916
▁Med	-917
gr	-918
▁verstehen	-919
nell	-920
ßt	-921
▁Ex	-922
▁während	-923
immt	-924
▁daran	-925
ss	-926
▁Eine	-927
rupp	-928
ischer	-929
▁Millionen	-930
▁Ihre	-931
▁besch	-932
aufen	-933
▁etwa	-934
▁Me	-935
iele	-936
▁mal	-937
stand	-938
▁warum	-939
▁erste	-940
ße	-941
▁lassen	-942
sel	-943
▁sicher	-944
▁sollte	-945
▁10	-946
▁Hand	-947
hrt	-948
zeit	-949
▁Ph	-950
gew	-951
ord	-952
sicht	-953
▁mensch	-954
▁sollten	-955
▁schw	-956
ts	-957
▁natürlich	-958
bs	-959
agt	-960
ign	-961
yp	-962
jekt	-963
▁Idee	-964
ivers	-965
licher	-966
ogen	-967
iere	-968
▁meinen	-969
ergie	-970
erst	-971
ucht	-972
stellt	-973
▁meinem	-974
▁könnten	-975
elle	-976
ompu	-977
▁Geld	-978
▁Person	-979
fte	-980
▁schnell	-981
ce	-982
▁gel	-983
▁wollte	-984
▁komp	-985
▁ja	-986
▁Raum	-987
igt	-988
ält	-989
wir	-990
▁Schl	-991
ia	-992
▁gesch	-993
▁geb	-994
▁ganze	-995
tro	-996
▁große	-997
▁Weg	-998
▁Ä	-999
ide	-1000
aupt	-1001
ramm	-1002
▁jemand	-1003
pro	-1004
schied	-1005
▁Wo	-1006
▁Mar	-1007
ckt	-1008
ös	-1009
llt	-1010
▁Ger	-1011
▁sprechen	-1012
örper	-1013
▁ziemlich	-1014
ären	-1015
innen	-1016
▁scha	-1017
onder	-1018
▁klein	-1019
▁ins	-1020
.000	-1021
ange	-1022
▁War	-1023
▁ihrer	-1024
▁bekommen	-1025
ollar	-1026
▁Inform	-1027
als	-1028
lung	-1029
richt	-1030
▁arbeiten	-1031
wie	-1032
äng	-1033
▁dabei	-1034
adt	-1035
▁ging	-1036
ktiv	-1037
▁sagt	-1038
▁Pl	-1039
▁kam	-1040
kun	-1041
▁hör	-1042
ernen	-1043
io	-1044
ierten	-1045
▁System	-1046
twort	-1047
omputer	-1048
▁darauf	-1049
tt	-1050
▁nehmen	-1051
scheinlich	-1052
amil	-1053
str	-1054
eist	-1055
olut	-1056
▁Kre	-1057
utter	-1058
dien	-1059
ele	-1060
ktur	-1061
laub	-1062
▁Plan	-1063
enz	-1064
ahm	-1065
äter	-1066
▁Univers	-1067
orden	-1068
mus	-1069
▁Wissenschaft	-1070
▁bereit	-1071
finden	-1072
▁Ende	-1073
Qu	-1074
olit	-1075
▁Ro	-1076
reiben	-1077
▁Gem	-1078
▁weniger	-1079
rad	-1080
▁Kind	-1081
▁Mann	-1082
▁Min	-1083
▁doch	-1084
urz	-1085
▁kleinen	-1086
▁El	-1087
▁schl	-1088
pl	-1089
fühl	-1090
▁Ö	-1091
fall	-1092
▁Stra	-1093
▁Dollar	-1094
▁vier	-1095
".	-1096
id	-1097
kunft	-1098
▁Entw	-1099
ker	-1100
▁Mus	-1101
▁Dann	-1102
▁Men	-1103
▁bedeutet	-1104
▁Bo	-1105
▁Verb	-1106
lo	-1107
▁We	-1108
▁Mein	-1109
▁Qu	-1110
arbei	-1111
▁unseren	-1112
rat	-1113
▁Y	-1114
▁Famil	-1115
▁US	-1116
▁Technologie	-1117
sst	-1118
ennt	-1119
▁sol	-1120
▁dir	-1121
ial	-1122
itz	-1123
asch	-1124
usst	-1125
orgen	-1126
annt	-1127
▁Rei	-1128
▁Computer	-1129
▁ung	-1130
▁Sache	-1131
▁Möglich	-1132
ganis	-1133
▁Denn	-1134
▁Energie	-1135
▁Sta	-1136
▁dachte	-1137
äft	-1138
▁welche	-1139
▁All	-1140
▁bringen	-1141
ruck	-1142
no	-1143
tete	-1144
gl	-1145
▁Lie	-1146
▁ihm	-1147
▁Te	-1148
▁seit	-1149
▁kleine	-1150
▁brauchen	-1151
▁möglich	-1152
▁eigentlich	-1153
▁gesehen	-1154
nit	-1155
▁sei	-1156
oment	-1157
ga	-1158
ald	-1159
tr	-1160
ive	-1161
raft	-1162
▁Män	-1163
achsen	-1164
uten	-1165
▁Fall	-1166
▁gest	-1167
▁großen	-1168
▁Seite	-1169
▁Gew	-1170
▁wenig	-1171
▁„	-1172
▁se	-1173
▁Am	-1174
unter	-1175
fin	-1176
▁jeden	-1177
ätz	-1178
ition	-1179
▁Weise	-1180
",	-1181
▁Ha	-1182
schw	-1183
isten	-1184
iges	-1185
▁6	-1186
▁en	-1187
our	-1188
icher	-1189
▁Groß	-1190
▁Schu	-1191
▁ausge	-1192
alis	-1193
▁Stadt	-1194
schaften	-1195
▁ganzen	-1196
opf	-1197
▁200	-1198
...	-1199
nung	-1200
▁fin	-1201
legen	-1202
kten	-1203
▁schle	-1204
▁keinen	-1205
ard	-1206
▁außer	-1207
▁De	-1208
▁hätte	-1209
▁hoch	-1210
halt	-1211
▁voll	-1212
▁Licht	-1213
Ich	-1214
▁al	-1215
folg	-1216
▁Woch	-1217
▁Körper	-1218
▁Danke	-1219
▁Menge	-1220
▁Zukunft	-1221
raf	-1222
hlt	-1223
wegen	-1224
▁Tage	-1225
▁später	-1226
ust	-1227
öffent	-1228
▁gesagt	-1229
▁Grupp	-1230
stellung	-1231
▁versuchen	-1232
▁fün	-1233
ultur	-1234
fft	-1235
ernt	-1236
▁Ged	-1237
▁gern	-1238
ip	-1239
eht	-1240
ähn	-1241
leben	-1242
▁glauben	-1243
iss	-1244
achten	-1245
rieben	-1246
▁Ort	-1247
denken	-1248
▁Kar	-1249
▁Ja	-1250
▁Ma	-1251
ormal	-1252
▁Buch	-1253
▁verm	-1254
wohl	-1255
▁Vers	-1256
▁Entwick	-1257
undheit	-1258
▁vielen	-1259
▁Fil	-1260
▁beim	-1261
th	-1262
lex	-1263
▁unglaub	-1264
hol	-1265
essen	-1266
▁Spiel	-1267
▁Vielen	-1268
iar	-1269
▁Son	-1270
asse	-1271
▁Den	-1272
▁Augen	-1273
gang	-1274
▁Gemein	-1275
lekt	-1276
▁stellen	-1277
▁te	-1278
öl	-1279
▁konnten	-1280
eten	-1281
ausen	-1282
alität	-1283
eilen	-1284
▁heißt	-1285
▁fest	-1286
fahren	-1287
gramm	-1288
▁eigenen	-1289
▁oft	-1290
▁gehör	-1291
▁lernen	-1292
▁besonder	-1293
▁Stud	-1294
▁get	-1295
▁sozi	-1296
ahmen	-1297
▁fast	-1298
▁funktioniert	-1299
elfen	-1300
ständ	-1301
zeug	-1302
ruktur	-1303
nehmen	-1304
▁fünf	-1305
▁indem	-1306
aden	-1307
▁Untern	-1308
setzen	-1309
reichen	-1310
▁wunder	-1311
▁jedes	-1312
▁nä	-1313
▁Moment	-1314
▁schaffen	-1315
▁Natur	-1316
▁Pat	-1317
ändert	-1318
ließ	-1319
▁rie	-1320
ges	-1321
ph	-1322
eile	-1323
reis	-1324
allen	-1325
▁Afr	-1326
▁Sprach	-1327
inner	-1328
▁größ	-1329
stoff	-1330
▁Mutter	-1331
ium	-1332
▁Erde	-1333
▁Schul	-1334
▁Warum	-1335
▁Jetzt	-1336
ritt	-1337
▁gute	-1338
▁Ob	-1339
▁offen	-1340
▁8	-1341
▁lange	-1342
▁schwer	-1343
oten	-1344
zeich	-1345
▁Haus	-1346
▁Probleme	-1347
satz	-1348
▁nutzen	-1349
▁Milliar	-1350
▁gl	-1351
ause	-1352
kel	-1353
▁Wahr	-1354
gefähr	-1355
hle	-1356
ho	-1357
ib	-1358
▁Du	-1359
▁Internet	-1360
▁Produ	-1361
▁Hin	-1362
▁Gesell	-1363
ott	-1364
echs	-1365
nisse	-1366
eiden	-1367
▁seiner	-1368
lichkeit	-1369
▁Gesundheit	-1370
iker	-1371
zahl	-1372
spro	-1373
wusst	-1374
isches	-1375
kon	-1376
volut	-1377
▁wahrscheinlich	-1378
▁sah	-1379
▁aller	-1380
▁Kam	-1381
▁helfen	-1382
so	-1383
ett	-1384
ahlen	-1385
▁allen	-1386
esser	-1387
▁Vide	-1388
▁7	-1389
euten	-1390
ammen	-1391
▁weit	-1392
eim	-1393
itu	-1394
▁weg	-1395
▁anders	-1396
fä	-1397
▁c	-1398
▁fol	-1399
▁Ang	-1400
▁einge	-1401
ED	-1402
▁genug	-1403
ko	-1404
▁Lehr	-1405
▁zeigt	-1406
ünst	-1407
▁herum	-1408
▁schön	-1409
▁unserem	-1410
chmal	-1411
▁neuen	-1412
duz	-1413
▁frü	-1414
▁Form	-1415
▁wicht	-1416
▁erzählen	-1417
▁Bil	-1418
▁klar	-1419
volution	-1420
fangen	-1421
mp	-1422
dent	-1423
▁Stu	-1424
gleich	-1425
heiten	-1426
▁nächsten	-1427
glichen	-1428
▁USA	-1429
▁ne	-1430
ossen	-1431
▁verk	-1432
unst	-1433
▁begann	-1434
▁kennen	-1435
yn	-1436
ina	-1437
▁100	-1438
▁9	-1439
ren	-1440
raum	-1441
liches	-1442
▁Gegen	-1443
▁15	-1444
▁Dar	-1445
▁Mo	-1446
kay	-1447
rieg	-1448
welt	-1449
▁größer	-1450
▁50	-1451
▁wus	-1452
schaffen	-1453
▁ungefähr	-1454
▁Met	-1455
▁we	-1456
▁Amer	-1457
▁30	-1458
zess	-1459
scheid	-1460
▁betrach	-1461
▁jede	-1462
gangen	-1463
▁star	-1464
land	-1465
▁bauen	-1466
ron	-1467
▁Design	-1468
ösen	-1469
▁Nicht	-1470
umen	-1471
kennen	-1472
▁Wor	-1473
andeln	-1474
ehn	-1475
▁richtig	-1476
hunder	-1477
▁blei	-1478
▁bevor	-1479
setzt	-1480
▁Lu	-1481
▁Bür	-1482
▁New	-1483
▁Rob	-1484
zieh	-1485
reffen	-1486
▁Kunst	-1487
▁Selbst	-1488
▁gemein	-1489
▁liegt	-1490
▁Planeten	-1491
▁verändern	-1492
▁bisschen	-1493
öt	-1494
▁recht	-1495
igkeiten	-1496
▁normal	-1497
▁hö	-1498
▁Ideen	-1499
▁Leuten	-1500
▁Fäh	-1501
▁Schw	-1502
mmun	-1503
▁Zus	-1504
ens	-1505
▁Su	-1506
▁Vie	-1507
▁seinen	-1508
▁Projekt	-1509
äche	-1510
▁gar	-1511
▁Musik	-1512
chn	-1513
ffe	-1514
▁Forsch	-1515
ere	-1516
sche	-1517
▁fal	-1518
▁kurz	-1519
eut	-1520
▁beh	-1521
forder	-1522
▁Schule	-1523
▁Fot	-1524
▁Mater	-1525
asst	-1526
bo	-1527
▁Informationen	-1528
llig	-1529
ände	-1530
▁Für	-1531
▁überall	-1532
▁TED	-1533
ädchen	-1534
▁Erfahr	-1535
dig	-1536
▁Di	-1537
ktion	-1538
▁stehen	-1539
omen	-1540
▁sagten	-1541
▁At	-1542
▁ro	-1543
mpf	-1544
▁Pu	-1545
utzt	-1546
▁Mu	-1547
anken	-1548
▁Mode	-1549
▁ern	-1550
mittel	-1551
▁inner	-1552
mö	-1553
ütz	-1554
ringt	-1555
itzen	-1556
▁gehört	-1557
▁Arten	-1558
ismus	-1559
▁Unternehmen	-1560
▁Wirtschaft	-1561
▁versuch	-1562
▁Punkt	-1563
▁Kopf	-1564
▁erkl	-1565
▁Krank	-1566
los	-1567
▁hinter	-1568
▁darum	-1569
▁anzu	-1570
ienten	-1571
▁nennen	-1572
▁Lin	-1573
▁Antwort	-1574
▁schwier	-1575
immen	-1576
▁Fragen	-1577
▁Milliarden	-1578
▁Männer	-1579
▁musste	-1580
▁eben	-1581
sy	-1582
▁Zwei	-1583
▁ihrem	-1584
▁Bi	-1585
▁reden	-1586
ks	-1587
▁Meine	-1588
pr	-1589
anzen	-1590
▁Exper	-1591
gesch	-1592
je	-1593
twor	-1594
▁sel	-1595
▁Gebäu	-1596
eren	-1597
rieb	-1598
▁Mädchen	-1599
änger	-1600
▁Vort	-1601
▁anderes	-1602
▁Br	-1603
izin	-1604
mand	-1605
▁Dieses	-1606
ief	-1607
zept	-1608
▁Netz	-1609
▁dich	-1610
▁Geschichten	-1611
scheiden	-1612
▁bereits	-1613
cke	-1614
▁bem	-1615
fang	-1616
▁Glück	-1617
auer	-1618
▁hal	-1619
▁großart	-1620
bringen	-1621
▁euch	-1622
▁Jahrhunder	-1623
▁Universum	-1624
gung	-1625
▁Richt	-1626
olle	-1627
▁Bü	-1628
▁de	-1629
▁Bed	-1630
gem	-1631
amens	-1632
▁entwickelt	-1633
▁fragen	-1634
▁Afrika	-1635
einander	-1636
voll	-1637
▁erkennen	-1638
▁Minuten	-1639
▁erreichen	-1640
öhn	-1641
▁Auto	-1642
▁frag	-1643
▁Zusammen	-1644
▁steht	-1645
▁besonders	-1646
zei	-1647
▁Lös	-1648
▁halten	-1649
▁Gesellschaft	-1650
▁pl	-1651
▁erh	-1652
▁oben	-1653
▁namens	-1654
sk	-1655
▁[	-1656
▁♪	-1657
▁spielen	-1658
ome	-1659
▁Gl	-1660
inde	-1661
▁Verhalten	-1662
▁entde	-1663
▁hätten	-1664
▁Familie	-1665
▁benutzen	-1666
▁verschiedene	-1667
▁Kor	-1668
if	-1669
▁gerne	-1670
ilfe	-1671
inen	-1672
▁seinem	-1673
▁ü	-1674
pen	-1675
ielt	-1676
erv	-1677
▁Film	-1678
mit	-1679
annte	-1680
zentr	-1681
indung	-1682
▁machte	-1683
aun	-1684
▁Oder	-1685
andelt	-1686
etz	-1687
▁hören	-1688
nahm	-1689
werk	-1690
▁Kön	-1691
▁darin	-1692
▁Indien	-1693
▁Entscheid	-1694
▁ho	-1695
▁na	-1696
▁Them	-1697
▁ähn	-1698
ahn	-1699
deut	-1700
▁Unser	-1701
▁Gruppe	-1702
▁Herz	-1703
▁Macht	-1704
oter	-1705
▁Fol	-1706
akter	-1707
ient	-1708
▁sechs	-1709
rom	-1710
▁glob	-1711
▁statt	-1712
unge	-1713
▁Stück	-1714
▁Video	-1715
▁Far	-1716
▁bef	-1717
▁Flug	-1718
▁wohl	-1719
▁beein	-1720
euer	-1721
grund	-1722
▁Doch	-1723
schnit	-1724
▁Beweg	-1725
▁Ergeb	-1726
▁Fir	-1727
▁Fü	-1728
bare	-1729
▁jedem	-1730
▁Organis	-1731
ölker	-1732
richten	-1733
▁braucht	-1734
▁Dem	-1735
geln	-1736
kehr	-1737
▁Angst	-1738
▁bestimm	-1739
urs	-1740
onen	-1741
▁Bilder	-1742
▁Vielleicht	-1743
▁Eltern	-1744
let	-1745
bild	-1746
▁gesam	-1747
ließlich	-1748
ings	-1749
▁Patienten	-1750
was	-1751
▁Weil	-1752
▁entwickeln	-1753
mals	-1754
▁Durch	-1755
▁ch	-1756
endet	-1757
▁richt	-1758
▁Ur	-1759
setz	-1760
ächt	-1761
dr	-1762
▁erf	-1763
anten	-1764
▁ries	-1765
▁vorstellen	-1766
ume	-1767
▁Sprache	-1768
üt	-1769
ock	-1770
heor	-1771
▁tro	-1772
ützen	-1773
ase	-1774
▁Luft	-1775
▁Beg	-1776
führt	-1777
sych	-1778
▁Bau	-1779
▁mag	-1780
▁Sü	-1781
▁glück	-1782
▁Gefühl	-1783
▁Kultur	-1784
system	-1785
▁Freund	-1786
ikro	-1787
punkt	-1788
▁Möglichkeit	-1789
▁Beh	-1790
▁flie	-1791
genommen	-1792
ezie	-1793
▁Eigen	-1794
▁Vater	-1795
▁Stunden	-1796
▁bewegen	-1797
▁einigen	-1798
▁erhalten	-1799
uer	-1800
▁irgendwie	-1801
▁Str	-1802
gte	-1803
ante	-1804
ym	-1805
ider	-1806
urop	-1807
iken	-1808
icherheit	-1809
▁verschiedenen	-1810
reten	-1811
▁%	-1812
ässt	-1813
▁Arm	-1814
ersön	-1815
▁beiden	-1816
▁erw	-1817
▁hoff	-1818
▁manchmal	-1819
annen	-1820
zug	-1821
haupt	-1822
zeugen	-1823
▁ändern	-1824
▁Veränder	-1825
esse	-1826
okrat	-1827
▁Rück	-1828
▁Städ	-1829
ure	-1830
▁alt	-1831
▁wollten	-1832
ohn	-1833
gal	-1834
▁Wort	-1835
▁führen	-1836
▁Bereich	-1837
äten	-1838
stehen	-1839
▁frei	-1840
▁drau	-1841
amm	-1842
▁Grün	-1843
▁besten	-1844
▁Neu	-1845
▁abs	-1846
▁Gener	-1847
▁stell	-1848
gestellt	-1849
▁Meer	-1850
▁einzige	-1851
▁nämlich	-1852
ack	-1853
err	-1854
teten	-1855
▁Regierung	-1856
vest	-1857
▁erk	-1858
▁bemer	-1859
▁einzel	-1860
▁Roboter	-1861
▁Yor	-1862
▁Hause	-1863
blik	-1864
▁Part	-1865
tel	-1866
▁Sinn	-1867
▁vert	-1868
isk	-1869
▁for	-1870
▁Sachen	-1871
tens	-1872
▁Gott	-1873
ow	-1874
eig	-1875
▁unbe	-1876
▁unterschied	-1877
▁Bezieh	-1878
▁Masch	-1879
▁Gesicht	-1880
zt	-1881
bte	-1882
▁verwenden	-1883
▁verändert	-1884
häng	-1885
▁Sol	-1886
▁eher	-1887
▁per	-1888
▁unglaublich	-1889
one	-1890
zin	-1891
zustellen	-1892
▁sage	-1893
▁dr	-1894
▁innerhalb	-1895
führ	-1896
hlte	-1897
stens	-1898
ehe	-1899
▁...	-1900
▁Komp	-1901
▁Krebs	-1902
▁beginnen	-1903
gabe	-1904
▁fand	-1905
▁China	-1906
▁öffent	-1907
▁menschlichen	-1908
▁Kindern	-1909
erweise	-1910
▁Po	-1911
reifen	-1912
▁Gebäude	-1913
▁gemeinsam	-1914
▁Hö	-1915
▁Pol	-1916
▁welch	-1917
▁Heraus	-1918
▁wegen	-1919
onnen	-1920
▁überhaupt	-1921
druck	-1922
tem	-1923
▁los	-1924
▁Ziel	-1925
denten	-1926
▁brach	-1927
sent	-1928
enzen	-1929
icken	-1930
▁getan	-1931
▁Länder	-1932
nov	-1933
hemat	-1934
▁Fahr	-1935
berfl	-1936
▁Werk	-1937
▁Gleich	-1938
▁bl	-1939
▁Dieser	-1940
schlossen	-1941
mme	-1942
uf	-1943
▁Bab	-1944
▁gr	-1945
uß	-1946
▁Arch	-1947
erikan	-1948
▁gleichen	-1949
eint	-1950
führen	-1951
▁beob	-1952
▁abge	-1953
▁ansch	-1954
arten	-1955
▁zwar	-1956
▁versucht	-1957
ai	-1958
erk	-1959
▁schauen	-1960
son	-1961
ffekt	-1962
igten	-1963
▁To	-1964
völker	-1965
ivi	-1966
abor	-1967
racht	-1968
▁Lage	-1969
▁18	-1970
▁Kn	-1971
▁Mat	-1972
▁Anfang	-1973
▁Entwicklung	-1974
ont	-1975
ingt	-1976
ative	-1977
▁verd	-1978
▁allem	-1979
▁weltw	-1980
han	-1981
▁Nacht	-1982
▁polit	-1983
ende	-1984
▁Grö	-1985
▁Okay	-1986
▁Stellen	-1987
kü	-1988
▁Wochen	-1989
▁Material	-1990
▁Par	-1991
▁Krieg	-1992
▁Umwelt	-1993
▁treffen	-1994
▁Ant	-1995
▁Bes	-1996
▁lei	-1997
▁aufge	-1998
▁Herausforder	-1999
amp	-2000
ute	-2001
▁jen	-2002
entr	-2003
riff	-2004
▁lin	-2005
ängt	-2006
▁40	-2007
fel	-2008
▁Bet	-2009
▁rau	-2010
blikum	-2011
haus	-2012
▁niemand	-2013
▁auszu	-2014
imen	-2015
▁Zum	-2016
eigen	-2017
St	-2018
wert	-2019
dlich	-2020
nahme	-2021
▁Chr	-2022
▁Rest	-2023
▁Lehrer	-2024
▁meines	-2025
▁mussten	-2026
▁Erfahrung	-2027
▁bel	-2028
ument	-2029
baren	-2030
▁Prozess	-2031
achst	-2032
eister	-2033
▁Tiere	-2034
▁wusste	-2035
oss	-2036
uren	-2037
av	-2038
▁dre	-2039
▁Dingen	-2040
▁folgen	-2041
wär	-2042
enne	-2043
▁Prä	-2044
möglich	-2045
auso	-2046
innern	-2047
▁kamen	-2048
sie	-2049
▁Tier	-2050
▁weitere	-2051
elig	-2052
ras	-2053
▁Kap	-2054
▁entf	-2055
▁nächste	-2056
ötz	-2057
▁Essen	-2058
min	-2059
▁Nu	-2060
▁Pap	-2061
ranken	-2062
▁leicht	-2063
▁Publikum	-2064
▁Verein	-2065
▁produz	-2066
▁vö	-2067
sein	-2068
▁Dam	-2069
▁Freunde	-2070
ächst	-2071
▁Frei	-2072
▁Mittel	-2073
▁fühlen	-2074
▁12	-2075
▁Dr	-2076
arbeit	-2077
ager	-2078
▁beko	-2079
▁tut	-2080
▁erre	-2081
ehl	-2082
ans	-2083
▁Klim	-2084
▁Grunde	-2085
▁Geschäft	-2086
▁ster	-2087
▁Tages	-2088
achstum	-2089
▁solche	-2090
▁Sicherheit	-2091
▁Co	-2092
▁jed	-2093
anach	-2094
annten	-2095
▁Denken	-2096
ragt	-2097
▁ersch	-2098
▁fl	-2099
tell	-2100
antwort	-2101
▁'	-2102
ziehen	-2103
▁exist	-2104
iet	-2105
itze	-2106
rieden	-2107
▁Struktur	-2108
▁unten	-2109
▁Programm	-2110
▁eigene	-2111
▁vorher	-2112
ransp	-2113
▁Inst	-2114
▁menschliche	-2115
▁Pf	-2116
▁falsch	-2117
▁worden	-2118
▁Situ	-2119
nahmen	-2120
▁aufzu	-2121
▁wor	-2122
▁Kont	-2123
ational	-2124
sph	-2125
falls	-2126
▁unters	-2127
▁erstaun	-2128
▁Res	-2129
▁Vert	-2130
▁deren	-2131
▁lässt	-2132
▁letzte	-2133
▁Unterschied	-2134
▁Möglichkeiten	-2135
▁York	-2136
ations	-2137
▁Boden	-2138
▁erwar	-2139
sätz	-2140
▁Pr	-2141
▁Mikro	-2142
▁wären	-2143
▁bringt	-2144
▁damals	-2145
▁jedoch	-2146
▁Ster	-2147
▁verschw	-2148
▁hervor	-2149
hält	-2150
iment	-2151
lungs	-2152
▁Lassen	-2153
▁obwohl	-2154
xt	-2155
ian	-2156
▁Typ	-2157
▁erlau	-2158
izieren	-2159
▁Gedanken	-2160
▁or	-2161
anke	-2162
stet	-2163
rauen	-2164
▁Hilfe	-2165
▁grund	-2166
haft	-2167
ksam	-2168
▁völlig	-2169
▁schreiben	-2170
troll	-2171
sichtlich	-2172
ax	-2173
drück	-2174
ienen	-2175
statt	-2176
zellen	-2177
▁gleiche	-2178
▁mo	-2179
▁Nein	-2180
imme	-2181
▁berü	-2182
▁Polit	-2183
▁Schwe	-2184
▁Fern	-2185
▁Ander	-2186
▁Thema	-2187
ötzlich	-2188
▁fragte	-2189
▁Job	-2190
▁Sek	-2191
▁Staaten	-2192
are	-2193
▁25	-2194
elten	-2195
▁Fort	-2196
▁direkt	-2197
▁bleiben	-2198
Was	-2199
opp	-2200
▁DN	-2201
innt	-2202
bauen	-2203
langen	-2204
uche	-2205
▁hunder	-2206
fluss	-2207
▁Elekt	-2208
ahren	-2209
wesen	-2210
▁Woche	-2211
▁lösen	-2212
▁dessen	-2213
▁entscheiden	-2214
ue	-2215
▁Kü	-2216
▁teil	-2217
iziert	-2218
▁Markt	-2219
ologien	-2220
▁Haupt	-2221
get	-2222
▁Li	-2223
▁ph	-2224
blick	-2225
bau	-2226
ließen	-2227
▁sollen	-2228
▁besteht	-2229
▁erinner	-2230
bung	-2231
inger	-2232
▁suchen	-2233
▁funktionieren	-2234
▁Monate	-2235
ehm	-2236
▁Sk	-2237
▁stark	-2238
rakt	-2239
▁verbesser	-2240
▁betrachten	-2241
mot	-2242
▁Viele	-2243
scht	-2244
▁Oze	-2245
cen	-2246
ograf	-2247
▁Neur	-2248
hören	-2249
ausende	-2250
▁genauso	-2251
bes	-2252
fort	-2253
wirk	-2254
zogen	-2255
alien	-2256
▁Namen	-2257
zip	-2258
▁Tr	-2259
ikaner	-2260
▁teilen	-2261
▁Ho	-2262
gebung	-2263
▁zuvor	-2264
flanzen	-2265
lin	-2266
ählen	-2267
schnitt	-2268
trem	-2269
ament	-2270
ilden	-2271
▁Ländern	-2272
licht	-2273
▁persön	-2274
erstör	-2275
▁schwierig	-2276
iff	-2277
▁ged	-2278
▁Nahr	-2279
▁zehn	-2280
arbeitet	-2281
ub	-2282
osit	-2283
▁Kat	-2284
▁Per	-2285
▁Kraft	-2286
▁Zellen	-2287
▁stellt	-2288
▁interessant	-2289
▁Gesetz	-2290
▁sprach	-2291
▁Öl	-2292
▁Ist	-2293
rifft	-2294
▁langsam	-2295
elbe	-2296
▁benöt	-2297
zeigt	-2298
▁Tats	-2299
▁Autos	-2300
▁führt	-2301
▁trotz	-2302
▁ermö	-2303
▁Familien	-2304
▁gefunden	-2305
spr	-2306
aren	-2307
vers	-2308
▁Team	-2309
▁Lösung	-2310
wend	-2311
▁Ihren	-2312
▁Medik	-2313
ond	-2314
aktion	-2315
▁gescha	-2316
▁zweite	-2317
▁unseres	-2318
ool	-2319
chter	-2320
heorie	-2321
▁Liebe	-2322
äuf	-2323
cker	-2324
atten	-2325
weisen	-2326
▁Erfolg	-2327
▁verbunden	-2328
▁Engl	-2329
▁Prin	-2330
▁größten	-2331
▁Fähigkeit	-2332
man	-2333
ore	-2334
▁Go	-2335
▁Modell	-2336
▁sieben	-2337
rop	-2338
spiele	-2339
▁bitte	-2340
▁sterben	-2341
▁Ind	-2342
ieten	-2343
▁kaufen	-2344
telligen	-2345
sta	-2346
▁Is	-2347
zeuge	-2348
berfläche	-2349
▁Bru	-2350
gegen	-2351
▁Wahl	-2352
▁amerikan	-2353
alter	-2354
▁Heute	-2355
▁Labor	-2356
▁komplex	-2357
aw	-2358
bene	-2359
▁Bro	-2360
itein	-2361
jekte	-2362
▁scheint	-2363
Das	-2364
▁Fr	-2365
iven	-2366
igung	-2367
▁Innov	-2368
▁liebe	-2369
tworten	-2370
▁größte	-2371
aler	-2372
bten	-2373
spir	-2374
▁anderer	-2375
reiten	-2376
▁lesen	-2377
▁Gol	-2378
▁Mil	-2379
gaben	-2380
▁Unsere	-2381
▁draußen	-2382
▁herauszu	-2383
auft	-2384
▁Hoff	-2385
▁Zahl	-2386
▁Archite	-2387
▁welches	-2388
▁Bewegung	-2389
▁Wissenschaftler	-2390
▁Stand	-2391
sprochen	-2392
af	-2393
line	-2394
▁Gemeinschaft	-2395
▁dein	-2396
▁führ	-2397
▁Bedeut	-2398
▁beeinfl	-2399
völkerung	-2400
▁Na	-2401
jähr	-2402
▁eins	-2403
▁hast	-2404
wohn	-2405
äuft	-2406
unehmen	-2407
▁mitein	-2408
▁erinnern	-2409
ffiz	-2410
▁Sehen	-2411
▁Är	-2412
▁nahm	-2413
▁Europ	-2414
ware	-2415
▁gro	-2416
▁Jeder	-2417
▁gelernt	-2418
▁schließlich	-2419
dust	-2420
iver	-2421
▁Alter	-2422
▁gewesen	-2423
jen	-2424
ünstler	-2425
▁Medien	-2426
▁erschaffen	-2427
ity	-2428
bend	-2429
▁Eis	-2430
agieren	-2431
ochen	-2432
lassen	-2433
▁fanden	-2434
▁hinein	-2435
ance	-2436
▁bewusst	-2437
▁Natürlich	-2438
ose	-2439
inne	-2440
▁sehe	-2441
▁Ozean	-2442
▁passieren	-2443
zw	-2444
bel	-2445
▁60	-2446
iko	-2447
olz	-2448
ehler	-2449
▁essen	-2450
▁erklären	-2451
▁glücklich	-2452
ift	-2453
▁80	-2454
immer	-2455
▁Reihe	-2456
▁Bürger	-2457
▁gegenüber	-2458
▁Erw	-2459
▁Recht	-2460
▁länger	-2461
▁Verbindung	-2462
reck	-2463
▁Süd	-2464
▁Führ	-2465
▁Muster	-2466
In	-2467
sieht	-2468
▁erle	-2469
aß	-2470
ese	-2471
▁Technik	-2472
▁Tatsache	-2473
älter	-2474
▁Char	-2475
▁Wert	-2476
wasser	-2477
▁erfolg	-2478
▁jemals	-2479
▁Schritt	-2480
▁wachsen	-2481
▁Studenten	-2482
▁Jahrhundert	-2483
äß	-2484
fern	-2485
▁Vir	-2486
▁bist	-2487
▁daraus	-2488
▁Wahrheit	-2489
itut	-2490
lett	-2491
rain	-2492
reibt	-2493
gewöhn	-2494
gliche	-2495
▁gebaut	-2496
▁schwar	-2497
▁Kranken	-2498
▁unterst	-2499
▁geworden	-2500
▁nimmt	-2501
▁schlecht	-2502
Sch	-2503
▁CA	-2504
▁qu	-2505
▁übr	-2506
älfte	-2507
gessen	-2508
▁hinaus	-2509
▁konzentr	-2510
▁Blut	-2511
▁Technologien	-2512
▁Ris	-2513
▁deshalb	-2514
fäh	-2515
▁Fa	-2516
▁fr	-2517
ividu	-2518
gefühl	-2519
▁Alles	-2520
▁miteinander	-2521
▁br	-2522
▁möchten	-2523
▁nachdem	-2524
▁Richtung	-2525
▁aussehen	-2526
▁wissenschaft	-2527
itäten	-2528
▁Anzahl	-2529
ja	-2530
mo	-2531
oral	-2532
zeugt	-2533
▁neben	-2534
ämp	-2535
▁Platz	-2536
▁mache	-2537
▁Alle	-2538
▁beginnt	-2539
▁verloren	-2540
▁Tatsächlich	-2541
▁bew	-2542
▁kleines	-2543
▁anfangen	-2544
ve	-2545
lauf	-2546
▁Test	-2547
eid	-2548
örter	-2549
▁Blick	-2550
▁kleiner	-2551
rän	-2552
ativen	-2553
▁Einige	-2554
▁versch	-2555
ator	-2556
▁sofort	-2557
weis	-2558
merksam	-2559
zus	-2560
igit	-2561
▁Erk	-2562
▁tief	-2563
dustrie	-2564
ktu	-2565
ängen	-2566
▁Sicht	-2567
▁einzu	-2568
▁Stimme	-2569
▁danach	-2570
▁findet	-2571
▁gezeigt	-2572
▁schrieb	-2573
▁plötzlich	-2574
▁hil	-2575
▁Krankheit	-2576
rift	-2577
rauch	-2578
▁Aufgabe	-2579
▁bi	-2580
wand	-2581
▁Ihrem	-2582
▁stellte	-2583
▁überras	-2584
▁Forschung	-2585
▁Bildung	-2586
▁Deshalb	-2587
asen	-2588
spekt	-2589
▁Viel	-2590
▁laufen	-2591
▁Umgebung	-2592
▁Mot	-2593
änden	-2594
▁wert	-2595
▁guten	-2596
▁Fuß	-2597
unkte	-2598
▁Ihrer	-2599
▁Gewalt	-2600
▁Städte	-2601
▁beschäft	-2602
fon	-2603
▁raus	-2604
▁Gal	-2605
zeitig	-2606
lang	-2607
▁Bel	-2608
▁Teile	-2609
▁genannt	-2610
▁ind	-2611
kraft	-2612
▁bekommt	-2613
▁Veränderung	-2614
▁Vorstellung	-2615
echan	-2616
esent	-2617
▁fort	-2618
edizin	-2619
▁Rolle	-2620
▁schau	-2621
▁allein	-2622
wusstsein	-2623
öst	-2624
▁Mag	-2625
▁höher	-2626
▁entfernt	-2627
gn	-2628
si	-2629
aszin	-2630
raten	-2631
▁Bedeutung	-2632
sm	-2633
ezi	-2634
▁acht	-2635
▁grün	-2636
▁Mitte	-2637
▁Reise	-2638
▁verwendet	-2639
▁nachzu	-2640
▁Situation	-2641
prä	-2642
▁egal	-2643
▁Größe	-2644
sprechen	-2645
Wir	-2646
unk	-2647
urt	-2648
▁kü	-2649
▁tö	-2650
ines	-2651
▁tat	-2652
durch	-2653
gende	-2654
▁Kamer	-2655
▁aktiv	-2656
▁Hälfte	-2657
▁Wirklich	-2658
.“	-2659
ct	-2660
änge	-2661
▁sonst	-2662
▁Während	-2663
▁Demokrat	-2664
del	-2665
▁bewe	-2666
▁Sonnen	-2667
▁Mathemat	-2668
ame	-2669
▁Tem	-2670
▁Foto	-2671
▁samm	-2672
ies	-2673
dete	-2674
▁elekt	-2675
ierungen	-2676
radition	-2677
▁benutzt	-2678
▁Realität	-2679
▁veröffent	-2680
▁nachdenken	-2681
▁Aktiv	-2682
▁gefähr	-2683
rate	-2684
▁199	-2685
recht	-2686
▁niemals	-2687
▁Fä	-2688
ändig	-2689
äuser	-2690
▁hoffe	-2691
▁Meinung	-2692
▁Straßen	-2693
elte	-2694
▁Fisch	-2695
▁beide	-2696
▁reich	-2697
▁Ru	-2698
iten	-2699
▁Nie	-2700
▁Tür	-2701
▁Herausforderung	-2702
▁Dro	-2703
▁rei	-2704
zü	-2705
▁Erd	-2706
▁öff	-2707
▁Tele	-2708
sphäre	-2709
ysik	-2710
ichtet	-2711
ierend	-2712
▁beste	-2713
▁jemanden	-2714
Pro	-2715
fekt	-2716
ment	-2717
▁geh	-2718
immel	-2719
teilt	-2720
trolle	-2721
▁Studie	-2722
▁Vortrag	-2723
▁soziale	-2724
▁erreicht	-2725
▁weltweit	-2726
az	-2727
äss	-2728
▁Kil	-2729
▁bekam	-2730
▁techn	-2731
wirtschaft	-2732
gten	-2733
▁Nord	-2734
▁bekannt	-2735
▁verrück	-2736
▁erfolgreich	-2737
▁Entscheidungen	-2738
▁Ju	-2739
lant	-2740
affen	-2741
▁mögen	-2742
▁Information	-2743
▁Bar	-2744
▁kre	-2745
▁alten	-2746
▁extrem	-2747
ppe	-2748
tzut	-2749
ritten	-2750
▁gingen	-2751
ey	-2752
omb	-2753
eutzut	-2754
▁zeige	-2755
eutzutage	-2756
▁Entwicklungs	-2757
app	-2758
lage	-2759
▁Schü	-2760
▁rein	-2761
▁komplett	-2762
▁ur	-2763
ette	-2764
uchs	-2765
▁toll	-2766
▁ziehen	-2767
▁Prinzip	-2768
▁ru	-2769
ogra	-2770
▁DNA	-2771
▁kontroll	-2772
▁Rad	-2773
▁Tat	-2774
▁Chem	-2775
▁Kolle	-2776
▁daher	-2777
▁hinzu	-2778
arbeiten	-2779
▁gegeben	-2780
▁Wachstum	-2781
kre	-2782
▁Kal	-2783
▁Straße	-2784
▁Amerika	-2785
▁genommen	-2786
ertig	-2787
▁blau	-2788
tu	-2789
▁Bä	-2790
alls	-2791
tten	-2792
ehmer	-2793
▁Medizin	-2794
▁ak	-2795
dessen	-2796
▁fahren	-2797
nt	-2798
itel	-2799
▁Gef	-2800
iegen	-2801
▁Geist	-2802
▁Sonne	-2803
▁entst	-2804
▁schneller	-2805
▁wichtiger	-2806
rab	-2807
▁lau	-2808
ologen	-2809
▁Preis	-2810
bildung	-2811
▁Kosten	-2812
lekü	-2813
findet	-2814
▁stand	-2815
▁Zahlen	-2816
orf	-2817
▁11	-2818
arkt	-2819
antast	-2820
jenigen	-2821
▁Bakter	-2822
▁machten	-2823
roh	-2824
rech	-2825
▁zer	-2826
▁empf	-2827
▁Strom	-2828
▁setzen	-2829
ari	-2830
▁Nur	-2831
schul	-2832
stück	-2833
schieht	-2834
▁interessiert	-2835
istan	-2836
▁brachte	-2837
▁geschieht	-2838
▁Vereinigten	-2839
ister	-2840
ätzen	-2841
▁Einz	-2842
ftware	-2843
▁Nachrichten	-2844
▁herauszufinden	-2845
legt	-2846
rans	-2847
▁Gel	-2848
stein	-2849
▁geboren	-2850
▁Oberfläche	-2851
▁Meter	-2852
▁Hinter	-2853
▁Papier	-2854
struktur	-2855
▁Schauen	-2856
rim	-2857
▁Bücher	-2858
▁liegen	-2859
▁fliegen	-2860
▁Ergebnis	-2861
▁Fähigkeiten	-2862
ile	-2863
inz	-2864
zte	-2865
▁App	-2866
▁Maß	-2867
▁Firma	-2868
▁nennt	-2869
▁faszin	-2870
gebracht	-2871
▁Zeu	-2872
▁Goog	-2873
▁Fehler	-2874
▁früher	-2875
Die	-2876
gor	-2877
isse	-2878
▁bas	-2879
uchten	-2880
wissen	-2881
▁Europa	-2882
▁absolut	-2883
viel	-2884
auern	-2885
▁Jahrz	-2886
▁stimmt	-2887
indungen	-2888
▁Maschine	-2889
▁Gesundheits	-2890
▁Do	-2891
▁000	-2892
▁Sau	-2893
▁Tod	-2894
▁tot	-2895
ollen	-2896
▁Stat	-2897
▁enor	-2898
▁Beziehung	-2899
▁Generation	-2900
ieg	-2901
▁90	-2902
itzt	-2903
obil	-2904
ällt	-2905
▁bed	-2906
daten	-2907
▁Ganz	-2908
▁Kommun	-2909
▁Fortsch	-2910
ons	-2911
▁Har	-2912
abhäng	-2913
essour	-2914
▁Zeich	-2915
▁gesamte	-2916
▁einfache	-2917
amer	-2918
samm	-2919
▁Tro	-2920
▁Von	-2921
▁Männ	-2922
▁neues	-2923
▁lieben	-2924
!"	-2925
imp	-2926
schlag	-2927
schlagen	-2928
▁zerstör	-2929
wirkungen	-2930
▁wirtschaft	-2931
ssen	-2932
itter	-2933
▁nein	-2934
▁Druck	-2935
▁dachten	-2936
▁begannen	-2937
hand	-2938
ikel	-2939
iegel	-2940
▁erfor	-2941
▁sozialen	-2942
glie	-2943
▁Ding	-2944
▁Hoch	-2945
gendes	-2946
▁Hoffnung	-2947
▁geschrieben	-2948
üss	-2949
sell	-2950
▁lok	-2951
▁digit	-2952
tler	-2953
twas	-2954
▁Karte	-2955
merksamkeit	-2956
dert	-2957
ämpfen	-2958
▁Wieder	-2959
co	-2960
▁Auch	-2961
▁übert	-2962
ikation	-2963
▁tragen	-2964
▁zuerst	-2965
▁anstatt	-2966
▁gesprochen	-2967
fess	-2968
eller	-2969
▁heut	-2970
▁Psych	-2971
▁verurs	-2972
▁Evolution	-2973
▁Aufmerksamkeit	-2974
ime	-2975
▁OK	-2976
isst	-2977
verb	-2978
igens	-2979
üssel	-2980
▁gebe	-2981
▁Produkt	-2982
▁Experiment	-2983
▁Revolution	-2984
▁Sym	-2985
ussen	-2986
▁Park	-2987
lungen	-2988
▁lern	-2989
▁defin	-2990
▁Politik	-2991
isu	-2992
vent	-2993
▁prä	-2994
▁abzu	-2995
▁Genau	-2996
▁Google	-2997
▁bewegt	-2998
▁großer	-2999
▁Bewusstsein	-3000
atte	-3001
▁gleichzeitig	-3002
auber	-3003
▁ernst	-3004
▁Leiden	-3005
▁Seiten	-3006
▁Schulen	-3007
▁passierte	-3008
ales	-3009
pfen	-3010
▁bein	-3011
indest	-3012
▁sahen	-3013
▁Gruppen	-3014
▁ähnlich	-3015
▁16	-3016
▁Frü	-3017
laufen	-3018
▁älter	-3019
▁Behand	-3020
iot	-3021
▁Ad	-3022
ivil	-3023
nete	-3024
pfer	-3025
▁finde	-3026
▁Erinner	-3027
▁Studien	-3028
▁Bevölkerung	-3029
beh	-3030
▁Gu	-3031
deck	-3032
hnung	-3033
▁Wohl	-3034
▁Künstler	-3035
ama	-3036
ote	-3037
▁Ka	-3038
feld	-3039
hode	-3040
▁Sex	-3041
altung	-3042
▁verlassen	-3043
▁beobachten	-3044
▁Schön	-3045
▁vorbei	-3046
▁bestimmt	-3047
▁wichtige	-3048
▁Demokratie	-3049
▁bestimmten	-3050
iell	-3051
▁Dorf	-3052
▁stud	-3053
▁Zugang	-3054
▁kosten	-3055
▁Versuch	-3056
▁fre	-3057
▁nahe	-3058
▁Super	-3059
▁überw	-3060
▁Ressour	-3061
▁Pflanzen	-3062
kul	-3063
hang	-3064
imul	-3065
stra	-3066
ätze	-3067
▁verfü	-3068
▁versuchte	-3069
▁Ange	-3070
▁Orte	-3071
▁junge	-3072
▁näher	-3073
▁finanz	-3074
▁Mitgefühl	-3075
▁schlechte	-3076
▁gearbeitet	-3077
▁14	-3078
▁Fin	-3079
▁anf	-3080
▁Armut	-3081
▁Wörter	-3082
▁ansehen	-3083
▁Kan	-3084
▁Wel	-3085
mmern	-3086
▁Glau	-3087
elegen	-3088
▁kompl	-3089
▁Monaten	-3090
Wie	-3091
ickt	-3092
▁aut	-3093
▁kur	-3094
ologische	-3095
50	-3096
▁Uhr	-3097
orfen	-3098
▁Wind	-3099
▁Regeln	-3100
▁Spezie	-3101
▁Einfluss	-3102
▁Universität	-3103
▁ehr	-3104
▁Baum	-3105
▁Himmel	-3106
▁bedeuten	-3107
▁Kontrolle	-3108
▁Medikamen	-3109
ins	-3110
eltsam	-3111
▁Regen	-3112
▁ständig	-3113
echt	-3114
▁Sohn	-3115
bracht	-3116
▁inspir	-3117
▁spezie	-3118
▁fantast	-3119
lern	-3120
▁end	-3121
▁Mehr	-3122
▁Webs	-3123
▁natür	-3124
▁intern	-3125
▁Hig	-3126
▁blo	-3127
error	-3128
▁Besch	-3129
▁sitzen	-3130
▁Konzept	-3131
▁bessere	-3132
▁ö	-3133
▁HI	-3134
apan	-3135
herap	-3136
▁bald	-3137
▁falls	-3138
▁medizin	-3139
▁Menschheit	-3140
▁offensichtlich	-3141
letz	-3142
▁erg	-3143
▁verbessern	-3144
ix	-3145
enk	-3146
les	-3147
abel	-3148
▁Hel	-3149
▁Ton	-3150
▁verg	-3151
▁Eines	-3152
▁wider	-3153
▁Morgen	-3154
▁invest	-3155
▁richtige	-3156
▁Oh	-3157
dass	-3158
▁Wür	-3159
▁Phil	-3160
▁prakt	-3161
▁bleibt	-3162
▁Nachbar	-3163
indigkeit	-3164
▁richtigen	-3165
▁He	-3166
ützt	-3167
▁Trä	-3168
▁gek	-3169
▁Bill	-3170
▁Daher	-3171
ständnis	-3172
▁einzelne	-3173
▁Hü	-3174
stes	-3175
▁201	-3176
ierende	-3177
schluss	-3178
▁wussten	-3179
▁Software	-3180
▁vergessen	-3181
▁Krankheiten	-3182
wür	-3183
omat	-3184
ählt	-3185
blich	-3186
gemein	-3187
▁Poliz	-3188
▁ihres	-3189
▁Stelle	-3190
▁bilden	-3191
abil	-3192
arte	-3193
digen	-3194
kommt	-3195
ppen	-3196
rise	-3197
machen	-3198
▁moder	-3199
▁bemerken	-3200
itär	-3201
igner	-3202
ausend	-3203
▁posit	-3204
▁Molekü	-3205
▁großes	-3206
▁Beispiele	-3207
▁Vergangen	-3208
fre	-3209
▁möglichen	-3210
zähl	-3211
▁Kern	-3212
▁Lauf	-3213
to	-3214
▁On	-3215
▁Th	-3216
eits	-3217
ünft	-3218
▁HIV	-3219
▁Spaß	-3220
eitung	-3221
ielten	-3222
▁Orten	-3223
▁Prote	-3224
▁dahin	-3225
▁Können	-3226
▁arbeitete	-3227
sto	-3228
ums	-3229
▁Zw	-3230
dung	-3231
▁anschauen	-3232
▁Ku	-3233
ombin	-3234
▁Tagen	-3235
▁kannst	-3236
▁Grenzen	-3237
▁Schüler	-3238
▁Bus	-3239
schir	-3240
▁John	-3241
▁links	-3242
▁verlieren	-3243
klär	-3244
▁Vol	-3245
quenz	-3246
▁Zeug	-3247
▁Feuer	-3248
▁Firmen	-3249
▁Terror	-3250
▁erzeugen	-3251
▁Nachricht	-3252
▁zumindest	-3253
▁Entscheidung	-3254
▁70	-3255
▁Sc	-3256
orge	-3257
ufen	-3258
▁Galax	-3259
▁denkt	-3260
▁Gebiet	-3261
▁voller	-3262
▁erlaubt	-3263
▁Vergangenheit	-3264
bet	-3265
▁Bot	-3266
uchte	-3267
schung	-3268
▁Relig	-3269
▁deine	-3270
▁echte	-3271
▁fertig	-3272
▁aussieht	-3273
arm	-3274
org	-3275
▁Ord	-3276
ächen	-3277
▁erzählt	-3278
▁Arbei	-3279
▁Wirklichkeit	-3280
▁nachzudenken	-3281
räfte	-3282
▁Miss	-3283
teilen	-3284
▁Chris	-3285
▁erklär	-3286
▁Institut	-3287
▁irgendwo	-3288
go	-3289
aup	-3290
ürz	-3291
▁Ern	-3292
eisen	-3293
▁Hände	-3294
▁Worte	-3295
▁manche	-3296
▁gebracht	-3297
▁Bakterien	-3298
▁Innovation	-3299
igte	-3300
ital	-3301
▁Car	-3302
werfen	-3303
▁Leist	-3304
▁Personen	-3305
▁»	-3306
mäß	-3307
rig	-3308
▁17	-3309
▁reg	-3310
▁stär	-3311
ierter	-3312
▁Konfl	-3313
▁Spezies	-3314
▁arbeitet	-3315
▁Mathematik	-3316
▁Mü	-3317
rist	-3318
stru	-3319
▁Gut	-3320
▁Jed	-3321
troffen	-3322
▁schreck	-3323
▁Sekunden	-3324
ail	-3325
äte	-3326
merz	-3327
press	-3328
▁Wand	-3329
stelle	-3330
▁Gerät	-3331
▁führte	-3332
▁keiner	-3333
▁sodass	-3334
▁gesamten	-3335
oph	-3336
falt	-3337
ktor	-3338
▁häuf	-3339
▁Ebene	-3340
zeichnet	-3341
▁Nä	-3342
sion	-3343
▁auft	-3344
▁kaum	-3345
folgen	-3346
▁solchen	-3347
▁trotzdem	-3348
▁versuche	-3349
▁produzieren	-3350
mut	-3351
▁dest	-3352
▁traf	-3353
▁winz	-3354
▁Zentr	-3355
▁Geschw	-3356
▁gewalt	-3357
▁morgen	-3358
▁gewinnen	-3359
▁Ergebnisse	-3360
ath	-3361
ckte	-3362
▁Det	-3363
▁Elem	-3364
▁Sign	-3365
▁Theorie	-3366
▁Verantwort	-3367
▁hol	-3368
holen	-3369
ildet	-3370
stern	-3371
▁Baby	-3372
▁Nerv	-3373
ferenz	-3374
▁Stamm	-3375
▁retten	-3376
▁seltsam	-3377
▁befinden	-3378
licherweise	-3379
▁heutzutage	-3380
▁interessante	-3381
▁—	-3382
met	-3383
altet	-3384
▁Objekt	-3385
▁bestimmte	-3386
▁Amerikaner	-3387
▁bau	-3388
▁umzu	-3389
utzung	-3390
zimmer	-3391
ingungen	-3392
▁Ressourcen	-3393
win	-3394
äst	-3395
▁et	-3396
orben	-3397
▁Monat	-3398
▁nenne	-3399
▁Meeres	-3400
▁zeigte	-3401
▁Arbeits	-3402
▁gekommen	-3403
▁geschehen	-3404
ograph	-3405
▁runter	-3406
▁erfahren	-3407
▁verbinden	-3408
▁Regierungen	-3409
▁Fe	-3410
ball	-3411
▁Gra	-3412
▁riesige	-3413
▁globalen	-3414
▁Wahrscheinlich	-3415
öpf	-3416
▁CO	-3417
▁Rau	-3418
anter	-3419
genie	-3420
werke	-3421
reitet	-3422
▁Frieden	-3423
▁untersuchen	-3424
Un	-3425
fg	-3426
hei	-3427
▁neun	-3428
▁aufre	-3429
osition	-3430
▁Chance	-3431
▁Gefäng	-3432
▁Telefon	-3433
▁einzelnen	-3434
▁unmöglich	-3435
uhr	-3436
bert	-3437
▁Not	-3438
itten	-3439
▁vorh	-3440
ometer	-3441
▁dritte	-3442
▁gefragt	-3443
▁Präsi	-3444
peratur	-3445
▁aufgrund	-3446
ane	-3447
twend	-3448
▁erhö	-3449
sprach	-3450
▁Landes	-3451
▁tä	-3452
aben	-3453
ücht	-3454
▁Gefü	-3455
▁rund	-3456
wenden	-3457
▁Bezug	-3458
▁Linie	-3459
▁Ir	-3460
▁Dien	-3461
assung	-3462
▁entdecken	-3463
▁21	-3464
rägt	-3465
▁Bas	-3466
▁tie	-3467
▁Mark	-3468
▁alte	-3469
▁hilft	-3470
ationalen	-3471
▁Kollegen	-3472
len	-3473
ehme	-3474
▁lebt	-3475
▁irgendw	-3476
▁großartige	-3477
ret	-3478
▁13	-3479
zial	-3480
▁Heim	-3481
▁Kampf	-3482
▁danke	-3483
▁reduz	-3484
ssystem	-3485
▁Nahrung	-3486
tert	-3487
▁Lei	-3488
▁hab	-3489
emand	-3490
schön	-3491
▁Haut	-3492
▁niedr	-3493
▁psych	-3494
▁jungen	-3495
▁sowohl	-3496
▁Gelegen	-3497
▁Partner	-3498
▁Erwachsen	-3499
▁verstanden	-3500
▁herausfinden	-3501
ov	-3502
schu	-3503
indet	-3504
sprün	-3505
▁wann	-3506
▁Außer	-3507
▁Invest	-3508
▁Ordnung	-3509
▁organis	-3510
▁Auswirkungen	-3511
ry	-3512
fghan	-3513
grupp	-3514
▁Oper	-3515
▁zufä	-3516
▁Damit	-3517
▁hörte	-3518
▁Jahres	-3519
▁großartig	-3520
▁entschieden	-3521
Oh	-3522
Sp	-3523
reche	-3524
▁Diag	-3525
▁Disk	-3526
▁läuft	-3527
▁moral	-3528
ständig	-3529
▁leisten	-3530
stre	-3531
leist	-3532
reise	-3533
glicht	-3534
otwend	-3535
▁hinge	-3536
▁erzählte	-3537
ou	-3538
▁he	-3539
asche	-3540
▁Höhe	-3541
▁Verl	-3542
▁Wohn	-3543
▁fing	-3544
▁hält	-3545
▁visu	-3546
▁Geheim	-3547
gleichen	-3548
▁dadurch	-3549
▁zweiten	-3550
▁einander	-3551
▁gestellt	-3552
abr	-3553
gest	-3554
▁198	-3555
stände	-3556
▁Sinne	-3557
▁genet	-3558
▁kommun	-3559
▁rechts	-3560
ationale	-3561
▁sammeln	-3562
ologischen	-3563
▁ermöglicht	-3564
▁normalerweise	-3565
ille	-3566
▁lag	-3567
odell	-3568
motion	-3569
stoffe	-3570
▁Formen	-3571
zunehmen	-3572
▁Glauben	-3573
▁arbeite	-3574
▁öffentlichen	-3575
▁Ak	-3576
▁My	-3577
grün	-3578
▁tau	-3579
volle	-3580
▁Herr	-3581
▁Stre	-3582
astrop	-3583
zahlen	-3584
▁Zivil	-3585
▁Bienen	-3586
▁warten	-3587
▁übrigens	-3588
lam	-3589
▁1,	-3590
wart	-3591
▁Inf	-3592
▁Ker	-3593
schiede	-3594
arbeiter	-3595
▁Million	-3596
▁tradition	-3597
▁geschaffen	-3598
aur	-3599
ven	-3600
▁Brust	-3601
▁Fotos	-3602
▁entwe	-3603
▁einzig	-3604
▁Freiheit	-3605
▁bestehen	-3606
▁außerhalb	-3607
▁diejenigen	-3608
xu	-3609
reg	-3610
ude	-3611
▁ca	-3612
buch	-3613
▁Ben	-3614
▁höch	-3615
▁uner	-3616
nungen	-3617
greifen	-3618
ativität	-3619
▁Methode	-3620
▁befindet	-3621
alle	-3622
▁Büro	-3623
▁Sand	-3624
▁Nummer	-3625
▁Transp	-3626
▁Beziehungen	-3627
▁Krankenhaus	-3628
▁Organisation	-3629
ek	-3630
deten	-3631
rochen	-3632
▁Geburt	-3633
▁verste	-3634
▁Gehirns	-3635
▁Systeme	-3636
▁Reaktion	-3637
par	-3638
▁Vo	-3639
▁of	-3640
schn	-3641
ynam	-3642
zwei	-3643
▁Kur	-3644
▁Arzt	-3645
▁Mich	-3646
▁Wesen	-3647
ffizien	-3648
▁handelt	-3649
▁entdeckt	-3650
▁herunter	-3651
hy	-3652
▁is	-3653
folge	-3654
▁Noch	-3655
▁taten	-3656
▁Ärzte	-3657
▁Gründe	-3658
▁schützen	-3659
leb	-3660
▁Sa	-3661
ießen	-3662
inder	-3663
▁gesp	-3664
▁Fluss	-3665
▁desto	-3666
▁bisher	-3667
▁messen	-3668
▁Entdeck	-3669
▁welcher	-3670
▁Schlüssel	-3671
▁Architektur	-3672
▁sta	-3673
▁Berg	-3674
▁Hirn	-3675
änomen	-3676
▁Geräu	-3677
▁Regel	-3678
▁Jungen	-3679
▁ebenso	-3680
iter	-3681
ährt	-3682
ritte	-3683
▁Liebl	-3684
unächst	-3685
▁Drogen	-3686
▁spielt	-3687
▁einzigen	-3688
▁Maschinen	-3689
▁Verständnis	-3690
Ja	-3691
up	-3692
schte	-3693
aschen	-3694
▁Farbe	-3695
▁König	-3696
▁Beginn	-3697
▁gewöhn	-3698
▁selben	-3699
▁Ingenie	-3700
▁Flugzeug	-3701
stellungen	-3702
▁betrachtet	-3703
arf	-3704
▁Sy	-3705
icks	-3706
▁ant	-3707
▁Fakt	-3708
▁Gespr	-3709
▁unterstützen	-3710
mt	-3711
stä	-3712
ivat	-3713
önen	-3714
ision	-3715
▁Abend	-3716
▁mächt	-3717
isieren	-3718
▁Klimaw	-3719
▁Netzwerk	-3720
orn	-3721
nehm	-3722
onie	-3723
▁Bis	-3724
wärts	-3725
dienen	-3726
liegen	-3727
▁Liste	-3728
▁fühlte	-3729
▁entweder	-3730
tag	-3731
ürf	-3732
▁Lö	-3733
▁äu	-3734
illen	-3735
▁berühm	-3736
▁effekt	-3737
▁herstellen	-3738
▁grü	-3739
▁Gene	-3740
▁Inse	-3741
▁bean	-3742
▁phys	-3743
gebaut	-3744
schirm	-3745
▁Bühne	-3746
▁Punkte	-3747
▁Stunde	-3748
▁Artikel	-3749
War	-3750
apt	-3751
iti	-3752
Nein	-3753
ifor	-3754
stag	-3755
▁Mars	-3756
▁lief	-3757
▁Traum	-3758
▁Verfü	-3759
▁Manchmal	-3760
▁Zeitpunkt	-3761
oo	-3762
zer	-3763
lose	-3764
▁mer	-3765
▁opt	-3766
▁Anal	-3767
▁Name	-3768
▁Finger	-3769
ierenden	-3770
▁dasselbe	-3771
▁getroffen	-3772
▁grundlegen	-3773
▁Ök	-3774
lebt	-3775
ügen	-3776
unger	-3777
▁Komm	-3778
▁drin	-3779
achtet	-3780
selben	-3781
▁guter	-3782
▁Herzen	-3783
▁durchge	-3784
▁Individu	-3785
▁Interesse	-3786
▁Behandlung	-3787
bed	-3788
▁setz	-3789
▁erleben	-3790
▁Englisch	-3791
▁erwarten	-3792
rak	-3793
urg	-3794
▁Kä	-3795
such	-3796
maßen	-3797
passen	-3798
▁belie	-3799
▁gutes	-3800
▁Finanz	-3801
▁National	-3802
▁amerikanischen	-3803
ake	-3804
kop	-3805
orgt	-3806
▁San	-3807
▁Muse	-3808
▁Pass	-3809
▁Einer	-3810
▁mehrere	-3811
▁Lösungen	-3812
▁heutigen	-3813
▁Einkommen	-3814
▁Erfahrungen	-3815
▁Jahrhunderts	-3816
amb	-3817
seh	-3818
zut	-3819
iels	-3820
ilien	-3821
▁Lond	-3822
▁Ereig	-3823
▁hundert	-3824
kur	-3825
stütz	-3826
▁cool	-3827
▁inte	-3828
fassen	-3829
▁unver	-3830
▁Einzel	-3831
▁behaup	-3832
▁benutz	-3833
▁wenige	-3834
▁erinnere	-3835
▁Gefängnis	-3836
öse	-3837
will	-3838
▁The	-3839
▁jene	-3840
▁umge	-3841
ritann	-3842
rücken	-3843
▁Poten	-3844
▁Tisch	-3845
▁sowie	-3846
frieden	-3847
▁Lernen	-3848
▁Funktion	-3849
▁Veränderungen	-3850
tra	-3851
unt	-3852
örp	-3853
▁kn	-3854
▁Än	-3855
plan	-3856
▁unge	-3857
▁nahmen	-3858
gefunden	-3859
▁Medikamente	-3860
Es	-3861
vie	-3862
iete	-3863
▁Fel	-3864
▁Mär	-3865
▁Quad	-3866
▁aktu	-3867
barkeit	-3868
▁spricht	-3869
▁schicken	-3870
urm	-3871
eigt	-3872
sser	-3873
istor	-3874
▁früh	-3875
frikan	-3876
entlich	-3877
▁Manche	-3878
▁Wunder	-3879
▁ebenfalls	-3880
▁verkaufen	-3881
▁on	-3882
gnor	-3883
▁500	-3884
▁Fen	-3885
▁Öff	-3886
flanz	-3887
fälle	-3888
▁Inner	-3889
▁Kamera	-3890
▁Risiko	-3891
▁Teilen	-3892
▁Hy	-3893
ente	-3894
▁wün	-3895
Warum	-3896
enken	-3897
krieg	-3898
ption	-3899
riere	-3900
▁Wege	-3901
▁Instr	-3902
▁Japan	-3903
▁Jedes	-3904
brechen	-3905
▁Worten	-3906
▁selten	-3907
▁voraus	-3908
▁wählen	-3909
▁Industrie	-3910
▁behandeln	-3911
maß	-3912
▁pr	-3913
eien	-3914
etten	-3915
produ	-3916
▁Ball	-3917
▁krei	-3918
▁fällt	-3919
sichtig	-3920
▁Sommer	-3921
▁Zeiten	-3922
▁ehrlich	-3923
rastruktur	-3924
ikt	-3925
fter	-3926
räge	-3927
▁Ser	-3928
iforn	-3929
▁hart	-3930
▁Haben	-3931
ierungs	-3932
▁Afghan	-3933
▁verhin	-3934
hre	-3935
▁km	-3936
ails	-3937
gien	-3938
umor	-3939
gress	-3940
istisch	-3941
▁Erkennt	-3942
▁gedacht	-3943
▁erfunden	-3944
▁jemandem	-3945
▁einfachen	-3946
▁intelligen	-3947
▁Verantwortung	-3948
ac	-3949
pu	-3950
▁dür	-3951
dings	-3952
isser	-3953
wendung	-3954
▁Bedürf	-3955
▁Schwar	-3956
▁Erstens	-3957
▁geschah	-3958
▁außergewöhn	-3959
▁Eigenschaften	-3960
ilt	-3961
prü	-3962
▁Win	-3963
bewer	-3964
scher	-3965
▁Auge	-3966
alismus	-3967
▁London	-3968
▁wesent	-3969
ritannien	-3970
▁Vergleich	-3971
bald	-3972
▁Kol	-3973
▁erwei	-3974
organis	-3975
zusagen	-3976
▁elektr	-3977
▁Komplex	-3978
▁Designer	-3979
aul	-3980
▁Ok	-3981
pekt	-3982
wech	-3983
seite	-3984
schutz	-3985
▁Junge	-3986
▁Kreis	-3987
▁Werte	-3988
▁komme	-3989
▁Ahnung	-3990
▁Männern	-3991
▁Schönheit	-3992
▁existiert	-3993
▁unglaubliche	-3994
Ver	-3995
lagen	-3996
▁kultur	-3997
▁konzentrieren	-3998
"-	-3999
Ge	-4000
bol	-4001
kam	-4002
webe	-4003
▁för	-4004
unsch	-4005
isiert	-4006
▁Tieren	-4007
▁verbringen	-4008
▁Bu	-4009
▁Wol	-4010
techn	-4011
ütter	-4012
▁Nähe	-4013
▁bill	-4014
▁nutz	-4015
▁äußer	-4016
präsent	-4017
▁lernte	-4018
▁sobald	-4019
▁Städten	-4020
▁Religion	-4021
▁überleben	-4022
▁Intelligen	-4023
enze	-4024
reib	-4025
stieg	-4026
unkel	-4027
▁Ident	-4028
erstoff	-4029
▁öffnen	-4030
▁Zustand	-4031
▁nachhalt	-4032
▁verrückt	-4033
▁wunderbar	-4034
▁Kommunikation	-4035
ka	-4036
inos	-4037
ourn	-4038
▁Mut	-4039
bieren	-4040
▁entsp	-4041
▁Westen	-4042
▁frühen	-4043
▁Biologie	-4044
▁Freunden	-4045
alisierung	-4046
▁Charakter	-4047
▁Cl	-4048
auert	-4049
▁dank	-4050
raucht	-4051
▁zeich	-4052
▁Freude	-4053
▁Physik	-4054
▁fangen	-4055
▁eigenes	-4056
▁Projekte	-4057
▁unabhäng	-4058
britannien	-4059
frage	-4060
stadt	-4061
▁Erst	-4062
ennung	-4063
▁emotion	-4064
▁spreche	-4065
▁gegangen	-4066
▁angefangen	-4067
▁Wirtschafts	-4068
weil	-4069
▁197	-4070
▁Bio	-4071
hlten	-4072
masch	-4073
▁ident	-4074
itionen	-4075
▁Region	-4076
▁Schutz	-4077
▁Spitze	-4078
▁trifft	-4079
▁Jahrzeh	-4080
▁Antworten	-4081
▁Verfügung	-4082
seit	-4083
▁Dav	-4084
frika	-4085
▁Kurz	-4086
▁perfe	-4087
▁ursprün	-4088
sellschaft	-4089
▁Materialien	-4090
bü	-4091
▁Sh	-4092
▁300	-4093
▁eng	-4094
▁Prot	-4095
▁Wald	-4096
▁gehe	-4097
ochter	-4098
▁Waffen	-4099
▁Produkte	-4100
geg	-4101
▁Mö	-4102
afen	-4103
▁Ins	-4104
▁Arme	-4105
▁hört	-4106
▁fallen	-4107
▁begonnen	-4108
▁entstehen	-4109
▁Sauerstoff	-4110
▁Gelegenheit	-4111
▁kontrollieren	-4112
gier	-4113
ikas	-4114
ielle	-4115
▁Drei	-4116
▁Grad	-4117
orgung	-4118
rachte	-4119
▁Bäume	-4120
▁seines	-4121
▁riesigen	-4122
▁geschafft	-4123
▁Überleben	-4124
▁herzustellen	-4125
▁Infrastruktur	-4126
Er	-4127
▁24	-4128
konom	-4129
▁Nehmen	-4130
▁Schluss	-4131
▁erzeugt	-4132
▁globale	-4133
▁größere	-4134
▁Unterstütz	-4135
▁Leidenschaft	-4136
cebo	-4137
▁Tal	-4138
einer	-4139
uster	-4140
▁Dort	-4141
▁Krie	-4142
▁echt	-4143
▁west	-4144
istenz	-4145
▁Organ	-4146
drücken	-4147
ichtbar	-4148
▁Hunder	-4149
▁chines	-4150
▁genutzt	-4151
▁Interess	-4152
▁beeinflusst	-4153
ärm	-4154
oper	-4155
sinn	-4156
▁Pal	-4157
▁ließ	-4158
▁Zelle	-4159
▁Farben	-4160
▁Massen	-4161
▁akzept	-4162
▁online	-4163
▁Polizei	-4164
▁brauchte	-4165
▁größeren	-4166
▁Geschäfts	-4167
▁aufgenommen	-4168
▁Verbindungen	-4169
▁Pe	-4170
▁Atmo	-4171
▁High	-4172
▁Wider	-4173
haltung	-4174
▁Strate	-4175
▁häufig	-4176
▁Knochen	-4177
▁Tochter	-4178
▁Unterschiede	-4179
ID	-4180
dre	-4181
▁Ep	-4182
▁Del	-4183
lange	-4184
neten	-4185
▁Plast	-4186
setzung	-4187
stellte	-4188
▁Privat	-4189
▁erwähn	-4190
▁Fenster	-4191
▁Ausdruck	-4192
▁reagieren	-4193
▁Kreativität	-4194
▁wichtigsten	-4195
▁Großbritannien	-4196
lef	-4197
kung	-4198
netz	-4199
▁Pil	-4200
▁kor	-4201
▁Kons	-4202
▁Text	-4203
wohner	-4204
▁sogen	-4205
▁bezahl	-4206
▁kämpfen	-4207
▁mittler	-4208
▁Vielfalt	-4209
▁erstaunlich	-4210
▁politischen	-4211
▁überraschen	-4212
▁Entwicklungsl	-4213
ox	-4214
ami	-4215
anda	-4216
▁Opfer	-4217
▁Sport	-4218
▁fühlt	-4219
▁Schlaf	-4220
ettbewer	-4221
sätzlich	-4222
▁ermöglichen	-4223
fs	-4224
rael	-4225
hause	-4226
▁wirk	-4227
utlich	-4228
▁Suche	-4229
eutlich	-4230
▁Altern	-4231
▁Häuser	-4232
▁Rücken	-4233
▁notwend	-4234
geschichte	-4235
▁Werkzeuge	-4236
▁weiterhin	-4237
hö	-4238
text	-4239
▁Mir	-4240
▁Wal	-4241
▁fehl	-4242
riffen	-4243
▁Klasse	-4244
minister	-4245
zeichnen	-4246
▁endlich	-4247
▁schlimm	-4248
▁Nahrungs	-4249
▁Standard	-4250
▁verantwort	-4251
▁beeinflussen	-4252
▁Geschwindigkeit	-4253
ana	-4254
rum	-4255
üsse	-4256
▁typ	-4257
ilder	-4258
▁Denk	-4259
▁Glas	-4260
▁Klei	-4261
▁blie	-4262
▁lust	-4263
▁fühle	-4264
▁Schlag	-4265
▁entlang	-4266
An	-4267
rug	-4268
holt	-4269
▁nöt	-4270
▁Bank	-4271
▁Best	-4272
▁Mond	-4273
▁Seit	-4274
▁okay	-4275
▁Frank	-4276
▁kenne	-4277
▁Ansatz	-4278
istische	-4279
▁Gefühle	-4280
▁handeln	-4281
▁Phänomen	-4282
▁einfacher	-4283
▁produziert	-4284
mel	-4285
geht	-4286
leun	-4287
stab	-4288
▁gilt	-4289
imente	-4290
▁Gehir	-4291
▁Osten	-4292
▁seien	-4293
schauen	-4294
▁langen	-4295
▁dorthin	-4296
▁kompliz	-4297
▁vertrau	-4298
▁deutlich	-4299
▁Kilometer	-4300
▁Erf	-4301
iesen	-4302
sagen	-4303
▁Hall	-4304
▁Letz	-4305
▁nütz	-4306
tember	-4307
▁Todes	-4308
▁hielt	-4309
▁Nichts	-4310
▁Klassen	-4311
▁Statist	-4312
▁Version	-4313
▁Temperatur	-4314
pe	-4315
ain	-4316
Wenn	-4317
orte	-4318
vert	-4319
▁196	-4320
▁Los	-4321
▁Tim	-4322
▁Web	-4323
akten	-4324
artig	-4325
lecht	-4326
▁Körp	-4327
▁Loch	-4328
▁Vari	-4329
iertel	-4330
▁transp	-4331
undament	-4332
▁Gewicht	-4333
▁Afghanistan	-4334
gra	-4335
wahr	-4336
▁Sal	-4337
atter	-4338
heben	-4339
schlä	-4340
▁anal	-4341
▁buch	-4342
▁krit	-4343
fallen	-4344
▁nehme	-4345
▁schaut	-4346
▁erlauben	-4347
▁stellten	-4348
cy	-4349
▁Jo	-4350
▁Rä	-4351
opul	-4352
▁Zit	-4353
bruch	-4354
gorit	-4355
▁abst	-4356
führer	-4357
dit	-4358
renz	-4359
swer	-4360
dimen	-4361
▁Müll	-4362
▁verbl	-4363
änderte	-4364
▁Neuronen	-4365
▁Soldaten	-4366
▁entsteht	-4367
▁erstellen	-4368
ört	-4369
hilfe	-4370
cebook	-4371
umente	-4372
▁Beruf	-4373
▁gaben	-4374
▁Kunden	-4375
▁kostet	-4376
▁ändert	-4377
spektive	-4378
▁Ameisen	-4379
▁Schrift	-4380
▁Facebook	-4381
▁Karriere	-4382
▁Botschaft	-4383
▁behandelt	-4384
▁politische	-4385
▁Zusammenhang	-4386
▁Gesellschaften	-4387
ged	-4388
otyp	-4389
▁zug	-4390
▁Holz	-4391
▁darf	-4392
▁David	-4393
▁spezi	-4394
▁ganzes	-4395
zur	-4396
view	-4397
eitet	-4398
etter	-4399
▁kürz	-4400
andels	-4401
formen	-4402
indust	-4403
nissen	-4404
osystem	-4405
▁Karten	-4406
▁Kohlen	-4407
▁Einsatz	-4408
▁Zeichen	-4409
▁dagegen	-4410
▁Korallen	-4411
▁entschied	-4412
▁Produktion	-4413
kauf	-4414
omin	-4415
pfel	-4416
▁jün	-4417
fisch	-4418
mögen	-4419
▁krie	-4420
▁Typen	-4421
▁Virus	-4422
▁künst	-4423
▁legen	-4424
▁erhält	-4425
▁leiden	-4426
▁passen	-4427
▁perfekt	-4428
▁Position	-4429
▁verkauft	-4430
▁erforschen	-4431
gere	-4432
gern	-4433
ikal	-4434
acken	-4435
▁Port	-4436
▁Satz	-4437
▁Offen	-4438
änglich	-4439
ifornien	-4440
▁Diskuss	-4441
▁Materie	-4442
alisieren	-4443
industrie	-4444
▁Insekten	-4445
▁betrifft	-4446
▁Ausbildung	-4447
▁Bedingungen	-4448
▁Lebensmittel	-4449
SA	-4450
▁iP	-4451
bank	-4452
▁Bef	-4453
▁and	-4454
▁res	-4455
beweg	-4456
artige	-4457
schrän	-4458
▁Klima	-4459
▁Sterne	-4460
▁Wunsch	-4461
▁afrikan	-4462
▁steigen	-4463
▁Werkzeug	-4464
▁Komplexität	-4465
▁veröffentlicht	-4466
fil	-4467
fit	-4468
oge	-4469
spl	-4470
tend	-4471
älte	-4472
▁saß	-4473
hoden	-4474
▁Gang	-4475
▁Szen	-4476
▁bloß	-4477
▁davor	-4478
▁solch	-4479
okument	-4480
▁Result	-4481
▁verfüg	-4482
zwischen	-4483
▁Niemand	-4484
▁Spielen	-4485
▁alleine	-4486
▁weiteres	-4487
▁Fortschritt	-4488
üh	-4489
vel	-4490
laden	-4491
▁2000	-4492
▁Haar	-4493
▁chem	-4494
recher	-4495
▁Kontakt	-4496
▁letztes	-4497
▁Aufgaben	-4498
▁Qualität	-4499
▁benötigen	-4500
▁Atmosphäre	-4501
▁verursacht	-4502
▁Klimawandel	-4503
▁investieren	-4504
▁Unterstützung	-4505
kn	-4506
▁.	-4507
keln	-4508
▁Dis	-4509
▁Jede	-4510
▁habt	-4511
▁schn	-4512
digung	-4513
ährung	-4514
klärung	-4515
▁Drittel	-4516
▁Gemeinde	-4517
▁gewonnen	-4518
▁überzeugt	-4519
▁beschreiben	-4520
yr	-4521
abe	-4522
how	-4523
▁Kir	-4524
▁Säu	-4525
dingt	-4526
▁Brie	-4527
▁vern	-4528
▁Babys	-4529
▁Titel	-4530
gewicht	-4531
▁Sekunde	-4532
▁Fernsehen	-4533
▁entwickelten	-4534
▁kommunizieren	-4535
uz	-4536
Sie	-4537
etr	-4538
ost	-4539
▁sü	-4540
▁us	-4541
▁Zug	-4542
halte	-4543
▁Heil	-4544
▁spür	-4545
wirken	-4546
▁Ziele	-4547
▁klingt	-4548
▁Profess	-4549
▁begeister	-4550
▁Ökosystem	-4551
IDS	-4552
▁Mc	-4553
imal	-4554
▁Nor	-4555
▁vir	-4556
urcht	-4557
▁Auss	-4558
▁Band	-4559
▁Blog	-4560
▁Deut	-4561
▁Will	-4562
atisch	-4563
derung	-4564
vollen	-4565
▁Vogel	-4566
▁dauer	-4567
bereich	-4568
▁leider	-4569
sächlich	-4570
▁schafft	-4571
zubringen	-4572
▁Zweitens	-4573
▁Universums	-4574
▁Intelligenz	-4575
▁Zusammenarbeit	-4576
▁X	-4577
änn	-4578
▁Kop	-4579
▁See	-4580
appen	-4581
losen	-4582
▁Abst	-4583
▁Feld	-4584
▁Hund	-4585
spielt	-4586
schloss	-4587
▁Zentrum	-4588
▁umgehen	-4589
▁Untersuch	-4590
ipp	-4591
ong	-4592
arch	-4593
▁Trans	-4594
▁neuer	-4595
▁zentr	-4596
▁Jugend	-4597
▁Wandel	-4598
▁Mitglie	-4599
▁Schwier	-4600
▁buchstä	-4601
▁unbedingt	-4602
▁überzeugen	-4603
die	-4604
▁su	-4605
ames	-4606
serv	-4607
▁Bud	-4608
▁Zur	-4609
▁rel	-4610
rücke	-4611
▁Auft	-4612
▁Eind	-4613
ournal	-4614
▁Fällen	-4615
▁lautet	-4616
▁Schmerz	-4617
dimension	-4618
▁vermutlich	-4619
▁wunderschön	-4620
▁Organisationen	-4621
asi	-4622
▁Spr	-4623
atell	-4624
auran	-4625
ender	-4626
riffe	-4627
▁Fach	-4628
▁Fein	-4629
▁Stär	-4630
▁erfü	-4631
▁ober	-4632
▁haupt	-4633
hältnis	-4634
▁Spiele	-4635
▁Plastik	-4636
▁rechten	-4637
indestens	-4638
▁Hintergrund	-4639
▁herausgefunden	-4640
▁,	-4641
reu	-4642
eils	-4643
ford	-4644
port	-4645
▁Hor	-4646
▁Mex	-4647
eligi	-4648
▁City	-4649
▁Jobs	-4650
▁West	-4651
▁inst	-4652
▁trau	-4653
aurier	-4654
▁Handy	-4655
▁tolle	-4656
▁Schiff	-4657
▁Forscher	-4658
▁außerdem	-4659
▁dieselbe	-4660
▁wiederum	-4661
▁Identität	-4662
▁vollkommen	-4663
▁durchgeführt	-4664
Du	-4665
anne	-4666
ämpf	-4667
▁20.	-4668
▁Bal	-4669
▁Dre	-4670
▁Red	-4671
frist	-4672
impan	-4673
osoph	-4674
▁Genom	-4675
▁Reich	-4676
athemat	-4677
otograf	-4678
▁Einfach	-4679
▁Vertrauen	-4680
▁verbreitet	-4681
▁übertragen	-4682
▁beschäftigt	-4683
ca	-4684
▁Che	-4685
▁Dir	-4686
▁Rom	-4687
krebs	-4688
▁geha	-4689
▁krank	-4690
steller	-4691
▁drehen	-4692
▁Gesetze	-4693
▁Gründen	-4694
▁Objekte	-4695
▁fragten	-4696
▁verdienen	-4697
▁Landwirtschaft	-4698
0,	-4699
▁Ei	-4700
mung	-4701
▁Ken	-4702
▁Zwe	-4703
▁usw	-4704
▁Statt	-4705
▁sitzt	-4706
▁spiel	-4707
▁antwor	-4708
▁selber	-4709
▁sorgen	-4710
▁erklärt	-4711
▁stecken	-4712
▁Schimpan	-4713
▁besitzen	-4714
▁Problemen	-4715
▁gestalten	-4716
▁sicherlich	-4717
▁&	-4718
ehnt	-4719
lege	-4720
haben	-4721
▁Fabr	-4722
▁entw	-4723
gument	-4724
▁Basis	-4725
▁Keine	-4726
▁Mobil	-4727
▁absch	-4728
▁wirst	-4729
aterial	-4730
führung	-4731
▁Sorgen	-4732
▁Zuerst	-4733
richtung	-4734
▁geführt	-4735
▁Großteil	-4736
▁benötigt	-4737
▁bezahlen	-4738
▁buchstäblich	-4739
rid	-4740
ruf	-4741
stu	-4742
▁Vö	-4743
▁at	-4744
fält	-4745
ling	-4746
▁Tau	-4747
▁zuk	-4748
ektor	-4749
folgt	-4750
lette	-4751
platz	-4752
▁Brot	-4753
oppelt	-4754
▁Beine	-4755
spieler	-4756
▁Nutzen	-4757
▁bitten	-4758
▁erstes	-4759
▁Modelle	-4760
▁erwartet	-4761
▁individu	-4762
▁Wü	-4763
hört	-4764
▁Eins	-4765
▁Sehr	-4766
▁Masse	-4767
▁Schau	-4768
▁Stoff	-4769
isation	-4770
zeichen	-4771
▁schöne	-4772
▁gelangen	-4773
▁zufällig	-4774
▁sozusagen	-4775
▁natürliche	-4776
ieß	-4777
chtz	-4778
ügel	-4779
▁Fün	-4780
front	-4781
ätsel	-4782
▁Chin	-4783
▁Fest	-4784
▁sinn	-4785
▁Affen	-4786
entwick	-4787
ächtnis	-4788
▁Online	-4789
▁dürfen	-4790
▁hinweg	-4791
isierung	-4792
▁Wichtig	-4793
▁anderem	-4794
▁kümmern	-4795
▁stärker	-4796
istischen	-4797
▁Konferenz	-4798
▁bestimmen	-4799
ada	-4800
▁1.	-4801
▁Fo	-4802
fert	-4803
ötet	-4804
fügen	-4805
hafte	-4806
▁Bett	-4807
▁Graf	-4808
▁läch	-4809
iellen	-4810
▁Stein	-4811
▁Zusch	-4812
▁dreht	-4813
▁hohen	-4814
▁wohin	-4815
teilung	-4816
▁Erzähl	-4817
▁werfen	-4818
▁Öffent	-4819
aktionen	-4820
▁derzeit	-4821
▁zukünft	-4822
▁modernen	-4823
▁repräsent	-4824
▁Bildschirm	-4825
▁mindestens	-4826
grö	-4827
ice	-4828
▁As	-4829
amin	-4830
▁nah	-4831
▁Rede	-4832
▁Austr	-4833
▁Train	-4834
▁Dienst	-4835
ungskraft	-4836
▁Milliarde	-4837
wissenschaft	-4838
Re	-4839
rt	-4840
▁Hil	-4841
▁mot	-4842
▁Schn	-4843
▁aufw	-4844
▁Beste	-4845
▁hängt	-4846
▁beteil	-4847
▁steckt	-4848
▁täglich	-4849
▁Bildungs	-4850
▁Kindheit	-4851
▁Leistung	-4852
▁erinnert	-4853
▁zurückzu	-4854
▁Präsident	-4855
▁entwerfen	-4856
▁Kalifornien	-4857
▁auseinander	-4858
▁Tw	-4859
mann	-4860
▁Gest	-4861
▁Gold	-4862
▁Irak	-4863
▁ausl	-4864
iertes	-4865
leisch	-4866
▁Kaffe	-4867
▁Motor	-4868
▁Staat	-4869
▁stolz	-4870
herapie	-4871
spielen	-4872
▁Museum	-4873
▁lieber	-4874
▁verwir	-4875
▁wächst	-4876
stellten	-4877
▁Führung	-4878
▁falsche	-4879
forschung	-4880
▁tausende	-4881
inosaurier	-4882
▁Institutionen	-4883
äbe	-4884
iste	-4885
▁150	-4886
▁Rat	-4887
▁daß	-4888
markt	-4889
▁Fische	-4890
▁Gefahr	-4891
▁Themen	-4892
▁religi	-4893
▁verlie	-4894
▁Besonder	-4895
▁irgendwann	-4896
▁verwandeln	-4897
▁öffentliche	-4898
▁interagieren	-4899
,"	-4900
sse	-4901
band	-4902
chern	-4903
▁Fran	-4904
▁Golf	-4905
▁Kann	-4906
▁Paar	-4907
▁disk	-4908
▁weder	-4909
▁Satell	-4910
▁Schwei	-4911
▁verfolgen	-4912
▁interessanter	-4913
gs	-4914
ala	-4915
iag	-4916
▁el	-4917
▁Mos	-4918
▁Syn	-4919
▁rad	-4920
▁Colle	-4921
▁eröff	-4922
▁Geräte	-4923
▁glaubt	-4924
▁testen	-4925
jährigen	-4926
▁Bildern	-4927
▁Kontext	-4928
▁getötet	-4929
▁Teilchen	-4930
▁scheinen	-4931
▁weiteren	-4932
▁einsetzen	-4933
▁Erinnerung	-4934
▁Strukturen	-4935
▁überrascht	-4936
uh	-4937
▁Em	-4938
bern	-4939
klus	-4940
nitt	-4941
uern	-4942
▁ans	-4943
aptop	-4944
krank	-4945
▁Lern	-4946
▁verh	-4947
zeiten	-4948
▁Autor	-4949
▁Falls	-4950
▁fragt	-4951
▁ignor	-4952
▁töten	-4953
ausenden	-4954
▁Verkehr	-4955
pag	-4956
urf	-4957
adem	-4958
ibel	-4959
schm	-4960
▁Tel	-4961
inken	-4962
▁Ecke	-4963
▁laut	-4964
häuser	-4965
jekten	-4966
▁Jungs	-4967
achtung	-4968
geladen	-4969
▁schlie	-4970
alisiert	-4971
▁Depress	-4972
▁Außerdem	-4973
▁hauptsächlich	-4974
riz	-4975
▁halte	-4976
▁weiss	-4977
▁Bauern	-4978
▁verein	-4979
programm	-4980
▁Galaxien	-4981
▁mathemat	-4982
▁Gegenteil	-4983
▁letztendlich	-4984
utt	-4985
anst	-4986
idem	-4987
onom	-4988
wahl	-4989
weit	-4990
▁400	-4991
▁Sep	-4992
▁Tre	-4993
▁tue	-4994
▁dunk	-4995
▁Heimat	-4996
▁Norden	-4997
▁Rahmen	-4998
▁schick	-4999
gendetwas	-5000
▁Lieblings	-5001
▁verbracht	-5002
▁wichtigste	-5003
▁Kohlenstoff	-5004
▁interessieren	-5005
▁möglicherweise	-5006
Der	-5007
ace	-5008
▁Ox	-5009
läss	-5010
macht	-5011
schau	-5012
▁Iran	-5013
▁verr	-5014
▁Bruder	-5015
▁aussch	-5016
▁England	-5017
▁Sprachen	-5018
▁Wahrnehm	-5019
▁nächstes	-5020
▁Aktivität	-5021
▁gegenseit	-5022
▁schließen	-5023
▁begeistert	-5024
hi	-5025
ara	-5026
leg	-5027
dige	-5028
nimmt	-5029
▁Glob	-5030
▁Sein	-5031
▁Kohle	-5032
▁Liter	-5033
▁begeg	-5034
quenzen	-5035
▁Nation	-5036
▁Patient	-5037
▁vorhanden	-5038
▁Verhaltens	-5039
▁gefährlich	-5040
▁vollständig	-5041
eiste	-5042
▁Rich	-5043
▁ausb	-5044
atoren	-5045
▁einst	-5046
▁frage	-5047
▁gener	-5048
▁regel	-5049
jährige	-5050
▁deinen	-5051
▁gehabt	-5052
verständ	-5053
▁Begriff	-5054
▁gewisse	-5055
▁Elektron	-5056
▁besseren	-5057
▁eingesetzt	-5058
▁verhindern	-5059
▁versuchten	-5060
▁Dinosaurier	-5061
Nun	-5062
arb	-5063
ingu	-5064
ions	-5065
wood	-5066
▁Asp	-5067
aktiv	-5068
reite	-5069
▁Boot	-5070
▁Frem	-5071
▁Volk	-5072
bliche	-5073
▁Außen	-5074
▁Filme	-5075
▁Meilen	-5076
▁Stress	-5077
▁Vision	-5078
▁ausgeb	-5079
▁gesund	-5080
▁Militär	-5081
▁basiert	-5082
▁kreativ	-5083
▁schwarz	-5084
▁Experten	-5085
richtungen	-5086
▁schlimmer	-5087
amt	-5088
hmen	-5089
stau	-5090
▁Con	-5091
▁Bras	-5092
▁Temp	-5093
▁starb	-5094
▁Gewebe	-5095
▁Videos	-5096
▁Zimmer	-5097
▁Fleisch	-5098
▁erzähle	-5099
▁zunehmen	-5100
▁September	-5101
▁Augenblick	-5102
▁existieren	-5103
▁amerikanische	-5104
kan	-5105
kle	-5106
▁MI	-5107
▁Ol	-5108
alte	-5109
bahn	-5110
▁Col	-5111
▁gep	-5112
langt	-5113
▁hohe	-5114
spiels	-5115
▁Folge	-5116
▁Spekt	-5117
▁virtu	-5118
▁Israel	-5119
▁Nerven	-5120
▁bieten	-5121
▁einsch	-5122
▁erster	-5123
▁sauber	-5124
▁stelle	-5125
▁bemerkt	-5126
▁Verstand	-5127
▁gewisser	-5128
▁normalen	-5129
▁wunderbare	-5130
▁Öffentlichkeit	-5131
ckten	-5132
▁Aben	-5133
▁Maus	-5134
▁Rand	-5135
▁Sind	-5136
▁gäbe	-5137
schule	-5138
sweise	-5139
▁Brenn	-5140
▁Stift	-5141
▁Haufen	-5142
▁dauert	-5143
▁Elektro	-5144
▁automat	-5145
blichkeit	-5146
▁praktisch	-5147
▁irgendetwas	-5148
pft	-5149
▁35	-5150
ekte	-5151
heim	-5152
omit	-5153
▁Ach	-5154
▁Ehe	-5155
▁Log	-5156
asste	-5157
ängst	-5158
▁eint	-5159
▁priv	-5160
afrika	-5161
kehren	-5162
▁Bitte	-5163
▁absol	-5164
▁holen	-5165
▁teuer	-5166
▁Händen	-5167
▁Sozial	-5168
▁Verletz	-5169
▁schönen	-5170
ternehmen	-5171
▁entworfen	-5172
▁arbeiteten	-5173
▁durchschnitt	-5174
▁unterscheiden	-5175
▁unterschiedlich	-5176
▁UN	-5177
sver	-5178
▁Gar	-5179
▁Sil	-5180
▁Ter	-5181
fahrt	-5182
hingt	-5183
letzt	-5184
echsel	-5185
▁Innen	-5186
▁Schei	-5187
▁kennt	-5188
▁nannte	-5189
▁schaute	-5190
▁wenigen	-5191
▁hunderte	-5192
▁Folgendes	-5193
▁Erkenntnis	-5194
▁verantwortlich	-5195
ädt	-5196
▁NA	-5197
▁Deb	-5198
▁Nan	-5199
swert	-5200
unken	-5201
utzer	-5202
▁Lied	-5203
▁Phys	-5204
▁fiel	-5205
fragen	-5206
mutter	-5207
wiesen	-5208
▁Defin	-5209
▁Laufe	-5210
▁kurze	-5211
▁meist	-5212
chtzeit	-5213
▁Wesent	-5214
▁Stimmen	-5215
▁Gespräch	-5216
▁Schwester	-5217
▁Wettbewer	-5218
Be	-5219
zy	-5220
air	-5221
oth	-5222
▁Uns	-5223
ieben	-5224
▁Beob	-5225
▁herr	-5226
immung	-5227
nehmer	-5228
▁lebte	-5229
agement	-5230
hington	-5231
problem	-5232
▁Mechan	-5233
▁linken	-5234
▁schien	-5235
ologisch	-5236
▁Gedanke	-5237
▁Quadrat	-5238
▁einiger	-5239
▁präsent	-5240
fähigkeit	-5241
▁meistens	-5242
▁beantworten	-5243
mon	-5244
iden	-5245
wegs	-5246
▁kap	-5247
▁neg	-5248
eucht	-5249
ierer	-5250
▁Gras	-5251
▁sexu	-5252
▁Metap	-5253
▁somit	-5254
artigen	-5255
▁Laptop	-5256
▁müsste	-5257
▁Journal	-5258
▁Richard	-5259
▁Spieler	-5260
▁gehalten	-5261
▁Restauran	-5262
▁Schimpansen	-5263
hte	-5264
kor	-5265
▁Zä	-5266
nost	-5267
hlung	-5268
reien	-5269
rennen	-5270
▁könnt	-5271
▁setzt	-5272
schrift	-5273
▁Beweis	-5274
▁Mütter	-5275
▁Steuer	-5276
▁ließen	-5277
▁Algorit	-5278
▁dritten	-5279
▁nochmal	-5280
▁Konflikt	-5281
▁Moleküle	-5282
▁aufhören	-5283
▁Katastrop	-5284
▁angesehen	-5285
▁wichtigen	-5286
▁Landschaft	-5287
▁entspricht	-5288
▁entstanden	-5289
▁hoffentlich	-5290
2-	-5291
▁Ama	-5292
▁Anw	-5293
▁Opt	-5294
mäßig	-5295
▁Fehl	-5296
▁Mund	-5297
▁halb	-5298
agiert	-5299
▁Franc	-5300
▁Radio	-5301
▁Trend	-5302
▁Trotz	-5303
bewesen	-5304
gegeben	-5305
▁eigent	-5306
▁Körpers	-5307
▁bekamen	-5308
▁Individuen	-5309
▁Perspektive	-5310
pret	-5311
äuse	-5312
▁Mem	-5313
▁Toi	-5314
▁kom	-5315
ietet	-5316
ognit	-5317
▁Chir	-5318
▁Dass	-5319
hängig	-5320
▁Ihres	-5321
▁Neben	-5322
▁klass	-5323
▁Andere	-5324
▁Effekt	-5325
▁Rätsel	-5326
▁erlebt	-5327
▁mitten	-5328
maschine	-5329
▁erkannte	-5330
▁fotograf	-5331
▁Gegensatz	-5332
▁Washington	-5333
▁allerdings	-5334
▁vergleichen	-5335
ahe	-5336
bas	-5337
uft	-5338
samt	-5339
▁Fig	-5340
▁zog	-5341
eiger	-5342
eting	-5343
zelle	-5344
▁kauf	-5345
fische	-5346
igsten	-5347
▁Ganze	-5348
▁total	-5349
▁Irgend	-5350
▁Kombin	-5351
▁Minute	-5352
▁berech	-5353
▁hoffen	-5354
▁Gleiche	-5355
▁Twitter	-5356
▁dennoch	-5357
▁Eindruck	-5358
echtigkeit	-5359
▁Politiker	-5360
▁Experimente	-5361
MS	-5362
Ein	-5363
The	-5364
för	-5365
abei	-5366
digt	-5367
▁Bein	-5368
▁Lang	-5369
▁dran	-5370
▁schm	-5371
gruppe	-5372
▁Folgen	-5373
▁Obwohl	-5374
▁Quanten	-5375
▁genauer	-5376
▁Nationen	-5377
▁demokrat	-5378
▁effektiv	-5379
▁Unternehmer	-5380
▁hergestellt	-5381
pte	-5382
ull	-5383
ühr	-5384
▁Ed	-5385
anen	-5386
▁Fle	-5387
▁Gas	-5388
▁Sei	-5389
ischt	-5390
▁Samm	-5391
gewalt	-5392
sionen	-5393
▁Dabei	-5394
▁Dimen	-5395
▁Etwas	-5396
▁Schne	-5397
▁musst	-5398
▁nutzt	-5399
▁roten	-5400
meister	-5401
▁Normal	-5402
▁stammt	-5403
▁College	-5404
▁fördern	-5405
▁gestern	-5406
▁Tausende	-5407
▁Brasilien	-5408
▁irgendein	-5409
▁Medikament	-5410
▁schlechter	-5411
ica	-5412
yse	-5413
test	-5414
wärt	-5415
igend	-5416
ologe	-5417
rippe	-5418
▁Momen	-5419
ständen	-5420
▁Grenze	-5421
▁Kräfte	-5422
wachstum	-5423
▁Gehirne	-5424
▁gelesen	-5425
▁Zeitalter	-5426
▁brauchten	-5427
▁Bewegungen	-5428
▁Satelliten	-5429
▁erscheinen	-5430
gyp	-5431
▁2,	-5432
hmus	-5433
vard	-5434
▁21.	-5435
▁Abs	-5436
▁Akt	-5437
▁Com	-5438
eskop	-5439
ungsk	-5440
▁Impf	-5441
▁Pfer	-5442
▁trin	-5443
▁verf	-5444
▁Insel	-5445
▁lernt	-5446
ordnung	-5447
▁10.000	-5448
▁Fakten	-5449
▁Wellen	-5450
▁analys	-5451
▁schlau	-5452
▁vieler	-5453
▁zahlen	-5454
▁Zuhause	-5455
▁Diagramm	-5456
▁aufbauen	-5457
▁brachten	-5458
▁programm	-5459
▁Eigentlich	-5460
▁Entdeckung	-5461
▁entwickelte	-5462
▁oh	-5463
▁Tie	-5464
rafen	-5465
rasch	-5466
▁Eben	-5467
▁Fett	-5468
▁Zell	-5469
▁zuzu	-5470
riften	-5471
▁Klein	-5472
▁wieso	-5473
vention	-5474
▁Rechte	-5475
▁aufgew	-5476
▁echten	-5477
▁starke	-5478
▁brauche	-5479
▁tausend	-5480
▁welchen	-5481
▁erfinden	-5482
▁Forschungs	-5483
▁reduzieren	-5484
▁beschlossen	-5485
oc	-5486
osm	-5487
▁Gi	-5488
ogar	-5489
skop	-5490
acher	-5491
ichen	-5492
▁Atem	-5493
▁Sens	-5494
▁aufs	-5495
▁Klang	-5496
▁Niger	-5497
▁diskut	-5498
▁beinhal	-5499
▁bezahlt	-5500
▁normale	-5501
▁relativ	-5502
▁schlagen	-5503
▁persönlich	-5504
▁verschwinden	-5505
.,	-5506
▁ag	-5507
adel	-5508
aster	-5509
bares	-5510
ähren	-5511
▁Elef	-5512
▁Erleb	-5513
▁Milch	-5514
▁trägt	-5515
▁wahre	-5516
erseits	-5517
rizität	-5518
ruption	-5519
▁Kontin	-5520
▁Zucker	-5521
▁Spiegel	-5522
▁eindeut	-5523
▁Hinsicht	-5524
▁Professor	-5525
▁Australien	-5526
▁verbrachte	-5527
use	-5528
elev	-5529
etrie	-5530
▁Krit	-5531
▁engl	-5532
kosten	-5533
▁Jeden	-5534
▁Krise	-5535
▁Verbr	-5536
▁Staats	-5537
▁integr	-5538
▁lustig	-5539
▁Francis	-5540
▁Nachdem	-5541
▁Vorteil	-5542
▁reichen	-5543
▁Methoden	-5544
▁Mikroben	-5545
▁zunächst	-5546
▁Gemeinden	-5547
▁Lebewesen	-5548
▁gestorben	-5549
▁studieren	-5550
▁verbreiten	-5551
Ar	-5552
aff	-5553
üte	-5554
olly	-5555
▁Hyp	-5556
▁las	-5557
wagen	-5558
▁Blau	-5559
▁männ	-5560
▁rück	-5561
▁zeit	-5562
reisen	-5563
werden	-5564
amerika	-5565
dlichen	-5566
ulieren	-5567
▁Jemand	-5568
▁Linien	-5569
▁vorber	-5570
▁identif	-5571
▁starten	-5572
▁Arbeiten	-5573
▁abhängig	-5574
▁behalten	-5575
▁Organismen	-5576
ld	-5577
dru	-5578
ike	-5579
sah	-5580
▁45	-5581
öpfe	-5582
▁Bri	-5583
▁Hom	-5584
rüben	-5585
▁Empf	-5586
▁fuhr	-5587
▁Laden	-5588
▁nötig	-5589
▁wobei	-5590
fordert	-5591
rauchen	-5592
schland	-5593
▁Ausmaß	-5594
▁kurzem	-5595
▁kurzen	-5596
▁tiefer	-5597
▁Ansicht	-5598
▁Details	-5599
▁Mission	-5600
▁Prototyp	-5601
▁Elektrizität	-5602
▁Generationen	-5603
itt	-5604
akte	-5605
ates	-5606
jahr	-5607
ohnt	-5608
▁Jul	-5609
▁Tun	-5610
ösung	-5611
▁Atom	-5612
▁Tanz	-5613
▁getr	-5614
▁jähr	-5615
▁zahl	-5616
▁fängt	-5617
▁halbe	-5618
▁Aspekt	-5619
▁auftau	-5620
▁körper	-5621
▁nieder	-5622
▁Buchsta	-5623
▁gehören	-5624
▁Elemente	-5625
▁entgegen	-5626
▁geändert	-5627
▁kürzlich	-5628
▁schwarze	-5629
▁Netzwerke	-5630
▁vermittel	-5631
▁Interessen	-5632
▁medizinische	-5633
?“	-5634
hü	-5635
ham	-5636
osen	-5637
trag	-5638
wach	-5639
▁Wik	-5640
▁par	-5641
antas	-5642
▁AIDS	-5643
▁fern	-5644
▁Islam	-5645
▁angeb	-5646
▁blieb	-5647
▁heran	-5648
▁lebten	-5649
▁Website	-5650
▁Existenz	-5651
▁Zuschauer	-5652
▁vergangen	-5653
▁zusammenge	-5654
möglichkeiten	-5655
kr	-5656
atik	-5657
▁Hör	-5658
▁fäh	-5659
▁Beim	-5660
▁Code	-5661
eicher	-5662
ischem	-5663
merzen	-5664
▁Angel	-5665
▁Viren	-5666
▁Weile	-5667
▁optim	-5668
rachten	-5669
▁Wetter	-5670
▁drüben	-5671
▁meiste	-5672
▁reicht	-5673
▁zählen	-5674
▁Gedicht	-5675
▁Konflik	-5676
▁begrenz	-5677
▁geschickt	-5678
▁beobachtet	-5679
▁zugänglich	-5680
▁natürlichen	-5681
▁beschäftigen	-5682
by	-5683
hek	-5684
üge	-5685
aust	-5686
uman	-5687
▁Pak	-5688
▁Sen	-5689
▁Tex	-5690
▁Tor	-5691
▁Emot	-5692
▁Flag	-5693
▁Ober	-5694
▁Sitz	-5695
▁eure	-5696
▁Ägyp	-5697
aturen	-5698
▁Solar	-5699
▁Tests	-5700
▁passt	-5701
▁wechs	-5702
ografie	-5703
▁Garten	-5704
▁Grafik	-5705
▁Lachen	-5706
▁Persön	-5707
▁Träume	-5708
▁inform	-5709
▁Beweise	-5710
▁Fischer	-5711
▁Weltraum	-5712
▁Vorfahren	-5713
▁Wohlstand	-5714
▁aufregend	-5715
▁beschloss	-5716
▁Geschlecht	-5717
▁Korruption	-5718
▁entsprechen	-5719
umm	-5720
ffer	-5721
▁Bon	-5722
ancen	-5723
bliot	-5724
usion	-5725
▁plan	-5726
▁rede	-5727
rechte	-5728
▁Armen	-5729
scheint	-5730
▁Streit	-5731
▁Umfeld	-5732
▁Welche	-5733
▁kombin	-5734
▁steigt	-5735
▁erkennt	-5736
▁morgens	-5737
verbrauch	-5738
▁Einstein	-5739
▁komplexe	-5740
▁sprachen	-5741
▁zerstört	-5742
▁Abschluss	-5743
▁Arbeitspl	-5744
▁Emotionen	-5745
▁darstellen	-5746
▁Wahrnehmung	-5747
▁grundlegende	-5748
IP	-5749
ube	-5750
umb	-5751
edia	-5752
klen	-5753
part	-5754
▁Exp	-5755
stung	-5756
▁Dach	-5757
▁Null	-5758
▁dram	-5759
▁klin	-5760
▁mass	-5761
ategor	-5762
▁Zitat	-5763
steigen	-5764
▁Kaffee	-5765
▁spannen	-5766
▁anwenden	-5767
▁ungewöhn	-5768
▁Erklärung	-5769
▁erscheint	-5770
▁verbindet	-5771
issenschaft	-5772
spielsweise	-5773
▁definieren	-5774
▁Mitarbeiter	-5775
▁traditionellen	-5776
tin	-5777
uck	-5778
ones	-5779
tial	-5780
▁MIT	-5781
omben	-5782
rufen	-5783
▁Kein	-5784
▁stop	-5785
letten	-5786
▁exper	-5787
▁folgt	-5788
▁wuchs	-5789
▁Besitz	-5790
▁School	-5791
▁allgem	-5792
▁dauern	-5793
▁enorme	-5794
▁histor	-5795
bewegung	-5796
ätigkeit	-5797
▁Kapital	-5798
▁Nachbarn	-5799
▁deswegen	-5800
▁beschleun	-5801
▁verfügbar	-5802
▁Architekten	-5803
▁Deutschland	-5804
30	-5805
res	-5806
zon	-5807
▁la	-5808
▁Hei	-5809
▁bat	-5810
▁zut	-5811
onstr	-5812
passt	-5813
▁Kerl	-5814
einbar	-5815
endung	-5816
sichts	-5817
▁Konse	-5818
▁bewer	-5819
▁übrig	-5820
umenten	-5821
wirkung	-5822
▁Mexiko	-5823
▁Quelle	-5824
▁setzte	-5825
▁Maßstab	-5826
▁Theater	-5827
▁ausgest	-5828
▁spielte	-5829
▁verschl	-5830
▁Schatten	-5831
▁verwende	-5832
▁zerstören	-5833
▁Verhältnis	-5834
▁aufzubauen	-5835
▁Schwierigkeiten	-5836
▁Ke	-5837
oler	-5838
▁ruh	-5839
elles	-5840
geber	-5841
olitik	-5842
▁Fälle	-5843
▁Kapit	-5844
▁Times	-5845
▁Zweck	-5846
▁Größen	-5847
▁Berechn	-5848
▁annehmen	-5849
▁erstellt	-5850
▁aufgebaut	-5851
ex	-5852
ton	-5853
herr	-5854
hung	-5855
mord	-5856
enter	-5857
▁Paul	-5858
▁Stau	-5859
▁leid	-5860
räumen	-5861
talien	-5862
▁Kreuz	-5863
▁train	-5864
ersagen	-5865
▁Planet	-5866
▁Voraus	-5867
ographie	-5868
▁Viertel	-5869
▁erwähnt	-5870
▁umgeben	-5871
▁worüber	-5872
▁Freundin	-5873
▁gewissen	-5874
▁schlechten	-5875
▁vermitteln	-5876
▁wesentlich	-5877
.«	-5878
20	-5879
läu	-5880
äne	-5881
eise	-5882
▁Sob	-5883
▁Urs	-5884
▁abl	-5885
ehren	-5886
stren	-5887
▁Auff	-5888
▁Russ	-5889
▁beit	-5890
orient	-5891
spruch	-5892
▁Seine	-5893
▁motiv	-5894
▁zieht	-5895
sprache	-5896
▁heißen	-5897
▁schaff	-5898
▁müssten	-5899
▁solcher	-5900
▁Vorstell	-5901
▁nützlich	-5902
▁Bereichen	-5903
▁verhalten	-5904
▁Diskussion	-5905
verständlich	-5906
▁Durchschnitt	-5907
sh	-5908
▁Kr	-5909
▁Sl	-5910
mark	-5911
▁DNS	-5912
▁Tom	-5913
▁ide	-5914
ember	-5915
karte	-5916
räume	-5917
sätze	-5918
zieht	-5919
▁Klin	-5920
▁Orig	-5921
▁Verw	-5922
▁grau	-5923
▁miss	-5924
▁Seele	-5925
▁Sogar	-5926
▁außen	-5927
▁enorm	-5928
▁quasi	-5929
▁unend	-5930
züglich	-5931
▁Chemie	-5932
▁ergibt	-5933
▁formen	-5934
▁kannte	-5935
▁Entfern	-5936
▁Fernseh	-5937
▁Harvard	-5938
▁Kulturen	-5939
versorgung	-5940
▁Verbesser	-5941
▁Erwachsenen	-5942
bi	-5943
vol	-5944
ähm	-5945
▁wü	-5946
▁min	-5947
ement	-5948
gerät	-5949
▁Fünf	-5950
▁höre	-5951
▁nerv	-5952
▁rief	-5953
recken	-5954
▁Anrei	-5955
▁Neues	-5956
▁gross	-5957
▁Batter	-5958
▁treten	-5959
▁zusätz	-5960
▁Komment	-5961
▁Geräusch	-5962
▁schätzen	-5963
▁entdeckte	-5964
ael	-5965
ült	-5966
ehlt	-5967
icro	-5968
igem	-5969
itiv	-5970
▁Les	-5971
▁Sam	-5972
anzös	-5973
gener	-5974
▁Cent	-5975
gehend	-5976
▁Start	-5977
▁Stufe	-5978
▁fähig	-5979
▁still	-5980
▁Damals	-5981
▁Erwart	-5982
▁Gewinn	-5983
▁Riesen	-5984
▁Bestand	-5985
▁Fahrrad	-5986
▁Schnitt	-5987
▁gebeten	-5988
▁Arbeiter	-5989
▁ersetzen	-5990
▁langweil	-5991
▁inspiriert	-5992
▁verbessert	-5993
▁Situationen	-5994
▁schrecklich	-5995
ago	-5996
azi	-5997
fir	-5998
Mail	-5999
aria	-6000
erne	-6001
flug	-6002
mehr	-6003
▁Ill	-6004
▁Jan	-6005
▁Stör	-6006
▁Teen	-6007
▁ille	-6008
▁real	-6009
andert	-6010
▁Vögel	-6011
▁betro	-6012
▁beweg	-6013
▁ermut	-6014
▁vorne	-6015
ikalien	-6016
▁Inhalt	-6017
▁gelöst	-6018
▁stabil	-6019
besonder	-6020
▁Auswahl	-6021
▁Verlust	-6022
▁beinahe	-6023
▁Bereiche	-6024
▁Geheimnis	-6025
▁vermeiden	-6026
▁untersucht	-6027
▁stattdessen	-6028
▁Zivilisation	-6029
▁menschlicher	-6030
pon	-6031
gibt	-6032
ston	-6033
tels	-6034
▁dur	-6035
▁rot	-6036
▁Früh	-6037
▁Trag	-6038
▁heil	-6039
ichter	-6040
jemand	-6041
▁Schle	-6042
▁geist	-6043
▁poten	-6044
itation	-6045
▁Signal	-6046
▁gering	-6047
issionen	-6048
▁Risiken	-6049
▁welchem	-6050
▁überprü	-6051
▁entstand	-6052
▁gefangen	-6053
▁Buchstaben	-6054
▁Definition	-6055
▁Großmutter	-6056
▁unabhängig	-6057
▁Interaktion	-6058
▁persönlichen	-6059
ozi	-6060
rot	-6061
ulen	-6062
▁Rot	-6063
▁inf	-6064
lekul	-6065
linge	-6066
öpfen	-6067
▁Vorh	-6068
▁voran	-6069
ziehung	-6070
▁Doktor	-6071
▁Kampag	-6072
▁Tonnen	-6073
▁ausger	-6074
▁hinten	-6075
▁langer	-6076
▁vergrö	-6077
qualität	-6078
▁Gericht	-6079
▁Zwischen	-6080
▁langfrist	-6081
▁notwendig	-6082
▁schwimmen	-6083
▁persönliche	-6084
put	-6085
frei	-6086
▁19.	-6087
antes	-6088
euern	-6089
euert	-6090
uropä	-6091
weile	-6092
▁Post	-6093
▁Zahn	-6094
fernen	-6095
▁Gutes	-6096
▁Lager	-6097
▁Pingu	-6098
▁Spezi	-6099
▁versp	-6100
diglich	-6101
samkeit	-6102
zentrum	-6103
▁Anteil	-6104
▁Bedroh	-6105
▁Flücht	-6106
▁herein	-6107
gelassen	-6108
▁Element	-6109
▁Student	-6110
▁Werbung	-6111
besondere	-6112
▁besuchen	-6113
▁versteht	-6114
▁verteilt	-6115
▁unterstützt	-6116
▁Wesentlichen	-6117
iein	-6118
seln	-6119
wort	-6120
▁Bem	-6121
▁Kom	-6122
▁wes	-6123
elben	-6124
▁Merk	-6125
▁erwä	-6126
sprung	-6127
▁Hunde	-6128
atische	-6129
▁Leider	-6130
▁Lungen	-6131
▁Nieder	-6132
▁Rechen	-6133
▁Schuld	-6134
▁Zauber	-6135
▁kümmer	-6136
▁Wissens	-6137
▁seitdem	-6138
▁standen	-6139
▁Anderson	-6140
▁Strategie	-6141
▁Tradition	-6142
▁besondere	-6143
▁industrie	-6144
▁westlichen	-6145
▁fantastisch	-6146
▁schwieriger	-6147
▁Erinnerungen	-6148
▁erstaunliche	-6149
com	-6150
ird	-6151
ifiz	-6152
star	-6153
▁Got	-6154
eiter	-6155
teile	-6156
ätter	-6157
▁Vern	-6158
bieten	-6159
leitet	-6160
▁Parad	-6161
▁Süden	-6162
▁World	-6163
▁kolle	-6164
einhalb	-6165
gründet	-6166
▁Willen	-6167
▁bauten	-6168
▁dunkle	-6169
amerikan	-6170
▁berührt	-6171
▁hierher	-6172
▁Kongress	-6173
▁schlafen	-6174
▁verstehe	-6175
▁Anwendung	-6176
▁Operation	-6177
▁beinhaltet	-6178
▁hü	-6179
affe	-6180
etik	-6181
hrop	-6182
▁11.	-6183
▁Brü	-6184
▁dün	-6185
▁mut	-6186
denkt	-6187
fähig	-6188
kreis	-6189
undes	-6190
▁Eier	-6191
▁Kurs	-6192
▁Wurz	-6193
▁expl	-6194
▁mult	-6195
▁spät	-6196
flicht	-6197
▁Stock	-6198
▁Wieso	-6199
reibung	-6200
▁Belohn	-6201
▁Gegend	-6202
▁Schlei	-6203
▁Stärke	-6204
▁Weiter	-6205
▁Wolken	-6206
▁lebens	-6207
▁meinte	-6208
▁Erkrank	-6209
▁Präsent	-6210
▁erhielt	-6211
▁steuern	-6212
▁Echtzeit	-6213
▁beweisen	-6214
▁eindeutig	-6215
▁fundament	-6216
▁beschrieben	-6217
▁feststellen	-6218
▁internationalen	-6219
la	-6220
hls	-6221
▁Ta	-6222
ging	-6223
ilde	-6224
kton	-6225
raht	-6226
▁Teu	-6227
weite	-6228
ässer	-6229
▁Chic	-6230
▁Mess	-6231
▁form	-6232
drückt	-6233
imeter	-6234
testen	-6235
▁Pfund	-6236
▁Stuhl	-6237
▁stehe	-6238
sammelt	-6239
wechsel	-6240
▁Helden	-6241
▁belieb	-6242
▁besagt	-6243
▁bietet	-6244
▁blauen	-6245
▁Galaxie	-6246
▁Respekt	-6247
▁enthält	-6248
▁konstru	-6249
▁darunter	-6250
▁aufnehmen	-6251
▁digitalen	-6252
▁kollektiv	-6253
▁lediglich	-6254
▁Kombination	-6255
▁vorzustellen	-6256
▁wirtschaftliche	-6257
Na	-6258
nü	-6259
ida	-6260
int	-6261
pha	-6262
▁99	-6263
▁Cy	-6264
rang	-6265
▁Skl	-6266
▁etc	-6267
▁syn	-6268
artet	-6269
boden	-6270
staat	-6271
▁Rech	-6272
▁Roll	-6273
▁Schä	-6274
▁Wild	-6275
▁genü	-6276
▁zust	-6277
▁Brief	-6278
▁Darum	-6279
▁innov	-6280
▁sucht	-6281
blichen	-6282
systeme	-6283
▁Christ	-6284
▁Herren	-6285
▁furcht	-6286
▁profit	-6287
▁sparen	-6288
▁liefern	-6289
▁vertraut	-6290
▁entfernen	-6291
▁Instrument	-6292
▁Bedürfnisse	-6293
▁Chemikalien	-6294
▁faszinierend	-6295
pol	-6296
zig	-6297
▁2.	-6298
aser	-6299
mack	-6300
oßen	-6301
reif	-6302
▁Gro	-6303
▁Hem	-6304
▁Ung	-6305
▁You	-6306
nungs	-6307
rimin	-6308
ringe	-6309
rustr	-6310
▁Prim	-6311
▁Rake	-6312
▁neur	-6313
▁seid	-6314
▁stet	-6315
▁trag	-6316
haften	-6317
▁Bauch	-6318
▁Würde	-6319
etische	-6320
▁Danach	-6321
▁Epidem	-6322
▁George	-6323
▁Ozeane	-6324
▁Zufall	-6325
▁singen	-6326
▁Geistes	-6327
▁Malaria	-6328
▁gefällt	-6329
▁lokalen	-6330
▁äußerst	-6331
▁Komponen	-6332
▁folgende	-6333
▁gespielt	-6334
▁speziell	-6335
▁weiterer	-6336
▁ähnliche	-6337
▁Potential	-6338
▁gegründet	-6339
▁gemeinsame	-6340
▁übernehmen	-6341
▁gesellschaft	-6342
bür	-6343
sum	-6344
▁75	-6345
burg	-6346
nose	-6347
bchen	-6348
iveau	-6349
▁2008	-6350
▁Trau	-6351
geregt	-6352
geschw	-6353
ingern	-6354
▁Gehen	-6355
▁Hilfs	-6356
▁Tumor	-6357
▁armen	-6358
▁verab	-6359
andelte	-6360
gruppen	-6361
▁Teufel	-6362
▁gelebt	-6363
▁junger	-6364
▁Bibliot	-6365
▁Charles	-6366
▁Fliegen	-6367
▁Richtig	-6368
▁kriegen	-6369
▁Aufnahme	-6370
▁Lebenser	-6371
▁Mehrheit	-6372
▁kreieren	-6373
▁leichter	-6374
▁Francisco	-6375
▁Philosoph	-6376
▁überwinden	-6377
▁Stattdessen	-6378
▁kompliziert	-6379
far	-6380
ole	-6381
okus	-6382
▁Air	-6383
▁Jun	-6384
▁erz	-6385
grenz	-6386
ippen	-6387
zesse	-6388
▁Allt	-6389
▁Tief	-6390
▁fürs	-6391
nitten	-6392
▁Moral	-6393
▁Platt	-6394
▁Theor	-6395
▁brill	-6396
▁domin	-6397
ließend	-6398
▁Brücke	-6399
▁Mengen	-6400
▁Symbol	-6401
▁durchs	-6402
▁moment	-6403
ffizienz	-6404
sprozess	-6405
vermögen	-6406
▁Einheit	-6407
▁moderne	-6408
▁Deswegen	-6409
▁sichtbar	-6410
▁Grundlage	-6411
▁Kontinent	-6412
▁Südafrika	-6413
▁wirkliche	-6414
▁Überrasch	-6415
▁veränderte	-6416
▁Sicherheits	-6417
▁internationale	-6418
Hey	-6419
fig	-6420
gas	-6421
▁GP	-6422
eier	-6423
lied	-6424
äfte	-6425
▁Gre	-6426
▁Pan	-6427
▁Wäl	-6428
▁fil	-6429
▁Anim	-6430
▁Betr	-6431
▁NASA	-6432
▁Open	-6433
▁Tour	-6434
▁Wein	-6435
fahrer	-6436
▁Kabel	-6437
▁Küste	-6438
▁Weihn	-6439
▁drauf	-6440
wärmung	-6441
zwungen	-6442
▁Blumen	-6443
▁Sobald	-6444
▁Winter	-6445
▁heisst	-6446
▁kognit	-6447
▁verblü	-6448
▁glaubte	-6449
▁grundle	-6450
▁manchen	-6451
unktionen	-6452
▁dahinter	-6453
▁Erfindung	-6454
▁Jahrzehnt	-6455
▁transport	-6456
bevölkerung	-6457
▁verwandelt	-6458
▁Statistiken	-6459
▁akzeptieren	-6460
▁großartigen	-6461
ley	-6462
▁23	-6463
ühen	-6464
▁Ähn	-6465
anger	-6466
▁Astr	-6467
▁arab	-6468
▁brit	-6469
▁Kenia	-6470
▁Links	-6471
▁innen	-6472
▁Gesamt	-6473
▁ausgew	-6474
▁soviel	-6475
▁Momente	-6476
▁Schicks	-6477
▁zeigten	-6478
schriften	-6479
▁Interview	-6480
▁dieselben	-6481
▁erweitern	-6482
▁scheinbar	-6483
▁Gedächtnis	-6484
▁fasziniert	-6485
▁Aktivitäten	-6486
▁Jahrzehnten	-6487
▁Stammzellen	-6488
▁gegenseitig	-6489
▁Gerechtigkeit	-6490
▁funktionierte	-6491
-,	-6492
ags	-6493
ash	-6494
ruh	-6495
berg	-6496
leib	-6497
▁Eng	-6498
▁Rhy	-6499
▁wüs	-6500
▁Gemü	-6501
▁Inte	-6502
▁Nase	-6503
▁froh	-6504
hängen	-6505
llektu	-6506
rieren	-6507
unkten	-6508
▁Gemäl	-6509
▁platz	-6510
spiegel	-6511
▁Fabrik	-6512
▁vieles	-6513
scheidet	-6514
▁erhöhen	-6515
▁gewählt	-6516
losigkeit	-6517
▁Pakistan	-6518
▁Ungleich	-6519
▁mögliche	-6520
▁Gegenwart	-6521
▁Gesichter	-6522
▁angenommen	-6523
▁Einstellung	-6524
▁Innovationen	-6525
▁menschliches	-6526
▁medizinischen	-6527
ips	-6528
lim	-6529
inkt	-6530
krie	-6531
nach	-6532
rett	-6533
stud	-6534
teln	-6535
zipl	-6536
▁Ehr	-6537
▁Seh	-6538
▁Top	-6539
eiern	-6540
igste	-6541
ücken	-6542
▁heiß	-6543
eilung	-6544
gesamt	-6545
kungen	-6546
▁Damen	-6547
▁Einen	-6548
▁Wüste	-6549
▁baute	-6550
▁vorzu	-6551
▁Pflege	-6552
▁bestät	-6553
▁realen	-6554
▁Gebiete	-6555
▁Signale	-6556
▁Zeitung	-6557
arbeitung	-6558
▁Ereignis	-6559
▁Nachhalt	-6560
▁Russland	-6561
▁Vorteile	-6562
▁Literatur	-6563
▁Terrorismus	-6564
▁Fortschritte	-6565
▁unglaublichen	-6566
mar	-6567
orp	-6568
gefü	-6569
urer	-6570
▁600	-6571
▁Bur	-6572
▁Dat	-6573
▁log	-6574
biert	-6575
▁Alex	-6576
▁Mach	-6577
▁mark	-6578
▁rote	-6579
holfen	-6580
▁Erdbe	-6581
▁Hallo	-6582
▁James	-6583
▁Stern	-6584
▁Steve	-6585
▁jener	-6586
▁unbek	-6587
stoffen	-6588
▁Inspir	-6589
▁Neurow	-6590
▁lachen	-6591
▁Lektion	-6592
▁Wechsel	-6593
▁Wirkung	-6594
▁besitzt	-6595
▁Schritte	-6596
▁effizien	-6597
▁elektron	-6598
▁Billionen	-6599
▁allgemein	-6600
unternehmen	-6601
oß	-6602
kal	-6603
osh	-6604
ymp	-6605
förm	-6606
spar	-6607
▁Roh	-6608
▁gra	-6609
ettet	-6610
flekt	-6611
linie	-6612
uhren	-6613
▁arme	-6614
▁länd	-6615
mechan	-6616
▁Immer	-6617
▁Sympt	-6618
▁fährt	-6619
▁vorge	-6620
▁Dunkel	-6621
▁Hunger	-6622
▁Kirche	-6623
▁Kriegs	-6624
▁Säuget	-6625
▁senden	-6626
▁Absicht	-6627
▁Chicago	-6628
▁Michael	-6629
▁ansieht	-6630
erstörung	-6631
▁Erlebnis	-6632
▁Teleskop	-6633
▁Zunächst	-6634
▁besseres	-6635
▁falschen	-6636
▁gefallen	-6637
▁Überzeug	-6638
▁überlegen	-6639
▁bezeichnen	-6640
▁automatisch	-6641
▁geschlossen	-6642
▁Untersuchung	-6643
▁überraschend	-6644
yl	-6645
hnt	-6646
ney	-6647
nütz	-6648
tage	-6649
ulpt	-6650
ward	-6651
▁194	-6652
▁iPh	-6653
reibe	-6654
samen	-6655
▁Dazu	-6656
▁Phot	-6657
▁Verd	-6658
bücher	-6659
ruppen	-6660
▁Blatt	-6661
▁Darwin	-6662
▁Welten	-6663
▁anfing	-6664
▁bedeut	-6665
▁intens	-6666
▁leiten	-6667
▁weißen	-6668
▁bekomme	-6669
▁Webseite	-6670
▁konfront	-6671
▁zeichnen	-6672
▁Elefanten	-6673
▁Transport	-6674
▁behaupten	-6675
▁dargestellt	-6676
▁Informations	-6677
▁grundsätzlich	-6678
Wo	-6679
zz	-6680
bek	-6681
önt	-6682
▁["	-6683
beln	-6684
esie	-6685
ison	-6686
nern	-6687
▁Eth	-6688
▁Uni	-6689
andid	-6690
räger	-6691
▁Mult	-6692
▁Show	-6693
▁moch	-6694
Dollar	-6695
kelett	-6696
reiche	-6697
▁Dafür	-6698
▁Folie	-6699
▁Wagen	-6700
▁extra	-6701
▁schne	-6702
fliegen	-6703
mitteln	-6704
schicht	-6705
▁Führer	-6706
▁Gottes	-6707
▁willst	-6708
▁Angeles	-6709
▁Hindern	-6710
▁Nigeria	-6711
▁dauerte	-6712
verhalten	-6713
▁hinunter	-6714
▁perfekte	-6715
▁springen	-6716
▁wechseln	-6717
▁gebraucht	-6718
▁zusammenzu	-6719
▁durchführen	-6720
▁aufgewachsen	-6721
▁Vorstellungen	-6722
▁beispielsweise	-6723
anc	-6724
▁ra	-6725
iban	-6726
▁Ass	-6727
▁Dia	-6728
▁Mio	-6729
▁Okt	-6730
▁Pri	-6731
▁Zer	-6732
menge	-6733
üssen	-6734
▁Sozi	-6735
bstoff	-6736
gesetz	-6737
ysikal	-6738
▁Paten	-6739
▁Stahl	-6740
▁Trick	-6741
▁sowas	-6742
▁wofür	-6743
richtet	-6744
▁Löcher	-6745
▁Schwer	-6746
▁fingen	-6747
▁reisen	-6748
atastrop	-6749
▁Afrikas	-6750
▁Chancen	-6751
▁Sternen	-6752
▁führten	-6753
▁überein	-6754
probieren	-6755
▁Bevölker	-6756
▁Metapher	-6757
▁positive	-6758
▁zurückge	-6759
▁beobachte	-6760
▁zufrieden	-6761
see	-6762
wen	-6763
iber	-6764
öser	-6765
▁Krä	-6766
▁SMS	-6767
▁Tri	-6768
▁the	-6769
amour	-6770
noten	-6771
zepte	-6772
▁verz	-6773
System	-6774
bungen	-6775
lernen	-6776
mensch	-6777
quelle	-6778
▁trans	-6779
antasie	-6780
▁Besuch	-6781
▁Handel	-6782
▁Unfall	-6783
▁Völker	-6784
▁landen	-6785
▁merken	-6786
ktivität	-6787
▁Kapitel	-6788
▁Nutzung	-6789
▁drücken	-6790
▁Resultat	-6791
▁digitale	-6792
▁bekannten	-6793
▁berichten	-6794
▁erwachsen	-6795
▁Geburtstag	-6796
▁Prinzipien	-6797
▁Verbrechen	-6798
▁beibringen	-6799
▁Unterhaltung	-6800
▁bemerkenswer	-6801
▁verschwunden	-6802
wissenschaften	-6803
▁Gemeinschaften	-6804
En	-6805
ih	-6806
ics	-6807
▁Ac	-6808
▁Tö	-6809
ores	-6810
▁Dan	-6811
▁Emp	-6812
▁Laut	-6813
▁Ohne	-6814
▁erhe	-6815
zeigen	-6816
▁Micro	-6817
▁Ohren	-6818
▁blaue	-6819
▁umher	-6820
▁Kanada	-6821
▁lokale	-6822
▁trafen	-6823
▁verknü	-6824
▁Annahme	-6825
▁Molekül	-6826
▁starben	-6827
▁zweimal	-6828
▁Teenager	-6829
▁bemerkte	-6830
schmutzung	-6831
▁vertrauen	-6832
▁Jahrzehnte	-6833
▁gemeinsamen	-6834
▁afrikanischen	-6835
ams	-6836
▁ök	-6837
ober	-6838
phen	-6839
steh	-6840
ätzt	-6841
▁Ast	-6842
▁Tit	-6843
▁ult	-6844
▁ums	-6845
hoben	-6846
ordin	-6847
▁Flie	-6848
▁Gute	-6849
▁Stan	-6850
▁Symm	-6851
▁Vier	-6852
▁zuge	-6853
messen	-6854
stechn	-6855
▁Spann	-6856
▁Skulpt	-6857
▁achten	-6858
▁ökonom	-6859
derungen	-6860
schätzen	-6861
▁Aussage	-6862
▁besorgt	-6863
▁durchzu	-6864
▁trinken	-6865
▁unglück	-6866
▁unteren	-6867
▁Männchen	-6868
▁physikal	-6869
▁verstand	-6870
▁kostenlos	-6871
▁schwarzen	-6872
▁sogenannte	-6873
▁Darstellung	-6874
▁irgendjemand	-6875
Le	-6876
cyc	-6877
har	-6878
täu	-6879
ähl	-6880
▁La	-6881
▁ok	-6882
ackt	-6883
azif	-6884
holz	-6885
▁Ans	-6886
▁Lab	-6887
▁Pen	-6888
▁Ven	-6889
Techn	-6890
barer	-6891
behör	-6892
fällt	-6893
ibiot	-6894
▁Gibt	-6895
▁Mart	-6896
▁Soll	-6897
▁baut	-6898
karten	-6899
▁Bevor	-6900
▁Phase	-6901
▁Popul	-6902
▁Wikip	-6903
▁städt	-6904
fession	-6905
▁Amazon	-6906
▁altern	-6907
▁hörten	-6908
▁Anstatt	-6909
▁Verwand	-6910
▁einiges	-6911
▁hielten	-6912
▁solange	-6913
▁verlang	-6914
schneiden	-6915
▁Versuche	-6916
▁beeindru	-6917
▁geholfen	-6918
▁genügend	-6919
leistungen	-6920
▁Weltkrieg	-6921
▁darstellt	-6922
▁komplexen	-6923
▁Regierungs	-6924
▁antwortete	-6925
▁speziellen	-6926
▁Ausstellung	-6927
▁Schließlich	-6928
▁Nachhaltigkeit	-6929
zn	-6930
äum	-6931
anal	-6932
ehrt	-6933
ilen	-6934
ombe	-6935
▁Alt	-6936
▁erm	-6937
▁mil	-6938
eidet	-6939
gangs	-6940
lager	-6941
zweif	-6942
▁2007	-6943
▁Fast	-6944
▁Rett	-6945
▁Stad	-6946
▁Voll	-6947
▁isol	-6948
▁jung	-6949
▁lebe	-6950
dienst	-6951
muster	-6952
ranche	-6953
schaut	-6954
▁Asien	-6955
▁Noten	-6956
▁Treib	-6957
▁günst	-6958
▁staat	-6959
ahnsinn	-6960
▁Aktion	-6961
▁Anders	-6962
▁Anwend	-6963
▁Bundes	-6964
▁Märkte	-6965
▁Strand	-6966
▁grünen	-6967
▁mechan	-6968
▁sozial	-6969
▁worauf	-6970
leistung	-6971
omputern	-6972
▁Musiker	-6973
▁offenen	-6974
▁Regionen	-6975
▁Schweden	-6976
ordentlich	-6977
▁Verstehen	-6978
▁betroffen	-6979
▁langsamer	-6980
▁Widerstand	-6981
▁biologische	-6982
▁konzentriert	-6983
stö	-6984
andt	-6985
▁Cha	-6986
▁Ost	-6987
aktor	-6988
preis	-6989
▁YouT	-6990
▁tats	-6991
chtern	-6992
freund	-6993
modell	-6994
zählen	-6995
▁Hotel	-6996
▁Magie	-6997
▁Paris	-6998
▁Räume	-6999
▁Samen	-7000
▁enden	-7001
▁super	-7002
▁weiße	-7003
▁wisst	-7004
▁woher	-7005
gedacht	-7006
ktionen	-7007
▁Abfall	-7008
▁Eigent	-7009
▁anhand	-7010
▁dunkel	-7011
▁europä	-7012
▁wirken	-7013
▁Bericht	-7014
▁Merkmal	-7015
▁erkannt	-7016
▁nannten	-7017
▁stoppen	-7018
▁tatsäch	-7019
▁treiben	-7020
▁Hunderte	-7021
▁Kampagne	-7022
▁beschrän	-7023
▁Schicksal	-7024
▁betreiben	-7025
▁enthalten	-7026
▁gebrochen	-7027
▁versteckt	-7028
▁Sonnenlicht	-7029
▁Präsentation	-7030
▁organisieren	-7031
▁Klassenzimmer	-7032
2.	-7033
ire	-7034
▁27	-7035
ugen	-7036
ästh	-7037
ücke	-7038
▁Tab	-7039
▁Tur	-7040
füllt	-7041
iritu	-7042
kehrt	-7043
▁Biom	-7044
▁Rock	-7045
▁Zent	-7046
▁frem	-7047
▁land	-7048
▁merk	-7049
duktiv	-7050
ynamik	-7051
▁Motiv	-7052
▁dynam	-7053
▁fehlt	-7054
▁schwe	-7055
isierte	-7056
rittens	-7057
rüstung	-7058
standen	-7059
sterben	-7060
ältigen	-7061
örtlich	-7062
▁Boston	-7063
▁Mangel	-7064
▁nachts	-7065
▁Debatte	-7066
▁Schaden	-7067
▁YouTube	-7068
▁positiv	-7069
▁verkauf	-7070
▁Antibiot	-7071
▁Argument	-7072
▁Geschenk	-7073
▁wertvoll	-7074
▁Ernährung	-7075
▁Geräusche	-7076
▁Wikipedia	-7077
▁beteiligt	-7078
▁teilweise	-7079
▁Ereignisse	-7080
▁Frankreich	-7081
▁Wettbewerb	-7082
▁moralische	-7083
▁verglichen	-7084
▁öffentlich	-7085
gesellschaft	-7086
▁nachgedacht	-7087
▁unterrichten	-7088
wahrscheinlich	-7089
▁$	-7090
ias	-7091
▁Mr	-7092
▁Sm	-7093
▁Wh	-7094
groß	-7095
plos	-7096
tere	-7097
▁Mel	-7098
▁Pra	-7099
▁Sel	-7100
▁kop	-7101
athie	-7102
okuss	-7103
weich	-7104
▁1000	-7105
dliche	-7106
linien	-7107
mittag	-7108
nommen	-7109
punkte	-7110
▁Wegen	-7111
▁anget	-7112
▁repar	-7113
▁wirkt	-7114
▁Alters	-7115
▁Futter	-7116
▁Grippe	-7117
▁freien	-7118
▁hinauf	-7119
▁hängen	-7120
▁rechte	-7121
ollywood	-7122
▁Mittler	-7123
▁Quellen	-7124
▁traurig	-7125
▁Freiwill	-7126
▁begegnen	-7127
▁schreibt	-7128
▁Marketing	-7129
▁einfaches	-7130
▁Restaurant	-7131
▁Unterricht	-7132
▁ausgesetzt	-7133
▁voneinander	-7134
cin	-7135
own	-7136
▁ew	-7137
azin	-7138
gelt	-7139
▁pri	-7140
▁2010	-7141
▁Koll	-7142
▁Ruhe	-7143
▁Span	-7144
▁Verp	-7145
bringt	-7146
▁Fokus	-7147
▁lande	-7148
▁Atlant	-7149
▁Darauf	-7150
▁Status	-7151
▁iPhone	-7152
▁suchte	-7153
ieinhalb	-7154
▁gekauft	-7155
▁weshalb	-7156
scheinend	-7157
▁Anführer	-7158
▁bewirken	-7159
▁reagiert	-7160
▁umfassen	-7161
oberfläche	-7162
▁derselben	-7163
▁Entfernung	-7164
▁University	-7165
▁grundlegend	-7166
geschwindigkeit	-7167
hof	-7168
lad	-7169
frau	-7170
▁GPS	-7171
▁zit	-7172
ience	-7173
rüche	-7174
teils	-7175
▁Ehem	-7176
▁Repu	-7177
▁entz	-7178
gebiet	-7179
werken	-7180
▁Angeb	-7181
▁Armee	-7182
▁Beute	-7183
▁gelie	-7184
ersonen	-7185
tztlich	-7186
▁Kindes	-7187
▁erhöht	-7188
▁grosse	-7189
▁heilen	-7190
▁system	-7191
▁100.000	-7192
▁Kategor	-7193
▁Schicht	-7194
▁bestand	-7195
▁doppelt	-7196
▁neugier	-7197
imulation	-7198
▁Schlacht	-7199
▁anschaut	-7200
▁bekannte	-7201
▁glaubten	-7202
▁unmittel	-7203
▁verdient	-7204
▁Programme	-7205
▁Spielzeug	-7206
▁betrieben	-7207
▁reduziert	-7208
▁irgendeine	-7209
▁weltweiten	-7210
▁wenigstens	-7211
▁vergangenen	-7212
▁Bevölkerungs	-7213
▁insbesondere	-7214
▁veröffentlichen	-7215
su	-7216
uar	-7217
van	-7218
zum	-7219
▁Ap	-7220
▁lö	-7221
omas	-7222
▁Dad	-7223
▁Lad	-7224
ahnen	-7225
alent	-7226
stero	-7227
▁2005	-7228
▁Beit	-7229
▁Jung	-7230
▁dick	-7231
▁half	-7232
▁jahr	-7233
▁nett	-7234
manden	-7235
tragen	-7236
unklen	-7237
ätzung	-7238
▁Chaos	-7239
▁Cyber	-7240
▁Feind	-7241
▁Flüss	-7242
▁Fläche	-7243
▁Handys	-7244
▁Intern	-7245
▁Rezept	-7246
▁gelang	-7247
bekommen	-7248
pflanzen	-7249
▁Aspekte	-7250
▁Meister	-7251
▁Zweifel	-7252
▁ergeben	-7253
▁gründen	-7254
▁respekt	-7255
▁Proteine	-7256
▁Zeitraum	-7257
▁besessen	-7258
▁genießen	-7259
▁Computern	-7260
▁Potenzial	-7261
▁bezüglich	-7262
▁folgendes	-7263
▁Depression	-7264
▁Teilnehmer	-7265
▁Persönlichkeit	-7266
dro	-7267
flu	-7268
ampe	-7269
prov	-7270
ärme	-7271
▁Dör	-7272
▁arm	-7273
lesen	-7274
onien	-7275
unruh	-7276
▁Naja	-7277
▁Such	-7278
▁Weis	-7279
▁risk	-7280
finder	-7281
▁relev	-7282
▁Kredit	-7283
▁Presse	-7284
▁Schnee	-7285
▁Stücke	-7286
▁erneut	-7287
▁spüren	-7288
▁überqu	-7289
▁Kameras	-7290
▁Krieges	-7291
▁beenden	-7292
▁verstär	-7293
▁Kleidung	-7294
▁mehreren	-7295
▁momentan	-7296
▁schauten	-7297
ungssystem	-7298
▁Aufnahmen	-7299
▁folgenden	-7300
▁versorgen	-7301
▁Zerstörung	-7302
▁Instrumente	-7303
▁Sonnensystem	-7304
▁kontrolliert	-7305
▁Krankenhäuser	-7306
▁veröffentlich	-7307
tä	-7308
arr	-7309
its	-7310
kst	-7311
▁BG	-7312
▁Äl	-7313
Okay	-7314
deln	-7315
züge	-7316
▁Hat	-7317
▁Pho	-7318
▁ang	-7319
auten	-7320
halts	-7321
icket	-7322
izont	-7323
▁Gerü	-7324
▁Hühn	-7325
▁gele	-7326
▁hieß	-7327
▁kalt	-7328
winkel	-7329
▁1.000	-7330
▁Nadel	-7331
▁angen	-7332
▁gehei	-7333
▁organ	-7334
▁woran	-7335
schafft	-7336
▁Faktor	-7337
▁Rechts	-7338
▁dienen	-7339
▁modern	-7340
▁Gemälde	-7341
▁merkwür	-7342
▁verliert	-7343
▁produktiv	-7344
▁unterwegs	-7345
▁Sichtweise	-7346
▁eingeladen	-7347
▁hinzufügen	-7348
▁intellektu	-7349
▁profession	-7350
▁Konsequenzen	-7351
▁Lebenserwart	-7352
▁ursprünglich	-7353
bie	-7354
ses	-7355
obel	-7356
zten	-7357
▁250	-7358
▁Ära	-7359
inter	-7360
▁Akte	-7361
▁Kart	-7362
▁Witz	-7363
▁hilf	-7364
flanze	-7365
fläche	-7366
gelöst	-7367
uliert	-7368
▁Decke	-7369
▁Optim	-7370
eichern	-7371
▁Extrem	-7372
▁Schalt	-7373
▁Sicher	-7374
▁angeht	-7375
sproblem	-7376
▁Taschen	-7377
▁letzter	-7378
▁dokument	-7379
berflächen	-7380
ussendlich	-7381
▁aufgeregt	-7382
▁basierend	-7383
▁bedeutete	-7384
▁niemanden	-7385
▁Erwachsene	-7386
▁Dimensionen	-7387
▁Erwartungen	-7388
▁Inspiration	-7389
▁verursachen	-7390
▁wiederholen	-7391
sterblichkeit	-7392
▁hinterlassen	-7393
Kon	-7394
Wer	-7395
haf	-7396
iox	-7397
ump	-7398
vin	-7399
rast	-7400
sens	-7401
wald	-7402
▁End	-7403
▁Prü	-7404
▁Stä	-7405
▁wid	-7406
atein	-7407
hängt	-7408
teuer	-7409
▁Klav	-7410
▁Mass	-7411
▁Nest	-7412
▁gebl	-7413
▁komm	-7414
▁rech	-7415
▁trug	-7416
andern	-7417
bilder	-7418
kultur	-7419
▁Aller	-7420
▁Kurve	-7421
▁Lasst	-7422
▁Tiefe	-7423
▁wovon	-7424
schläge	-7425
▁Astero	-7426
▁Detail	-7427
▁Infekt	-7428
▁Machen	-7429
▁Robert	-7430
▁deiner	-7431
▁garant	-7432
▁höhere	-7433
▁Verkauf	-7434
▁Erdbeben	-7435
▁Gebäuden	-7436
▁Gesichts	-7437
▁Physiker	-7438
▁gerettet	-7439
▁lebendig	-7440
▁Wachstums	-7441
▁umzugehen	-7442
▁zunehmend	-7443
technologie	-7444
▁Ingenieure	-7445
▁Reaktionen	-7446
▁Richtungen	-7447
▁bezeichnet	-7448
▁Algorithmen	-7449
▁Verbreitung	-7450
▁Entdeckungen	-7451
▁entscheidend	-7452
2,	-7453
Tal	-7454
kün	-7455
ots	-7456
gste	-7457
irbt	-7458
ront	-7459
takt	-7460
▁Ath	-7461
▁Übr	-7462
endes	-7463
küste	-7464
seher	-7465
▁2009	-7466
▁Juni	-7467
▁Schm	-7468
▁Wann	-7469
▁deut	-7470
▁diag	-7471
decken	-7472
ittelt	-7473
ponent	-7474
▁Große	-7475
▁Scham	-7476
▁Teams	-7477
▁Wicht	-7478
▁veran	-7479
▁Aufbau	-7480
▁Gemüse	-7481
▁Hypoth	-7482
▁Metall	-7483
▁Street	-7484
▁berück	-7485
abilität	-7486
atischen	-7487
aufnahme	-7488
▁General	-7489
▁Mobilte	-7490
▁beunruh	-7491
▁Ägypten	-7492
erkennung	-7493
▁Chinesen	-7494
▁Gebrauch	-7495
▁Trotzdem	-7496
▁erfassen	-7497
▁getrennt	-7498
▁Geschäfte	-7499
▁Ingenieur	-7500
▁Verfahren	-7501
▁irgendwel	-7502
▁eingeführt	-7503
▁Psychologie	-7504
▁eigentliche	-7505
▁inspirieren	-7506
▁vorbereitet	-7507
▁Überraschung	-7508
di	-7509
iat	-7510
zir	-7511
▁Hu	-7512
▁ad	-7513
agte	-7514
back	-7515
▁Hal	-7516
▁Sub	-7517
stete	-7518
vater	-7519
▁Sing	-7520
▁legt	-7521
▁seht	-7522
rimine	-7523
stücke	-7524
wellen	-7525
▁Higgs	-7526
▁Schok	-7527
▁Toten	-7528
▁grüne	-7529
▁mikro	-7530
▁schul	-7531
▁Island	-7532
▁Pollen	-7533
▁deinem	-7534
▁fokuss	-7535
▁zufäll	-7536
ikations	-7537
▁Darüber	-7538
▁Treffen	-7539
▁Verlauf	-7540
▁gezogen	-7541
▁mittels	-7542
▁schmerz	-7543
schreiben	-7544
▁Erinnern	-7545
▁Faktoren	-7546
▁Gegenden	-7547
▁Theorien	-7548
▁anpassen	-7549
▁wünschte	-7550
▁begreifen	-7551
▁definiert	-7552
▁Bibliothek	-7553
▁schwierige	-7554
▁unsichtbar	-7555
▁Herstellung	-7556
▁elektrische	-7557
▁wunderbaren	-7558
▁grundlegenden	-7559
Bo	-7560
züg	-7561
▁Et	-7562
▁Lo	-7563
▁Sä	-7564
dach	-7565
ktes	-7566
same	-7567
ätte	-7568
▁BIP	-7569
▁Box	-7570
▁Lar	-7571
▁Mas	-7572
▁prü	-7573
reift	-7574
these	-7575
ünden	-7576
ünder	-7577
▁Dial	-7578
▁Dsch	-7579
▁Male	-7580
▁Nähr	-7581
▁naja	-7582
bilden	-7583
▁Eisen	-7584
▁Erste	-7585
▁knapp	-7586
fordern	-7587
mitglie	-7588
prozess	-7589
stausch	-7590
▁Flagge	-7591
▁Ganzen	-7592
▁Laufen	-7593
▁Leiter	-7594
▁Schuhe	-7595
▁Thomas	-7596
▁Wahlen	-7597
▁ausser	-7598
▁späten	-7599
▁vorhin	-7600
▁Anstieg	-7601
▁Dokument	-7602
▁Weisheit	-7603
▁ausgeben	-7604
▁besuchte	-7605
▁evolution	-7606
▁spezielle	-7607
schnittlich	-7608
zeichnungen	-7609
▁Dunkelheit	-7610
▁Heutzutage	-7611
▁beeindruck	-7612
▁investiert	-7613
▁Eigenschaft	-7614
▁Terroristen	-7615
▁Normalerweise	-7616
▁dreidimension	-7617
hir	-7618
ora	-7619
ory	-7620
▁zü	-7621
hana	-7622
äden	-7623
▁Ban	-7624
▁Ruf	-7625
▁mel	-7626
betes	-7627
viele	-7628
▁Anti	-7629
▁Trin	-7630
gnügen	-7631
körper	-7632
messer	-7633
▁Berge	-7634
▁Hitze	-7635
▁atmen	-7636
▁rufen	-7637
▁weißt	-7638
eichert	-7639
▁lehren	-7640
▁machst	-7641
schnitts	-7642
▁übersch	-7643
▁Weibchen	-7644
▁ernähren	-7645
▁lebenden	-7646
▁studiert	-7647
▁Afrikaner	-7648
▁Angelegen	-7649
▁Bedrohung	-7650
▁Geschmack	-7651
▁Innerhalb	-7652
▁bekämpfen	-7653
▁denselben	-7654
▁Brustkrebs	-7655
▁genetische	-7656
▁Lebenserwartung	-7657
500	-7658
gut	-7659
hst	-7660
ony	-7661
▁fe	-7662
Aber	-7663
Welt	-7664
fand	-7665
gert	-7666
iens	-7667
park	-7668
zusp	-7669
üren	-7670
aumen	-7671
ächer	-7672
ähern	-7673
▁Arzn	-7674
▁Bang	-7675
▁Bord	-7676
▁auss	-7677
ichtum	-7678
▁Misch	-7679
▁Obama	-7680
▁Zähne	-7681
ichtete	-7682
▁Konsum	-7683
▁Reihen	-7684
▁Schild	-7685
▁kaufte	-7686
▁liebte	-7687
▁neigen	-7688
▁oberen	-7689
▁schlug	-7690
ffizient	-7691
▁Italien	-7692
▁Neugier	-7693
▁entfern	-7694
▁grossen	-7695
▁starken	-7696
▁anhalten	-7697
▁erfüllen	-7698
produktion	-7699
▁Denkweise	-7700
▁Plötzlich	-7701
▁Projekten	-7702
▁anzusehen	-7703
▁verblüffen	-7704
▁vorsichtig	-7705
▁wahrnehmen	-7706
▁Änderungen	-7707
▁Antibiotika	-7708
▁sogenannten	-7709
▁fantastische	-7710
▁zurückkehren	-7711
▁Nachbarschaft	-7712
▁bemerkenswert	-7713
▁interessanten	-7714
Ko	-7715
opt	-7716
▁65	-7717
▁Ve	-7718
▁cm	-7719
▁sä	-7720
▁är	-7721
elen	-7722
emin	-7723
erin	-7724
iums	-7725
▁Mor	-7726
▁Tin	-7727
▁wär	-7728
brech	-7729
heuer	-7730
▁Adam	-7731
▁Camp	-7732
▁Mamm	-7733
▁Nutz	-7734
gänger	-7735
schaff	-7736
öntgen	-7737
▁Autom	-7738
▁Initi	-7739
▁Posit	-7740
▁Sagen	-7741
▁zählt	-7742
griffen	-7743
▁Center	-7744
▁Flügel	-7745
▁Früher	-7746
▁Reisen	-7747
▁konsum	-7748
▁planen	-7749
▁Analyse	-7750
▁Angriff	-7751
▁dankbar	-7752
sprogramm	-7753
▁Problems	-7754
▁Ursprung	-7755
▁erklärte	-7756
lichkeiten	-7757
▁Schmerzen	-7758
▁Schreiben	-7759
▁chemische	-7760
▁ländlichen	-7761
▁wundervoll	-7762
▁beigebracht	-7763
▁Weltbevölkerung	-7764
▁außergewöhnlich	-7765
ban	-7766
ils	-7767
kap	-7768
derm	-7769
raun	-7770
roht	-7771
ßern	-7772
▁Spe	-7773
Spiel	-7774
fühlt	-7775
iness	-7776
llung	-7777
ratet	-7778
stuhl	-7779
▁Brow	-7780
▁Chef	-7781
▁Dipl	-7782
▁Mosk	-7783
▁ment	-7784
▁sens	-7785
▁sorg	-7786
▁vorn	-7787
design	-7788
leicht	-7789
schiff	-7790
schten	-7791
stitut	-7792
örtern	-7793
▁Anruf	-7794
▁Enkel	-7795
▁Immun	-7796
▁Katze	-7797
▁blind	-7798
▁harte	-7799
▁worum	-7800
aktoren	-7801
konomen	-7802
▁Hacker	-7803
▁Januar	-7804
▁Niveau	-7805
▁Yorker	-7806
▁soweit	-7807
▁Inneren	-7808
▁besucht	-7809
▁brechen	-7810
▁schwere	-7811
▁Amerikan	-7812
▁Hinblick	-7813
▁Richtige	-7814
▁Schulter	-7815
▁gesunden	-7816
▁Gespräche	-7817
▁Umständen	-7818
▁ausmachen	-7819
▁erforscht	-7820
ischerweise	-7821
▁Funktionen	-7822
▁beschreibt	-7823
▁Wasserstoff	-7824
▁genetischen	-7825
▁technischen	-7826
▁Privatsphäre	-7827
ipl	-7828
ota	-7829
sun	-7830
tex	-7831
▁0,	-7832
▁pf	-7833
appt	-7834
fung	-7835
iffe	-7836
ight	-7837
soft	-7838
▁Sha	-7839
viert	-7840
▁Aufl	-7841
▁Haie	-7842
▁Knie	-7843
▁Saal	-7844
▁gere	-7845
▁hind	-7846
▁koll	-7847
▁stre	-7848
▁älte	-7849
ffekte	-7850
irgend	-7851
ogramm	-7852
ungsst	-7853
▁Block	-7854
▁Kongo	-7855
▁Sechs	-7856
▁Subst	-7857
▁jenen	-7858
enseits	-7859
▁Sprung	-7860
▁beherr	-7861
▁gewann	-7862
▁schock	-7863
▁wütend	-7864
▁Klavier	-7865
operation	-7866
▁Symptome	-7867
▁Systemen	-7868
▁Training	-7869
▁exponent	-7870
▁gemessen	-7871
▁berechnen	-7872
gehensweise	-7873
▁Mitglieder	-7874
▁Verwendung	-7875
▁kulturelle	-7876
▁glücklicher	-7877
▁konfrontiert	-7878
▁verschiedener	-7879
"]	-7880
Je	-7881
Sc	-7882
fäll	-7883
inal	-7884
ters	-7885
▁Fal	-7886
▁Hir	-7887
▁Täu	-7888
▁zwe	-7889
▁Euch	-7890
▁Kohl	-7891
▁Leid	-7892
▁Ritu	-7893
brauch	-7894
melzen	-7895
ächeln	-7896
▁Haiti	-7897
▁Humor	-7898
▁Level	-7899
▁Sorge	-7900
▁bewir	-7901
▁hoher	-7902
▁könne	-7903
▁unvor	-7904
dringen	-7905
▁Chirur	-7906
▁Gipfel	-7907
▁lächer	-7908
▁nervös	-7909
gefallen	-7910
▁Protein	-7911
▁Systems	-7912
▁angehen	-7913
▁französ	-7914
alisierte	-7915
▁Autismus	-7916
▁Behinder	-7917
▁Entschul	-7918
▁Spektrum	-7919
▁anstelle	-7920
▁berühren	-7921
▁höchsten	-7922
▁vielmehr	-7923
▁Vergnügen	-7924
▁ernsthaft	-7925
▁gestartet	-7926
▁gezwungen	-7927
▁kreativen	-7928
▁mitnehmen	-7929
▁Neuigkeiten	-7930
▁chinesische	-7931
▁biologischen	-7932
▁Einrichtungen	-7933
▁Gleichgewicht	-7934
▁Investitionen	-7935
dy	-7936
▁“	-7937
mat	-7938
vir	-7939
▁DH	-7940
ziel	-7941
▁Haw	-7942
▁Kle	-7943
▁Kuh	-7944
▁Mig	-7945
▁Vag	-7946
▁eth	-7947
eiben	-7948
oppel	-7949
ppich	-7950
ridge	-7951
änner	-7952
▁Bier	-7953
▁Brun	-7954
▁Cart	-7955
▁Mama	-7956
▁Musl	-7957
▁Verm	-7958
▁foss	-7959
anlage	-7960
stoßen	-7961
ziplin	-7962
▁Alpha	-7963
▁Ghana	-7964
▁Guten	-7965
▁alltä	-7966
▁korre	-7967
▁ruhig	-7968
▁öfter	-7969
fassung	-7970
▁Metern	-7971
▁Wälder	-7972
▁gewiss	-7973
▁hassen	-7974
▁kommer	-7975
▁winzig	-7976
▁Letzten	-7977
▁dunklen	-7978
▁erneuer	-7979
▁lernten	-7980
▁molekul	-7981
▁wieviel	-7982
▁Ausnahme	-7983
▁Sensoren	-7984
▁diagnost	-7985
▁gelassen	-7986
▁sinnvoll	-7987
▁verfolgt	-7988
▁vernünft	-7989
▁visuelle	-7990
▁winzigen	-7991
▁Überwach	-7992
▁Belohnung	-7993
▁Microsoft	-7994
▁Plattform	-7995
▁besonderen	-7996
▁dazwischen	-7997
▁Alternative	-7998
▁Oberflächen	-7999
▁zurückgehen	-8000
▁identifizieren	-8001
ep	-8002
Ach	-8003
abl	-8004
hel	-8005
ict	-8006
ino	-8007
uen	-8008
xis	-8009
▁26	-8010
▁28	-8011
▁tr	-8012
ives	-8013
kord	-8014
üter	-8015
chtet	-8016
osexu	-8017
riebs	-8018
ürzen	-8019
▁Arab	-8020
▁Frie	-8021
▁Glet	-8022
▁Grie	-8023
▁gete	-8024
fühlen	-8025
ivileg	-8026
utzend	-8027
wählen	-8028
▁Bibel	-8029
▁Gebur	-8030
▁Polio	-8031
▁manip	-8032
▁saßen	-8033
gebiete	-8034
twortet	-8035
▁Atomen	-8036
▁Geruch	-8037
▁Großen	-8038
▁Muskel	-8039
▁Zurück	-8040
▁kaputt	-8041
▁schaue	-8042
▁stirbt	-8043
▁wenden	-8044
▁Designs	-8045
▁Konstru	-8046
▁Muskeln	-8047
▁Schwarz	-8048
▁Science	-8049
▁Skelett	-8050
▁abgesch	-8051
▁höheren	-8052
▁musikal	-8053
▁stimmen	-8054
▁unerwar	-8055
▁Epidemie	-8056
▁Gefangen	-8057
▁erwähnen	-8058
▁hindurch	-8059
▁seltsame	-8060
▁Nachfrage	-8061
friedenheit	-8062
▁langweilig	-8063
▁regelmäßig	-8064
▁Kapitalismus	-8065
▁Mathematiker	-8066
▁Universitäten	-8067
AR	-8068
Fl	-8069
ds	-8070
oh	-8071
hai	-8072
rel	-8073
änz	-8074
▁Rö	-8075
▁nu	-8076
quem	-8077
▁Don	-8078
▁Mad	-8079
▁att	-8080
▁mon	-8081
▁wem	-8082
ianer	-8083
ioxid	-8084
▁Acht	-8085
▁Base	-8086
▁Dame	-8087
▁Füße	-8088
▁Jack	-8089
▁Manh	-8090
▁Ment	-8091
▁Star	-8092
▁klet	-8093
▁leer	-8094
▁lieb	-8095
rinzip	-8096
▁Autob	-8097
▁Beton	-8098
▁Szene	-8099
▁Tragö	-8100
▁jenem	-8101
▁schei	-8102
▁stieg	-8103
▁verkl	-8104
brochen	-8105
gemacht	-8106
▁Studio	-8107
▁jünger	-8108
▁keines	-8109
▁tanzen	-8110
▁univer	-8111
▁Blätter	-8112
▁Dadurch	-8113
▁Röntgen	-8114
▁Spezial	-8115
▁gesetzt	-8116
reibstoff	-8117
▁Diabetes	-8118
▁Fahrzeug	-8119
▁Prozesse	-8120
▁Stanford	-8121
▁Transpar	-8122
▁gründete	-8123
▁riesiges	-8124
▁Ökonomen	-8125
ologischer	-8126
▁Konflikte	-8127
▁Verlangen	-8128
▁Vorschlag	-8129
▁physische	-8130
▁vergleich	-8131
▁angemessen	-8132
▁Komponenten	-8133
▁irgendeinem	-8134
▁elektrischen	-8135
▁wunderschöne	-8136
,5	-8137
Ex	-8138
So	-8139
“.	-8140
Man	-8141
ise	-8142
▁Tu	-8143
▁Zy	-8144
pass	-8145
umpf	-8146
▁Sar	-8147
▁Wut	-8148
▁sub	-8149
deckt	-8150
ikale	-8151
leger	-8152
lösen	-8153
ätten	-8154
▁Glüh	-8155
▁Klar	-8156
▁Konz	-8157
▁Wäre	-8158
▁gefl	-8159
▁häss	-8160
eignet	-8161
etisch	-8162
geräte	-8163
leiter	-8164
lichem	-8165
▁Leber	-8166
▁frühe	-8167
▁verpf	-8168
gerufen	-8169
▁Medium	-8170
▁Partei	-8171
▁Proben	-8172
▁Therap	-8173
▁Tränen	-8174
▁bildet	-8175
▁drehte	-8176
▁frustr	-8177
anischen	-8178
tausende	-8179
▁Flächen	-8180
▁Ursache	-8181
▁Verschw	-8182
▁benutze	-8183
▁geteilt	-8184
ianischen	-8185
▁Batterie	-8186
▁heiraten	-8187
alisierten	-8188
▁Bedürfnis	-8189
▁Treibhaus	-8190
▁insgesamt	-8191
▁interpret	-8192
▁mittleren	-8193
▁politisch	-8194
▁Prototypen	-8195
▁Schwestern	-8196
▁ignorieren	-8197
▁Einfachheit	-8198
▁Katastrophe	-8199
▁anscheinend	-8200
▁moralischen	-8201
▁unternehmen	-8202
bit	-8203
edy	-8204
kol	-8205
▁36	-8206
ütte	-8207
▁195	-8208
▁Bob	-8209
▁Fer	-8210
▁Ohr	-8211
▁Rel	-8212
▁rom	-8213
▁ärm	-8214
gespr	-8215
gänge	-8216
kohol	-8217
legte	-8218
orten	-8219
▁1990	-8220
▁Benz	-8221
▁Intu	-8222
▁Last	-8223
▁Näch	-8224
fachen	-8225
klasse	-8226
ordnet	-8227
▁Apple	-8228
▁Indem	-8229
▁Küche	-8230
▁Proje	-8231
▁invol	-8232
▁misst	-8233
▁verur	-8234
▁womit	-8235
▁zwang	-8236
▁Kommen	-8237
▁Marken	-8238
▁Organe	-8239
▁Vertei	-8240
▁eingeb	-8241
▁fliegt	-8242
▁vierte	-8243
funktion	-8244
material	-8245
ständige	-8246
▁Schokol	-8247
▁Spinnen	-8248
▁Vorgang	-8249
▁militär	-8250
▁mächtig	-8251
▁spiritu	-8252
▁änderte	-8253
▁Effizienz	-8254
▁Fundament	-8255
▁neugierig	-8256
▁Jedenfalls	-8257
▁Organismus	-8258
▁Strategien	-8259
▁Präsidenten	-8260
▁Transparenz	-8261
▁organisiert	-8262
▁Medikamenten	-8263
▁mittlerweile	-8264
IS	-8265
üd	-8266
▁AB	-8267
aven	-8268
gült	-8269
räum	-8270
wehr	-8271
▁120	-8272
▁Eur	-8273
▁Nat	-8274
▁Ros	-8275
▁Zie	-8276
▁leg	-8277
▁rum	-8278
asern	-8279
istin	-8280
ortex	-8281
▁Ehre	-8282
▁Hard	-8283
▁arch	-8284
▁umso	-8285
▁welt	-8286
annter	-8287
azifik	-8288
fältig	-8289
▁Figur	-8290
▁geöff	-8291
▁islam	-8292
▁Budget	-8293
▁Höhlen	-8294
▁explod	-8295
▁freund	-8296
▁Anstren	-8297
▁Dutzend	-8298
▁Lächeln	-8299
▁Sequenz	-8300
▁stammen	-8301
▁verletz	-8302
▁wirksam	-8303
ikationen	-8304
▁Liebling	-8305
▁nebenbei	-8306
▁schickte	-8307
▁schwerer	-8308
▁Höhepunkt	-8309
▁Weihnacht	-8310
▁abgesehen	-8311
▁gegenwärt	-8312
▁weibliche	-8313
▁Geschäftsm	-8314
▁reparieren	-8315
▁Philosophie	-8316
▁analysieren	-8317
▁wundervolle	-8318
kä	-8319
▁:	-8320
Gen	-8321
eta	-8322
gin	-8323
iop	-8324
twa	-8325
yto	-8326
öch	-8327
▁Ky	-8328
▁wä	-8329
eige	-8330
enkt	-8331
kopf	-8332
ürzt	-8333
▁Aug	-8334
▁Get	-8335
▁ret	-8336
▁tre	-8337
alley	-8338
etzen	-8339
weils	-8340
äufer	-8341
örder	-8342
▁Ener	-8343
▁Salz	-8344
▁gift	-8345
▁hand	-8346
deuten	-8347
steine	-8348
▁Karik	-8349
▁Knopf	-8350
▁human	-8351
▁japan	-8352
▁mobil	-8353
fischen	-8354
staaten	-8355
▁Bedarf	-8356
▁Daumen	-8357
▁Preise	-8358
▁Rollen	-8359
▁beides	-8360
▁beseit	-8361
▁feiern	-8362
▁muslim	-8363
▁potent	-8364
▁romant	-8365
aufgaben	-8366
mögliche	-8367
▁Schnell	-8368
▁gewöhnt	-8369
▁reflekt	-8370
▁setzten	-8371
▁Biologen	-8372
▁Diagnose	-8373
▁eingehen	-8374
▁leuchten	-8375
▁spannend	-8376
▁verletzt	-8377
▁gesammelt	-8378
▁indischen	-8379
▁infiziert	-8380
▁Motivation	-8381
▁Wichtigste	-8382
▁inzwischen	-8383
▁Konsumenten	-8384
▁Schauspieler	-8385
car	-8386
ish	-8387
▁22	-8388
▁Op	-8389
▁PM	-8390
▁Ug	-8391
▁hy	-8392
Amer	-8393
ammt	-8394
ismen	-8395
reide	-8396
selbe	-8397
ämpft	-8398
▁1950	-8399
▁1980	-8400
▁Bush	-8401
▁Flor	-8402
fällig	-8403
ordnen	-8404
wendet	-8405
▁Carto	-8406
▁Haare	-8407
▁Logik	-8408
▁Mäuse	-8409
▁Staub	-8410
▁Stick	-8411
▁beruh	-8412
▁dient	-8413
▁exakt	-8414
raucher	-8415
wandeln	-8416
▁Katzen	-8417
▁Mannes	-8418
▁echtes	-8419
▁inklus	-8420
▁nahezu	-8421
sammlung	-8422
▁Handeln	-8423
▁enormen	-8424
▁jeweils	-8425
▁lebende	-8426
▁richten	-8427
▁verließ	-8428
▁zurecht	-8429
▁Aufstieg	-8430
▁Gebieten	-8431
▁Mitglied	-8432
▁Schweine	-8433
▁Umstände	-8434
▁Vermögen	-8435
▁eröffnet	-8436
▁hingehen	-8437
▁kleinere	-8438
▁offenbar	-8439
▁sozialer	-8440
▁Übrigens	-8441
▁Einschrän	-8442
▁beitragen	-8443
▁benutzten	-8444
▁empfinden	-8445
▁kommerzie	-8446
▁nachdenkt	-8447
▁ähnlichen	-8448
▁arabischen	-8449
▁experiment	-8450
▁wiederholt	-8451
▁Verbesserung	-8452
▁komplizierter	-8453
▁traditionelle	-8454
hh	-8455
ua	-8456
Reg	-8457
bir	-8458
els	-8459
jet	-8460
▁3.	-8461
ches	-8462
gefä	-8463
komp	-8464
städ	-8465
▁Hon	-8466
▁Tum	-8467
agern	-8468
ektar	-8469
fache	-8470
ohlen	-8471
▁2004	-8472
▁Kühl	-8473
▁ehem	-8474
▁qual	-8475
archie	-8476
eitete	-8477
waffen	-8478
▁Kugel	-8479
▁Marke	-8480
▁Meere	-8481
▁Texas	-8482
▁Wände	-8483
▁drück	-8484
▁heben	-8485
▁leist	-8486
▁simul	-8487
ogenese	-8488
station	-8489
▁Tasche	-8490
▁abstra	-8491
▁fließt	-8492
▁verlor	-8493
▁wahren	-8494
zukommen	-8495
▁Alkohol	-8496
▁Pflanze	-8497
▁Schlagz	-8498
▁geraten	-8499
formation	-8500
▁Fantasie	-8501
▁Konzentr	-8502
▁Pinguine	-8503
▁aktuelle	-8504
▁früheren	-8505
▁kreative	-8506
▁Internets	-8507
▁Resultate	-8508
▁Techniken	-8509
▁Toiletten	-8510
▁antworten	-8511
▁Handlungen	-8512
▁emotionale	-8513
▁gemeinnütz	-8514
▁Anwendungen	-8515
▁Ungleichheit	-8516
▁festgestellt	-8517
NA	-8518
tn	-8519
vo	-8520
aku	-8521
ask	-8522
ios	-8523
ola	-8524
ris	-8525
ule	-8526
▁32	-8527
▁Vi	-8528
errt	-8529
äger	-8530
ätig	-8531
▁Act	-8532
▁Sur	-8533
▁Wen	-8534
▁int	-8535
▁rob	-8536
eifen	-8537
griff	-8538
itute	-8539
ruppe	-8540
twick	-8541
▁1960	-8542
▁Ausl	-8543
▁Feed	-8544
▁fein	-8545
▁flex	-8546
▁frie	-8547
▁rest	-8548
▁tanz	-8549
Wissen	-8550
assten	-8551
lament	-8552
lehnen	-8553
leiten	-8554
raktiv	-8555
wörter	-8556
zenten	-8557
▁Schon	-8558
▁Serie	-8559
▁Wärme	-8560
▁stets	-8561
▁verbr	-8562
anlagen	-8563
gesetzt	-8564
igungen	-8565
politik	-8566
quellen	-8567
▁Glücks	-8568
▁Integr	-8569
▁Klinik	-8570
▁Ratten	-8571
▁Sektor	-8572
▁Vorder	-8573
▁erlaub	-8574
▁innere	-8575
▁keinem	-8576
▁mochte	-8577
▁sonder	-8578
▁Büchern	-8579
▁Erstaun	-8580
▁Fremden	-8581
▁Verzwei	-8582
▁heutige	-8583
▁höchste	-8584
▁tauchen	-8585
▁trocken	-8586
▁zuhören	-8587
▁Schwarze	-8588
▁anbieten	-8589
▁begrenzt	-8590
▁einziges	-8591
▁geworfen	-8592
▁verständ	-8593
▁wahrhaft	-8594
▁Maßnahmen	-8595
▁erhielten	-8596
▁letztlich	-8597
▁verpflich	-8598
▁verrückte	-8599
▁Lebensraum	-8600
▁Unterwasser	-8601
▁verarbeiten	-8602
▁vorgestellt	-8603
▁chinesischen	-8604
▁Durchschnitts	-8605
1.	-8606
PA	-8607
?",	-8608
Ges	-8609
eah	-8610
ood	-8611
▁kg	-8612
▁my	-8613
akul	-8614
eins	-8615
äude	-8616
ünde	-8617
▁Abl	-8618
▁Mac	-8619
▁sym	-8620
Mails	-8621
amera	-8622
lefon	-8623
meter	-8624
werte	-8625
▁2006	-8626
▁Dist	-8627
▁Fels	-8628
▁Live	-8629
▁Serv	-8630
▁Verz	-8631
▁flog	-8632
eigung	-8633
skraft	-8634
▁Gramm	-8635
▁Lesen	-8636
▁Mount	-8637
▁Prior	-8638
▁Stich	-8639
▁Willi	-8640
▁legte	-8641
wachsen	-8642
▁Ebenen	-8643
▁Valley	-8644
▁Würden	-8645
▁danken	-8646
▁durfte	-8647
▁öffnet	-8648
schieben	-8649
▁Ausland	-8650
▁Drucker	-8651
▁Entsteh	-8652
▁Erfolgs	-8653
▁Flederm	-8654
▁Manhatt	-8655
▁anfängt	-8656
▁bedeckt	-8657
▁reicher	-8658
▁unsicht	-8659
▁verbrei	-8660
▁Gedichte	-8661
▁ausgehen	-8662
▁befassen	-8663
▁befreien	-8664
▁gefahren	-8665
▁getestet	-8666
▁geöffnet	-8667
▁jährlich	-8668
▁verliebt	-8669
▁vorwärts	-8670
▁Änderung	-8671
▁überlebt	-8672
▁Versuchen	-8673
▁weltweite	-8674
▁Rückenmark	-8675
▁Versorgung	-8676
▁Verteilung	-8677
▁verstecken	-8678
▁übersetzen	-8679
▁diskutieren	-8680
▁schlimmsten	-8681
▁Unternehmens	-8682
▁hinsichtlich	-8683
▁international	-8684
▁repräsentiert	-8685
Os	-8686
ku	-8687
Und	-8688
aps	-8689
izz	-8690
▁MR	-8691
▁bo	-8692
baut	-8693
oben	-8694
otto	-8695
ämen	-8696
ürze	-8697
▁Bek	-8698
▁Kok	-8699
▁Meg	-8700
▁Pin	-8701
▁Pop	-8702
▁Süß	-8703
▁Zut	-8704
asien	-8705
lässt	-8706
weist	-8707
▁Egal	-8708
▁Jeff	-8709
▁Myth	-8710
▁Stil	-8711
▁stat	-8712
▁trat	-8713
drehen	-8714
pflanz	-8715
spunkt	-8716
steckt	-8717
ührung	-8718
▁Achse	-8719
▁Ernst	-8720
▁Oxyto	-8721
▁alter	-8722
▁lasse	-8723
duktion	-8724
▁Anweis	-8725
▁Bomben	-8726
▁Dialog	-8727
▁Explos	-8728
▁Inseln	-8729
▁Oxford	-8730
▁billig	-8731
▁füllen	-8732
▁wartet	-8733
illionen	-8734
jähriger	-8735
▁Ehemann	-8736
▁Schwanz	-8737
▁Verhand	-8738
▁berühmt	-8739
▁beträgt	-8740
▁gelangt	-8741
▁gelegen	-8742
▁install	-8743
▁kreiert	-8744
setzungen	-8745
▁Bewohner	-8746
▁Erfinder	-8747
▁Gebäudes	-8748
▁Griechen	-8749
▁Therapie	-8750
▁Toilette	-8751
▁ausmacht	-8752
▁freiwill	-8753
▁privaten	-8754
▁schreibe	-8755
▁veränder	-8756
▁Ansichten	-8757
▁ungeheuer	-8758
▁verteilen	-8759
krankheiten	-8760
▁Ausrüstung	-8761
▁ausgegeben	-8762
▁Investition	-8763
▁aufeinander	-8764
▁Berechnungen	-8765
▁schreckliche	-8766
organisationen	-8767
▁beeindruckend	-8768
▁Globalisierung	-8769
Se	-8770
sl	-8771
wä	-8772
dat	-8773
now	-8774
ura	-8775
aker	-8776
baum	-8777
mith	-8778
stat	-8779
verl	-8780
well	-8781
▁Imp	-8782
▁Jer	-8783
▁Lau	-8784
▁san	-8785
ampag	-8786
andem	-8787
anzig	-8788
fasst	-8789
ocken	-8790
steht	-8791
thmus	-8792
▁1970	-8793
▁Etwa	-8794
▁Koch	-8795
▁fair	-8796
▁heim	-8797
auchen	-8798
fällen	-8799
heimer	-8800
▁Frühl	-8801
▁Onkel	-8802
▁Pferd	-8803
▁Waffe	-8804
▁Wasch	-8805
▁selbe	-8806
Projekt	-8807
bezogen	-8808
▁Abhäng	-8809
▁Chines	-8810
▁Fahrer	-8811
▁Martin	-8812
▁Uganda	-8813
▁befest	-8814
▁entwar	-8815
▁höchst	-8816
▁offene	-8817
▁verlei	-8818
▁ältere	-8819
befinden	-8820
schalten	-8821
▁Auftrag	-8822
▁Betrieb	-8823
▁Entwurf	-8824
▁Kohlend	-8825
▁Wurzeln	-8826
▁bevorzu	-8827
▁gelehrt	-8828
▁gesunde	-8829
▁kümmert	-8830
▁niedrig	-8831
schließen	-8832
▁Ausgaben	-8833
▁Betracht	-8834
▁Feedback	-8835
▁Konzepte	-8836
▁zentrale	-8837
▁Abenteuer	-8838
▁Symmetrie	-8839
▁aktuellen	-8840
▁bedeutend	-8841
▁niedriger	-8842
▁positiven	-8843
▁physischen	-8844
▁verringern	-8845
▁Flüssigkeit	-8846
▁kulturellen	-8847
▁Katastrophen	-8848
▁auszudrücken	-8849
▁verschwindet	-8850
▁ausschließlich	-8851
Pl	-8852
For	-8853
afe	-8854
imb	-8855
inf	-8856
ölf	-8857
▁BF	-8858
orth	-8859
reht	-8860
▁Tee	-8861
▁mar	-8862
lever	-8863
orien	-8864
▁Brut	-8865
▁Kond	-8866
▁Kore	-8867
▁Thun	-8868
▁gefr	-8869
eltern	-8870
spanne	-8871
▁Künst	-8872
▁Smith	-8873
▁altes	-8874
▁freie	-8875
▁herab	-8876
▁lasst	-8877
chester	-8878
lechter	-8879
▁Allgem	-8880
▁Magnet	-8881
▁Moskit	-8882
▁Reserv	-8883
▁Szenar	-8884
▁Umgang	-8885
▁global	-8886
▁werdet	-8887
bteilung	-8888
eitungen	-8889
▁Angebot	-8890
▁Lehrern	-8891
▁konserv	-8892
▁schöner	-8893
▁Überall	-8894
▁älteren	-8895
aktivität	-8896
▁Kontroll	-8897
▁Oxytocin	-8898
▁benutzte	-8899
▁jenseits	-8900
▁Fahrzeuge	-8901
▁erledigen	-8902
▁inklusive	-8903
▁komplexer	-8904
▁nationale	-8905
▁schrieben	-8906
bedingungen	-8907
▁ausdrücken	-8908
▁umzusetzen	-8909
▁wirklichen	-8910
▁Mechanismus	-8911
▁einzigartig	-8912
▁Journalisten	-8913
▁irgendwelche	-8914
nä	-8915
Auf	-8916
any	-8917
bru	-8918
cks	-8919
▁Cr	-8920
Bahn	-8921
Jähr	-8922
flie	-8923
ical	-8924
irca	-8925
reut	-8926
unft	-8927
▁700	-8928
▁Anh	-8929
▁Cal	-8930
▁Flu	-8931
▁Nov	-8932
▁hüb	-8933
▁ört	-8934
Inter	-8935
aters	-8936
kunst	-8937
örung	-8938
▁Kosm	-8939
▁Urkn	-8940
▁löst	-8941
▁stra	-8942
azität	-8943
schild	-8944
sitzen	-8945
stands	-8946
▁Probe	-8947
▁derer	-8948
▁Übung	-8949
projekt	-8950
verkehr	-8951
wertung	-8952
▁Astron	-8953
▁Belast	-8954
▁Kandid	-8955
▁Kuchen	-8956
▁Stille	-8957
▁Werden	-8958
gebungen	-8959
gegangen	-8960
icherung	-8961
▁Beitrag	-8962
▁Raketen	-8963
▁ersetzt	-8964
wesenheit	-8965
▁Amerikas	-8966
▁Baseball	-8967
▁Einblick	-8968
▁Hinweise	-8969
▁Reichtum	-8970
▁berühmte	-8971
▁billiger	-8972
▁künstler	-8973
▁Gleichung	-8974
▁Statistik	-8975
▁betreffen	-8976
▁gestaltet	-8977
▁unterhalb	-8978
▁Engagement	-8979
▁Selbstmord	-8980
▁Treibstoff	-8981
▁künstliche	-8982
▁teilnehmen	-8983
▁Blickwinkel	-8984
▁unterhalten	-8985
▁zukünftigen	-8986
▁Wohlbefinden	-8987
▁Zufriedenheit	-8988
Wei	-8989
▁95	-8990
achs	-8991
iene	-8992
izop	-8993
onym	-8994
ular	-8995
uste	-8996
▁Lux	-8997
▁Mün	-8998
▁emp	-8999
▁ras	-9000
arren	-9001
firma	-9002
igant	-9003
iller	-9004
umpen	-9005
▁Ever	-9006
▁Grav	-9007
▁Mahl	-9008
▁Türk	-9009
▁Wird	-9010
▁beru	-9011
▁dumm	-9012
▁hung	-9013
▁intu	-9014
▁oper	-9015
Mensch	-9016
mengen	-9017
straße	-9018
▁Blase	-9019
▁Carol	-9020
▁Hölle	-9021
▁Löwen	-9022
▁Pause	-9023
▁Werke	-9024
▁rüber	-9025
▁spont	-9026
▁zogen	-9027
zugehen	-9028
▁Analog	-9029
▁Nutzer	-9030
▁Option	-9031
▁Praxis	-9032
▁fuhren	-9033
▁kooper	-9034
▁schief	-9035
beziehen	-9036
izophren	-9037
▁Dennoch	-9038
▁Flasche	-9039
▁Handels	-9040
▁Lichter	-9041
▁Muslime	-9042
▁Oktober	-9043
▁fließen	-9044
▁illegal	-9045
▁klingen	-9046
igerweise	-9047
▁behaupte	-9048
▁bewahren	-9049
▁demonstr	-9050
▁gegessen	-9051
▁wünschen	-9052
▁Hollywood	-9053
▁Mikroskop	-9054
▁anzugehen	-9055
▁vergewalt	-9056
▁verlangen	-9057
▁Auswirkung	-9058
▁Elektronen	-9059
▁Population	-9060
▁dramatisch	-9061
▁nachhaltig	-9062
▁technische	-9063
▁zukünftige	-9064
abhängigkeit	-9065
▁allgemeinen	-9066
▁einzusetzen	-9067
▁Nervenzellen	-9068
▁komplizierte	-9069
▁zurückkommen	-9070
▁Bürgermeister	-9071
▁Geschichtener	-9072
--	-9073
KW	-9074
Te	-9075
ci	-9076
wa	-9077
▁y	-9078
ary	-9079
fro	-9080
ius	-9081
ops	-9082
uld	-9083
uth	-9084
▁Id	-9085
Test	-9086
atom	-9087
dest	-9088
gner	-9089
hten	-9090
ippe	-9091
kept	-9092
klar	-9093
raut	-9094
▁Alz	-9095
▁Dün	-9096
▁Ren	-9097
▁Zig	-9098
aller	-9099
chron	-9100
größe	-9101
hafen	-9102
ifest	-9103
krise	-9104
ronen	-9105
▁Gift	-9106
▁Kenn	-9107
▁Life	-9108
▁halt	-9109
grunde	-9110
ingung	-9111
steten	-9112
terung	-9113
undern	-9114
ändler	-9115
ütteln	-9116
▁Mauer	-9117
▁Notiz	-9118
▁Tempo	-9119
▁Titan	-9120
▁block	-9121
▁liebt	-9122
▁linke	-9123
▁theor	-9124
▁zweit	-9125
üchtern	-9126
▁Alltag	-9127
▁Ballon	-9128
▁Benzin	-9129
▁Bäumen	-9130
▁Europä	-9131
▁Fliege	-9132
▁Könnte	-9133
▁Sieben	-9134
▁enttäu	-9135
▁konkur	-9136
gekommen	-9137
▁Ausgang	-9138
▁Letztes	-9139
▁bedroht	-9140
▁greifen	-9141
▁liefert	-9142
▁schönes	-9143
▁suchten	-9144
▁verschm	-9145
▁ärmsten	-9146
▁Bedenken	-9147
▁Schreibt	-9148
▁Vorträge	-9149
▁argument	-9150
▁erkunden	-9151
▁Gletscher	-9152
▁Parlament	-9153
▁visuellen	-9154
▁Entstehung	-9155
▁Standpunkt	-9156
▁entdeckten	-9157
▁nationalen	-9158
▁offensicht	-9159
▁vermittelt	-9160
▁zusätzlich	-9161
▁Gegenstände	-9162
▁nachhaltige	-9163
▁vorhersagen	-9164
▁Kohlendioxid	-9165
▁Schriftsteller	-9166
▁schlussendlich	-9167
zo	-9168
Als	-9169
emp	-9170
way	-9171
hnte	-9172
rott	-9173
zell	-9174
▁800	-9175
▁Imm	-9176
▁Joe	-9177
▁Oft	-9178
dauer	-9179
heber	-9180
kette	-9181
leute	-9182
stimm	-9183
▁Bron	-9184
▁Gand	-9185
▁Hals	-9186
▁Homo	-9187
▁Spur	-9188
▁Tode	-9189
▁befr	-9190
▁hell	-9191
ektion	-9192
garten	-9193
mitten	-9194
summen	-9195
üchtig	-9196
▁Green	-9197
▁Heran	-9198
▁Höhle	-9199
▁Party	-9200
▁Peter	-9201
▁Trink	-9202
▁Volks	-9203
▁Weltw	-9204
▁braun	-9205
▁offiz	-9206
▁tiefe	-9207
stecken	-9208
streben	-9209
▁Berufs	-9210
▁Felsen	-9211
▁Intens	-9212
▁Konkur	-9213
▁Köpfen	-9214
▁Ruanda	-9215
▁Werten	-9216
▁ehemal	-9217
▁festge	-9218
▁Fußball	-9219
▁Inhalte	-9220
▁Magazin	-9221
▁Schädel	-9222
▁Spenden	-9223
▁gewinnt	-9224
▁nutzten	-9225
▁widersp	-9226
▁winzige	-9227
▁Sammlung	-9228
▁Schülern	-9229
▁Speicher	-9230
▁Stiftung	-9231
▁beachten	-9232
▁erlangen	-9233
▁gebildet	-9234
▁schnelle	-9235
▁zugrunde	-9236
▁zweitens	-9237
▁Einheiten	-9238
▁Großvater	-9239
▁Manhattan	-9240
▁Zeitungen	-9241
▁ausführen	-9242
▁hilfreich	-9243
▁hoffnungs	-9244
▁übersetzt	-9245
▁angekommen	-9246
▁aufmerksam	-9247
▁religiösen	-9248
▁virtuellen	-9249
▁überprüfen	-9250
▁Videospiele	-9251
▁angetrieben	-9252
▁profitieren	-9253
▁schwierigen	-9254
▁verbrauchen	-9255
▁Arbeitsplatz	-9256
▁intelligente	-9257
▁Produktivität	-9258
▁unterscheidet	-9259
wissenschaftler	-9260
▁Lebensqualität	-9261
BI	-9262
ET	-9263
va	-9264
ani	-9265
bew	-9266
oto	-9267
rix	-9268
▁Av	-9269
Kopf	-9270
bein	-9271
flei	-9272
igma	-9273
llte	-9274
äser	-9275
▁191	-9276
▁Dez	-9277
▁Jim	-9278
▁Oel	-9279
▁Rio	-9280
▁nör	-9281
rugen	-9282
terte	-9283
▁Appl	-9284
▁Kilo	-9285
▁Mist	-9286
▁Prop	-9287
▁quer	-9288
▁üben	-9289
wecken	-9290
▁Front	-9291
▁Hören	-9292
▁Satur	-9293
▁circa	-9294
▁heiße	-9295
▁schäd	-9296
▁stimm	-9297
▁verle	-9298
▁wirft	-9299
▁Älter	-9300
lichung	-9301
schönen	-9302
zustand	-9303
▁Beinen	-9304
▁Dichte	-9305
▁Diesen	-9306
▁Gerade	-9307
▁Spuren	-9308
▁Trends	-9309
▁treibt	-9310
▁umwelt	-9311
eimittel	-9312
geschäft	-9313
ierendes	-9314
isierten	-9315
reichend	-9316
werkraft	-9317
zweifelt	-9318
ächtigen	-9319
▁fühlten	-9320
zeichnung	-9321
▁Erschein	-9322
▁Gefahren	-9323
▁Illusion	-9324
▁sexuelle	-9325
▁struktur	-9326
▁Alzheimer	-9327
▁Flugzeuge	-9328
▁effizient	-9329
▁erfordert	-9330
▁erinnerte	-9331
▁erzählten	-9332
▁geblieben	-9333
ministerium	-9334
▁Allerdings	-9335
▁Gegenstand	-9336
▁Gestaltung	-9337
organisation	-9338
▁Kooperation	-9339
▁zusätzliche	-9340
▁Depressionen	-9341
▁afrikanische	-9342
▁ungewöhnlich	-9343
▁programmieren	-9344
▁weiterentwick	-9345
▁Menschlichkeit	-9346
▁Nahrungsmittel	-9347
MA	-9348
ln	-9349
▁›	-9350
ati	-9351
col	-9352
ray	-9353
row	-9354
urr	-9355
vas	-9356
▁TV	-9357
..."	-9358
aver	-9359
dere	-9360
eder	-9361
geld	-9362
puls	-9363
uell	-9364
▁Leg	-9365
▁Sir	-9366
▁ert	-9367
▁irr	-9368
dustr	-9369
orter	-9370
osten	-9371
reter	-9372
ucken	-9373
▁Chip	-9374
▁Lärm	-9375
▁Penn	-9376
binden	-9377
breite	-9378
eidung	-9379
gerung	-9380
handel	-9381
jenige	-9382
▁Beide	-9383
▁Hügel	-9384
▁Käfer	-9385
▁Lehre	-9386
▁Mathe	-9387
▁Nobel	-9388
▁Olymp	-9389
▁Reden	-9390
▁allzu	-9391
▁dicht	-9392
▁lagen	-9393
▁malen	-9394
ildeten	-9395
konstru	-9396
▁Dinger	-9397
▁Einmal	-9398
▁Knoten	-9399
▁Kriege	-9400
▁clever	-9401
▁primit	-9402
▁reiste	-9403
▁spiele	-9404
▁Ärzten	-9405
sichtigt	-9406
▁Dynamik	-9407
▁Figuren	-9408
▁Glühbir	-9409
▁Hinweis	-9410
▁Veranst	-9411
▁Weltall	-9412
▁diesmal	-9413
▁private	-9414
▁trennen	-9415
▁aufrecht	-9416
▁bedenken	-9417
▁gesünder	-9418
▁schießen	-9419
▁Austausch	-9420
▁Intuition	-9421
▁Störungen	-9422
▁Tätigkeit	-9423
▁attraktiv	-9424
▁auftreten	-9425
▁errichten	-9426
▁Asteroiden	-9427
▁allgemeine	-9428
▁beschützen	-9429
▁verbraucht	-9430
▁Anerkennung	-9431
▁ausgebildet	-9432
▁weitermachen	-9433
▁abgeschlossen	-9434
▁sicherstellen	-9435
].	-9436
agd	-9437
gab	-9438
hil	-9439
kes	-9440
mod	-9441
obi	-9442
ßte	-9443
▁33	-9444
▁85	-9445
▁Ah	-9446
▁PC	-9447
▁to	-9448
emen	-9449
flex	-9450
obby	-9451
sitz	-9452
ühle	-9453
▁10-	-9454
▁Anf	-9455
▁Wow	-9456
block	-9457
gehör	-9458
inson	-9459
sorge	-9460
thiop	-9461
üster	-9462
▁2003	-9463
▁Iron	-9464
▁King	-9465
▁Seil	-9466
▁sign	-9467
drücke	-9468
eigern	-9469
fanden	-9470
graben	-9471
ildern	-9472
regung	-9473
werten	-9474
▁Falle	-9475
▁Smart	-9476
▁Welle	-9477
▁begrü	-9478
▁schlä	-9479
▁verne	-9480
flächen	-9481
sträger	-9482
▁20.000	-9483
▁Latein	-9484
▁Pocken	-9485
▁herbei	-9486
▁leeren	-9487
▁tollen	-9488
ensystem	-9489
erkennen	-9490
stimmung	-9491
▁Abstand	-9492
▁Autoren	-9493
▁Geburts	-9494
▁Industr	-9495
▁Pazifik	-9496
▁Punkten	-9497
▁Studium	-9498
▁beendet	-9499
▁erfüllt	-9500
▁nirgend	-9501
▁unangen	-9502
▁zwingen	-9503
▁Empathie	-9504
▁Vortrags	-9505
▁einziger	-9506
▁erzielen	-9507
▁häufiger	-9508
▁zugleich	-9509
▁Übergang	-9510
▁Allgemein	-9511
▁Anzeichen	-9512
▁Flughafen	-9513
▁Mittleren	-9514
▁folgender	-9515
▁Betrachten	-9516
▁Gleichheit	-9517
▁Allgemeinen	-9518
▁Nordamerika	-9519
▁Schwerkraft	-9520
▁mü	-9521
grad	-9522
mmel	-9523
omos	-9524
rien	-9525
yram	-9526
änen	-9527
▁Bew	-9528
▁Hai	-9529
▁Hut	-9530
▁Jon	-9531
▁Vis	-9532
▁ass	-9533
besch	-9534
ipend	-9535
raben	-9536
rateg	-9537
schel	-9538
sucht	-9539
▁Camb	-9540
▁ethn	-9541
▁kosm	-9542
anders	-9543
ativer	-9544
orenen	-9545
ropfen	-9546
▁Absch	-9547
▁Apfel	-9548
▁Behör	-9549
▁Gates	-9550
▁Griff	-9551
▁Kluft	-9552
▁Köpfe	-9553
▁Taten	-9554
▁abend	-9555
▁endet	-9556
▁schie	-9557
▁trage	-9558
▁ultim	-9559
pressiv	-9560
yramide	-9561
▁Besten	-9562
▁Küsten	-9563
▁Saturn	-9564
▁Später	-9565
▁Tenden	-9566
▁Vagina	-9567
▁echter	-9568
▁erfuhr	-9569
▁gigant	-9570
▁kochen	-9571
▁lenken	-9572
▁region	-9573
▁rennen	-9574
▁sinken	-9575
▁tolles	-9576
▁verhei	-9577
▁Äthiop	-9578
designer	-9579
ierender	-9580
tagessen	-9581
zumachen	-9582
▁Florida	-9583
▁dreimal	-9584
▁einzeln	-9585
▁landete	-9586
schaffung	-9587
▁Herkunft	-9588
▁Norwegen	-9589
▁Tragödie	-9590
▁unsicher	-9591
▁Einwohner	-9592
▁Erwärmung	-9593
▁Institute	-9594
▁Kreislauf	-9595
▁angepasst	-9596
▁genetisch	-9597
▁irgendwas	-9598
▁tausenden	-9599
▁vergrößer	-9600
geschritten	-9601
▁Abendessen	-9602
▁ansprechen	-9603
▁bewältigen	-9604
▁chemischen	-9605
▁Operationen	-9606
▁anzuschauen	-9607
▁stattfinden	-9608
▁ursprüngliche	-9609
▁Untersuchungen	-9610
EC	-9611
LA	-9612
“,	-9613
Ist	-9614
lem	-9615
äme	-9616
▁KB	-9617
ardo	-9618
bell	-9619
bole	-9620
rufe	-9621
stel	-9622
stil	-9623
stoß	-9624
uden	-9625
vern	-9626
▁Clo	-9627
▁Mai	-9628
▁Mak	-9629
▁pol	-9630
▁weh	-9631
ampen	-9632
dacht	-9633
iffen	-9634
kamen	-9635
spart	-9636
▁Bahn	-9637
▁Foss	-9638
▁Gast	-9639
▁Güte	-9640
▁Kauf	-9641
▁Matt	-9642
▁Maße	-9643
▁Prem	-9644
▁Sexu	-9645
▁deta	-9646
▁live	-9647
besitz	-9648
gungen	-9649
ildete	-9650
kasten	-9651
reiter	-9652
▁5.000	-9653
▁Digit	-9654
▁Haust	-9655
▁Ignor	-9656
▁Panik	-9657
▁Summe	-9658
▁Sätze	-9659
▁Waren	-9660
▁Woher	-9661
▁kauft	-9662
▁stärk	-9663
▁zwölf	-9664
enschwe	-9665
fleisch	-9666
sonsten	-9667
technik	-9668
▁Kurzem	-9669
▁Liebes	-9670
▁Liefer	-9671
▁Schock	-9672
▁Stimmt	-9673
▁Stämme	-9674
▁Talent	-9675
▁Tricks	-9676
▁akadem	-9677
etischen	-9678
ichteten	-9679
▁Komprom	-9680
▁Umfrage	-9681
▁bewegte	-9682
▁detaill	-9683
▁geredet	-9684
▁komisch	-9685
▁vermute	-9686
katastrop	-9687
▁Amazonas	-9688
▁Dezember	-9689
▁Energien	-9690
▁Fabriken	-9691
▁Frühling	-9692
▁Mischung	-9693
▁Vielzahl	-9694
▁Weltbank	-9695
▁bedienen	-9696
▁beziehen	-9697
▁schaffte	-9698
▁schließt	-9699
▁sicherer	-9700
▁soziales	-9701
▁startete	-9702
wohnheiten	-9703
▁Animation	-9704
▁Cambridge	-9705
▁Erziehung	-9706
▁Fernseher	-9707
▁Fischerei	-9708
▁Meinungen	-9709
▁Schlechte	-9710
▁ermöglich	-9711
▁geschützt	-9712
▁perfekten	-9713
▁täglichen	-9714
▁vorkommen	-9715
▁Leistungen	-9716
▁angeschaut	-9717
▁auftauchen	-9718
▁Mittagessen	-9719
▁effizienter	-9720
▁Abhängigkeit	-9721
▁Erkrankungen	-9722
▁Schreibtisch	-9723
▁Stoffwechsel	-9724
▁leidenschaft	-9725
▁durchzuführen	-9726
▁gewissermaßen	-9727
▁wunderschönen	-9728
'.	-9729
uk	-9730
Aus	-9731
rav	-9732
ric	-9733
ymm	-9734
äub	-9735
öne	-9736
▁CD	-9737
gäng	-9738
iale	-9739
lass	-9740
▁1,5	-9741
▁17.	-9742
▁Aqu	-9743
▁Dop	-9744
▁Fro	-9745
▁Sus	-9746
▁Tes	-9747
▁geg	-9748
▁jüd	-9749
Masch	-9750
achel	-9751
antom	-9752
bruar	-9753
haber	-9754
otter	-9755
werks	-9756
▁Darm	-9757
▁Dick	-9758
▁Euro	-9759
▁Watt	-9760
▁herz	-9761
▁wach	-9762
haufen	-9763
ierbar	-9764
odelle	-9765
onomie	-9766
▁Appar	-9767
▁Conne	-9768
▁Dauer	-9769
▁Gehör	-9770
▁Hyper	-9771
▁Lücke	-9772
▁Roman	-9773
▁Vietn	-9774
▁anerk	-9775
▁etabl	-9776
▁schme	-9777
▁ständ	-9778
▁weich	-9779
arakter	-9780
gebäude	-9781
setzten	-9782
tragung	-9783
ährungs	-9784
▁50.000	-9785
▁Banken	-9786
▁Poster	-9787
▁Schall	-9788
▁Spiels	-9789
▁Wollen	-9790
▁halben	-9791
▁senken	-9792
▁stoßen	-9793
▁Ökonom	-9794
Programm	-9795
alitäten	-9796
getragen	-9797
▁Februar	-9798
▁Königin	-9799
▁Schlimm	-9800
▁Spitzen	-9801
▁Zentral	-9802
▁beliebt	-9803
▁blicken	-9804
▁empfind	-9805
▁fressen	-9806
▁träumen	-9807
▁verdopp	-9808
▁zweites	-9809
▁züchten	-9810
▁Beschäft	-9811
▁Minister	-9812
▁Privileg	-9813
▁Versagen	-9814
▁bewerten	-9815
▁erledigt	-9816
▁erschien	-9817
▁herrscht	-9818
▁inmitten	-9819
unterricht	-9820
▁Autorität	-9821
▁Bewegungs	-9822
▁Führungsp	-9823
▁Interpret	-9824
▁Offenheit	-9825
▁Regenwald	-9826
▁Strahlung	-9827
▁vielerlei	-9828
▁Bandbreite	-9829
▁Supermarkt	-9830
▁angesichts	-9831
▁ausgewählt	-9832
▁involviert	-9833
▁	-9834
e	-9835
n	-9836
i	-9837
r	-9838
s	-9839
t	-9840
a	-9841
d	-9842
h	-9843
u	-9844
l	-9845
c	-9846
o	-9847
m	-9848
g	-9849
,	-9850
b	-9851
w	-9852
.	-9853
f	-9854
k	-9855
z	-9856
v	-9857
S	-9858
ü	-9859
p	-9860
ä	-9861
D	-9862
A	-9863
W	-9864
M	-9865
E	-9866
I	-9867
ö	-9868
G	-9869
B	-9870
K	-9871
U	-9872
-	-9873
F	-9874
P	-9875
L	-9876
T	-9877
"	-9878
H	-9879
V	-9880
ß	-9881
R	-9882
N	-9883
0	-9884
j	-9885
J	-9886
:	-9887
Z	-9888
y	-9889
?	-9890
O	-9891
C	-9892
1	-9893
x	-9894
2	-9895
–	-9896
5	-9897
9	-9898
3	-9899
♫	-9900
4	-9901
8	-9902
6	-9903
;	-9904
7	-9905
'	-9906
q	-9907
!	-9908
Ü	-9909
Q	-9910
Ä	-9911
Y	-9912
Ö	-9913
„	-9914
%	-9915
“	-9916
[	-9917
]	-9918
♪	-9919
&	-9920
/	-9921
»	-9922
«	-9923
—	-9924
X	-9925
$	-9926
é	-9927
”	-9928
‹	-9929
›	-9930
á	-9931
‘	-9932
’	-9933
β	-9934
°	-9935
=	-9936
⁄	-9937
í	-9938
+	-9939
ó	-9940
́	-9941
è	-9942
_	-9943
‟	-9944
ç	-9945
‚	-9946
‒	-9947
)	-9948
à	-9949
ã	-9950
^	-9951
ñ	-9952
#	-9953
@	-9954
­	-9955
€	-9956
(	-9957
`	-9958
ø	-9959
	-9960
	-9961
	-9962
É	-9963
â	-9964
ë	-9965
ā	-9966
*	-9967
¥	-9968
Å	-9969
×	-9970
ê	-9971
ô	-9972
œ	-9973
¡	-9974
©	-9975
®	-9976
¶	-9977
Á	-9978
ï	-9979
ú	-9980
ý	-9981
ī	-9982
š	-9983
£	-9984
Ç	-9985
ć	-9986
Č	-9987
ě	-9988
ū	-9989
Ű	-9990
к	-9991
Ӓ	-9992
你	-9993
葱	-9994
送	-9995
